#ifndef ANN_MODEL_DATA_H
#define ANN_MODEL_DATA_H

// =========================================================
// Modele ANN TFLite converti en header C pour ESP32
// Genere automatiquement depuis ann_final_stable_seed84.tflite
// =========================================================

#include <cstdint>

const unsigned char ann_model_tflite[] = {
  0x1c, 0x00, 0x00, 0x00, 0x54, 0x46, 0x4c, 0x33, 0x14, 0x00, 0x20, 0x00, 
  0x1c, 0x00, 0x18, 0x00, 0x14, 0x00, 0x10, 0x00, 0x0c, 0x00, 0x00, 0x00, 
  0x08, 0x00, 0x04, 0x00, 0x14, 0x00, 0x00, 0x00, 0x1c, 0x00, 0x00, 0x00, 
  0x8c, 0x00, 0x00, 0x00, 0xe4, 0x00, 0x00, 0x00, 0x10, 0x0f, 0x00, 0x00, 
  0x20, 0x0f, 0x00, 0x00, 0x08, 0x15, 0x00, 0x00, 0x03, 0x00, 0x00, 0x00, 
  0x01, 0x00, 0x00, 0x00, 0x04, 0x00, 0x00, 0x00, 0xa2, 0xf0, 0xff, 0xff, 
  0x0c, 0x00, 0x00, 0x00, 0x1c, 0x00, 0x00, 0x00, 0x3c, 0x00, 0x00, 0x00, 
  0x0f, 0x00, 0x00, 0x00, 0x73, 0x65, 0x72, 0x76, 0x69, 0x6e, 0x67, 0x5f, 
  0x64, 0x65, 0x66, 0x61, 0x75, 0x6c, 0x74, 0x00, 0x01, 0x00, 0x00, 0x00, 
  0x04, 0x00, 0x00, 0x00, 0x90, 0xff, 0xff, 0xff, 0x0a, 0x00, 0x00, 0x00, 
  0x04, 0x00, 0x00, 0x00, 0x08, 0x00, 0x00, 0x00, 0x6f, 0x75, 0x74, 0x70, 
  0x75, 0x74, 0x5f, 0x30, 0x00, 0x00, 0x00, 0x00, 0x01, 0x00, 0x00, 0x00, 
  0x04, 0x00, 0x00, 0x00, 0xb2, 0xf1, 0xff, 0xff, 0x04, 0x00, 0x00, 0x00, 
  0x0c, 0x00, 0x00, 0x00, 0x6b, 0x65, 0x72, 0x61, 0x73, 0x5f, 0x74, 0x65, 
  0x6e, 0x73, 0x6f, 0x72, 0x00, 0x00, 0x00, 0x00, 0x02, 0x00, 0x00, 0x00, 
  0x34, 0x00, 0x00, 0x00, 0x04, 0x00, 0x00, 0x00, 0xdc, 0xff, 0xff, 0xff, 
  0x0d, 0x00, 0x00, 0x00, 0x04, 0x00, 0x00, 0x00, 0x13, 0x00, 0x00, 0x00, 
  0x43, 0x4f, 0x4e, 0x56, 0x45, 0x52, 0x53, 0x49, 0x4f, 0x4e, 0x5f, 0x4d, 
  0x45, 0x54, 0x41, 0x44, 0x41, 0x54, 0x41, 0x00, 0x08, 0x00, 0x0c, 0x00, 
  0x08, 0x00, 0x04, 0x00, 0x08, 0x00, 0x00, 0x00, 0x0c, 0x00, 0x00, 0x00, 
  0x04, 0x00, 0x00, 0x00, 0x13, 0x00, 0x00, 0x00, 0x6d, 0x69, 0x6e, 0x5f, 
  0x72, 0x75, 0x6e, 0x74, 0x69, 0x6d, 0x65, 0x5f, 0x76, 0x65, 0x72, 0x73, 
  0x69, 0x6f, 0x6e, 0x00, 0x0e, 0x00, 0x00, 0x00, 0x28, 0x0e, 0x00, 0x00, 
  0x20, 0x0e, 0x00, 0x00, 0xd0, 0x0d, 0x00, 0x00, 0xb4, 0x0d, 0x00, 0x00, 
  0x64, 0x0d, 0x00, 0x00, 0x54, 0x05, 0x00, 0x00, 0x44, 0x01, 0x00, 0x00, 
  0xb4, 0x00, 0x00, 0x00, 0xac, 0x00, 0x00, 0x00, 0xa4, 0x00, 0x00, 0x00, 
  0x9c, 0x00, 0x00, 0x00, 0x94, 0x00, 0x00, 0x00, 0x74, 0x00, 0x00, 0x00, 
  0x04, 0x00, 0x00, 0x00, 0x66, 0xf2, 0xff, 0xff, 0x04, 0x00, 0x00, 0x00, 
  0x60, 0x00, 0x00, 0x00, 0x0c, 0x00, 0x00, 0x00, 0x08, 0x00, 0x0e, 0x00, 
  0x08, 0x00, 0x04, 0x00, 0x08, 0x00, 0x00, 0x00, 0x10, 0x00, 0x00, 0x00, 
  0x28, 0x00, 0x00, 0x00, 0x00, 0x00, 0x06, 0x00, 0x08, 0x00, 0x04, 0x00, 
  0x06, 0x00, 0x00, 0x00, 0x04, 0x00, 0x00, 0x00, 0x01, 0x00, 0x00, 0x00, 
  0xea, 0x03, 0x00, 0x00, 0x0c, 0x00, 0x18, 0x00, 0x14, 0x00, 0x10, 0x00, 
  0x0c, 0x00, 0x04, 0x00, 0x0c, 0x00, 0x00, 0x00, 0x9d, 0x21, 0xa9, 0xc7, 
  0xc3, 0xca, 0xa2, 0x07, 0x02, 0x00, 0x00, 0x00, 0x02, 0x00, 0x00, 0x00, 
  0x04, 0x00, 0x00, 0x00, 0x06, 0x00, 0x00, 0x00, 0x32, 0x2e, 0x32, 0x31, 
  0x2e, 0x30, 0x00, 0x00, 0xd2, 0xf2, 0xff, 0xff, 0x04, 0x00, 0x00, 0x00, 
  0x10, 0x00, 0x00, 0x00, 0x31, 0x2e, 0x31, 0x34, 0x2e, 0x30, 0x00, 0x00, 
  0x00, 0x00, 0x00, 0x00, 0x00, 0x00, 0x00, 0x00, 0xcc, 0xec, 0xff, 0xff, 
  0xd0, 0xec, 0xff, 0xff, 0xd4, 0xec, 0xff, 0xff, 0xd8, 0xec, 0xff, 0xff, 
  0xfe, 0xf2, 0xff, 0xff, 0x04, 0x00, 0x00, 0x00, 0x80, 0x00, 0x00, 0x00, 
  0x31, 0x82, 0x58, 0xbb, 0x05, 0x90, 0x0f, 0xbe, 0x3d, 0x30, 0x50, 0x3e, 
  0x2f, 0xc0, 0x97, 0x3d, 0x42, 0x30, 0x15, 0x3e, 0x72, 0x35, 0xcd, 0xbe, 
  0xf9, 0x6c, 0xb0, 0xbe, 0xf6, 0x0a, 0xd7, 0x3c, 0x54, 0xe7, 0x9c, 0xbd, 
  0x2e, 0xd9, 0x0e, 0x3e, 0xf8, 0x41, 0xed, 0x3e, 0xb7, 0x9d, 0x4b, 0x3e, 
  0x7e, 0x1d, 0xb9, 0x3d, 0x01, 0x79, 0xa4, 0xbd, 0x5b, 0xc4, 0x23, 0xbd, 
  0x09, 0xe9, 0x45, 0x3c, 0xed, 0x73, 0x86, 0xbe, 0x64, 0x3e, 0x8f, 0x3d, 
  0x80, 0x76, 0xc2, 0x3e, 0x28, 0x2e, 0x51, 0x3e, 0x0f, 0xbc, 0xa6, 0xbe, 
  0x5f, 0x4b, 0x8e, 0xbe, 0xaa, 0x8e, 0xd1, 0x3e, 0x67, 0xab, 0xab, 0x3e, 
  0x87, 0xba, 0x90, 0x3d, 0xcb, 0xba, 0xcb, 0x3e, 0xdc, 0x8f, 0xbc, 0x3e, 
  0xaf, 0x6b, 0xab, 0x3e, 0x9a, 0x8d, 0x15, 0xbd, 0x95, 0x53, 0x13, 0x3e, 
  0x3c, 0x7d, 0x80, 0x3e, 0xd5, 0x13, 0x44, 0x3d, 0x8a, 0xf3, 0xff, 0xff, 
  0x04, 0x00, 0x00, 0x00, 0x00, 0x04, 0x00, 0x00, 0x6f, 0xae, 0x9e, 0x3e, 
  0x80, 0xd0, 0x20, 0x3d, 0xc3, 0x00, 0xf5, 0xbe, 0xe3, 0xb9, 0xe0, 0x3f, 
  0xe7, 0x40, 0x5f, 0x3d, 0x25, 0xf2, 0xc2, 0x3e, 0x91, 0x4c, 0x1a, 0x3e, 
  0x48, 0x35, 0x0f, 0xbf, 0xb2, 0x92, 0x87, 0xbc, 0xe1, 0x08, 0xde, 0x3d, 
  0x3a, 0x96, 0x09, 0x3f, 0xab, 0xd9, 0xe1, 0xbd, 0xab, 0xe1, 0x89, 0x3d, 
  0x45, 0xc9, 0xa1, 0xbe, 0x79, 0xe3, 0xf5, 0xbe, 0x4a, 0xfc, 0xce, 0x3e, 
  0xdf, 0xf7, 0xe3, 0xbe, 0xab, 0xb9, 0xf2, 0xbd, 0x00, 0x64, 0xaa, 0x3e, 
  0x14, 0x71, 0xac, 0xbe, 0xd1, 0x07, 0x6b, 0xbf, 0xac, 0x0c, 0xef, 0x3d, 
  0xf3, 0xbd, 0x11, 0x3e, 0x6e, 0xf6, 0x48, 0xbe, 0x55, 0x7e, 0x95, 0x3e, 
  0xe7, 0xf5, 0x75, 0x3d, 0xd7, 0x66, 0x78, 0x3c, 0x86, 0xa0, 0x5b, 0xbf, 
  0xc2, 0xf4, 0x2d, 0xc0, 0x42, 0x9f, 0x56, 0xbe, 0x30, 0x09, 0x0f, 0x3d, 
  0x6c, 0xef, 0x16, 0x3f, 0x74, 0xa6, 0x7d, 0x3e, 0x37, 0xdc, 0x41, 0x3e, 
  0x81, 0x4d, 0x82, 0xbd, 0x06, 0x54, 0x8a, 0xbf, 0xdf, 0x34, 0x0d, 0xc0, 
  0x12, 0x3b, 0x12, 0xbe, 0xd3, 0x87, 0x46, 0x3c, 0xd5, 0xa4, 0x4a, 0x3f, 
  0xfe, 0x15, 0x48, 0x3d, 0x29, 0xa8, 0x8f, 0xbe, 0x59, 0xab, 0x27, 0xbf, 
  0x14, 0xac, 0x83, 0x3f, 0xf2, 0x1f, 0x41, 0x3d, 0x15, 0x6e, 0x3f, 0x3f, 
  0x72, 0xf8, 0x8e, 0x3e, 0x03, 0xa7, 0xa1, 0xbe, 0x4e, 0x33, 0x92, 0x3e, 
  0x64, 0xe7, 0xa1, 0x3d, 0x12, 0x28, 0xea, 0xbe, 0x8b, 0x66, 0x51, 0x3f, 
  0xcf, 0x0a, 0xf9, 0xba, 0xd2, 0xa6, 0x38, 0x3e, 0xdb, 0xd6, 0xb0, 0xbd, 
  0xc0, 0xa1, 0xbe, 0x3d, 0x18, 0xde, 0x7f, 0xbf, 0xf3, 0x8a, 0xe1, 0xbd, 
  0xfb, 0x06, 0x4a, 0x3e, 0xe9, 0x09, 0xbf, 0x3d, 0xdf, 0x97, 0x16, 0x3b, 
  0x67, 0x5b, 0x81, 0x3e, 0xd6, 0x44, 0xe0, 0x3d, 0xce, 0xcb, 0xb2, 0xbe, 
  0x9c, 0x85, 0x38, 0x3e, 0x88, 0xdc, 0x1e, 0x3f, 0x39, 0x35, 0x8f, 0x3e, 
  0xe2, 0xf6, 0xa6, 0x3d, 0x2c, 0xc7, 0x88, 0x3e, 0x74, 0xe6, 0x12, 0xbe, 
  0xbf, 0x5c, 0x6a, 0x3f, 0x1e, 0x16, 0xcc, 0xbd, 0xa6, 0x11, 0x90, 0xbe, 
  0xce, 0xf3, 0x02, 0xbf, 0x2c, 0xc8, 0x0a, 0x3f, 0xca, 0xb1, 0x87, 0xbe, 
  0x81, 0xe2, 0x33, 0xbf, 0xfc, 0xd1, 0xeb, 0x3d, 0x2c, 0xdd, 0xc6, 0x3d, 
  0xf2, 0xd8, 0x61, 0x3f, 0x0a, 0x97, 0x3c, 0x3e, 0xc7, 0x88, 0x1a, 0x3f, 
  0x4b, 0x62, 0x4e, 0x3f, 0x9d, 0xe9, 0x4d, 0xbe, 0xc7, 0x60, 0xbd, 0x3d, 
  0x6d, 0xde, 0x83, 0xbe, 0xef, 0x85, 0xad, 0xbd, 0x11, 0xb3, 0x48, 0xbe, 
  0x36, 0x77, 0xa0, 0xbe, 0x83, 0x0c, 0xff, 0xbe, 0xbd, 0xb6, 0x1f, 0x3f, 
  0x50, 0x04, 0x13, 0xbf, 0xf8, 0x85, 0x9e, 0xbf, 0xc4, 0x36, 0x80, 0x3d, 
  0x7a, 0xb8, 0x20, 0x3e, 0xe4, 0xde, 0x15, 0x3e, 0xda, 0x20, 0xcb, 0xbe, 
  0x34, 0x66, 0xd7, 0xbe, 0x89, 0x32, 0xff, 0x3e, 0x54, 0x1f, 0x0b, 0x3c, 
  0xb4, 0xbc, 0x9c, 0xbf, 0x43, 0xfd, 0xde, 0x3d, 0xe1, 0xc3, 0xe7, 0x3d, 
  0x21, 0x0c, 0x35, 0x3f, 0xad, 0x31, 0x72, 0x3e, 0x97, 0x2c, 0x42, 0x3e, 
  0xb0, 0x10, 0xa8, 0xbd, 0x34, 0x8c, 0x45, 0xbf, 0xde, 0x08, 0x23, 0xc0, 
  0x14, 0xc8, 0x3f, 0xbe, 0x7f, 0x2d, 0x47, 0xbd, 0x51, 0x15, 0x12, 0x3f, 
  0xe4, 0x0c, 0xaa, 0xbe, 0x5c, 0xb4, 0x1f, 0x3f, 0xc5, 0x2a, 0x80, 0x3f, 
  0x16, 0x29, 0xee, 0x3e, 0xc5, 0x0f, 0xb8, 0x3d, 0x48, 0xe9, 0xbe, 0xbe, 
  0x29, 0xd3, 0xbd, 0x3e, 0x46, 0x1a, 0x22, 0x3e, 0x21, 0xf5, 0xd9, 0x3e, 
  0xc9, 0xfc, 0xdf, 0x3e, 0x09, 0x34, 0x7d, 0x3e, 0x9b, 0xa9, 0xb7, 0x3e, 
  0xd8, 0x5a, 0xbd, 0x3e, 0x01, 0x07, 0xc4, 0xbe, 0xf5, 0xd1, 0x81, 0x3f, 
  0x8f, 0x06, 0xe0, 0xbc, 0xc1, 0x64, 0xe4, 0xbe, 0x49, 0x1d, 0xd6, 0xbe, 
  0x3c, 0x6e, 0xb1, 0xbe, 0x65, 0xc5, 0x8d, 0x3f, 0xe1, 0x44, 0x28, 0x3d, 
  0x23, 0x7c, 0x2e, 0x3e, 0x8e, 0xca, 0x8b, 0x3e, 0x6c, 0x14, 0xc7, 0xbe, 
  0x01, 0x49, 0xf2, 0xbe, 0x21, 0x38, 0x01, 0xbf, 0xe3, 0xe8, 0x18, 0x3f, 
  0xdb, 0x2b, 0x29, 0xbf, 0x99, 0x60, 0x16, 0xbf, 0xf9, 0xf1, 0x8b, 0x3d, 
  0xf1, 0xfc, 0x07, 0x3e, 0xce, 0xd4, 0x3e, 0xbe, 0xab, 0xf3, 0xa7, 0xbd, 
  0xc8, 0xa7, 0xa0, 0xbd, 0x71, 0x6a, 0x7c, 0x3e, 0xcd, 0xf2, 0x60, 0xbf, 
  0xcf, 0x1c, 0x52, 0xbf, 0xd5, 0x9c, 0x8f, 0x3e, 0x01, 0x66, 0xc5, 0x3d, 
  0xd2, 0x80, 0x98, 0x3e, 0xc9, 0x91, 0x96, 0x3e, 0xd4, 0x73, 0x5c, 0x3f, 
  0x2b, 0x9f, 0x9f, 0x3e, 0xb2, 0x00, 0x1f, 0x3f, 0x7e, 0xd5, 0x98, 0x3e, 
  0x39, 0xbd, 0xbc, 0xbe, 0x31, 0x57, 0x17, 0x3f, 0x6f, 0xa2, 0xe0, 0xbe, 
  0x92, 0xcb, 0x19, 0x3e, 0x5b, 0xd2, 0x9d, 0x3e, 0x91, 0x50, 0x0b, 0xbe, 
  0xa1, 0xbf, 0x2a, 0x3f, 0x50, 0x0a, 0xa3, 0x3d, 0xf5, 0xd0, 0x5a, 0x3e, 
  0xa1, 0xff, 0xb8, 0xbe, 0xad, 0x7f, 0x53, 0x3e, 0xe9, 0xf3, 0x10, 0x3f, 
  0x6b, 0xaf, 0xfb, 0xbd, 0xbc, 0x3a, 0xbe, 0xbe, 0x9b, 0x58, 0xc0, 0x3b, 
  0x42, 0xcc, 0x8d, 0x3e, 0xdd, 0x6e, 0x7e, 0x3e, 0xed, 0x2d, 0xc8, 0xbd, 
  0xc1, 0x9c, 0x8a, 0x3e, 0x56, 0x1c, 0xcb, 0x3f, 0x10, 0x13, 0x3c, 0x3d, 
  0x49, 0x26, 0x14, 0xbe, 0x39, 0x65, 0x3f, 0x3e, 0x47, 0xa4, 0x27, 0xbf, 
  0xbb, 0x8d, 0x35, 0x3e, 0x51, 0x08, 0x6c, 0xba, 0x53, 0x66, 0x8a, 0xbe, 
  0x5b, 0xa4, 0x5a, 0x3e, 0xce, 0xae, 0x2a, 0x3f, 0x5c, 0xf1, 0x08, 0xbf, 
  0x57, 0xa5, 0xf8, 0x3e, 0xa3, 0xc8, 0x93, 0x3e, 0xce, 0xb4, 0x4b, 0xbe, 
  0xda, 0x10, 0x25, 0x3f, 0x90, 0x16, 0x0f, 0xbf, 0xac, 0x90, 0x1e, 0x3f, 
  0xf7, 0xb5, 0xa4, 0xbb, 0x4a, 0xff, 0x30, 0x3e, 0xd1, 0x5b, 0x3a, 0x3e, 
  0x3c, 0x1a, 0x1b, 0x3d, 0xce, 0xe9, 0x31, 0xbe, 0xdc, 0x6d, 0x67, 0x3f, 
  0x3f, 0x46, 0xaf, 0x3e, 0x4b, 0x12, 0x95, 0x3e, 0x38, 0xcc, 0x80, 0x3f, 
  0x12, 0xd7, 0xfa, 0x3e, 0x9a, 0xc8, 0x08, 0x3f, 0x48, 0x9f, 0x7c, 0x3e, 
  0x39, 0x76, 0x40, 0xbf, 0xbb, 0x90, 0xc2, 0xbd, 0xba, 0xd9, 0xf6, 0xbe, 
  0x03, 0x7f, 0xc9, 0x3d, 0x32, 0x29, 0xcb, 0xbe, 0x7c, 0x0f, 0xb9, 0x3e, 
  0xd9, 0x27, 0xa7, 0xbf, 0xb6, 0x04, 0xf1, 0xbf, 0x33, 0x52, 0x3d, 0x3d, 
  0xdb, 0xcb, 0x21, 0x3e, 0xbd, 0x7d, 0x1d, 0x3f, 0xe6, 0x70, 0x7b, 0x3f, 
  0x13, 0x28, 0xef, 0x3e, 0x2b, 0x7f, 0xa2, 0x3d, 0xe1, 0x04, 0x48, 0xbe, 
  0x50, 0x33, 0x1b, 0x3b, 0x6e, 0xb1, 0x07, 0x3e, 0x77, 0xe8, 0x97, 0xbe, 
  0x86, 0x5d, 0x0e, 0xbf, 0x82, 0x3b, 0x04, 0x3f, 0x2e, 0x1e, 0xf1, 0xbd, 
  0x0b, 0x49, 0x95, 0x3e, 0xd2, 0xe1, 0xed, 0x3e, 0x5a, 0x0b, 0xb7, 0x3e, 
  0xb3, 0xcb, 0xed, 0xbd, 0x7e, 0x2f, 0x83, 0x3f, 0x5d, 0xf8, 0x30, 0x3d, 
  0xb4, 0xd4, 0xd1, 0xbe, 0x48, 0x1d, 0xb4, 0xbe, 0x00, 0xdf, 0xe8, 0x3e, 
  0x43, 0xc6, 0xa4, 0xbe, 0xd2, 0xf3, 0x4c, 0xbf, 0x53, 0x3a, 0xa7, 0x3d, 
  0xa8, 0x43, 0xea, 0x3d, 0xb3, 0x7f, 0x5f, 0x3f, 0x89, 0xbb, 0x0d, 0x3e, 
  0xb5, 0x47, 0xf2, 0x3e, 0xf9, 0x32, 0x9a, 0xbe, 0xaf, 0x59, 0x38, 0x3e, 
  0x8b, 0x1d, 0x6d, 0x3e, 0x81, 0xfd, 0xaa, 0xbe, 0x92, 0xe4, 0x59, 0x3f, 
  0x87, 0x03, 0xdd, 0xbe, 0x35, 0x27, 0x1c, 0x3f, 0x58, 0x4c, 0xb7, 0xbc, 
  0xd5, 0xd6, 0xc6, 0x3e, 0x68, 0xe7, 0xe7, 0xbb, 0x3b, 0x09, 0xb0, 0x3e, 
  0x62, 0xa5, 0x6c, 0xbe, 0x3e, 0xf0, 0x7f, 0x3f, 0x65, 0x02, 0x89, 0x3e, 
  0x96, 0xf7, 0xff, 0xff, 0x04, 0x00, 0x00, 0x00, 0x00, 0x08, 0x00, 0x00, 
  0xdf, 0xf2, 0x42, 0x3e, 0x84, 0x7d, 0x02, 0x3e, 0xac, 0xca, 0xeb, 0xbe, 
  0x69, 0x35, 0x08, 0xc0, 0x7e, 0x3c, 0xd3, 0xbf, 0xaf, 0xeb, 0x37, 0x3f, 
  0xea, 0xdc, 0x27, 0xbd, 0x3e, 0x9e, 0x9d, 0x3f, 0xcf, 0x70, 0xf9, 0x3e, 
  0x70, 0x1f, 0xf2, 0xbf, 0x6a, 0xe1, 0x85, 0x3e, 0xef, 0x70, 0xbc, 0xbf, 
  0x8a, 0xf5, 0xa4, 0xbf, 0x85, 0xef, 0x02, 0xbf, 0x81, 0xf9, 0x4f, 0xbe, 
  0x38, 0x78, 0x0f, 0x3f, 0x33, 0x94, 0xac, 0x3c, 0xa1, 0x79, 0x95, 0xbf, 
  0x39, 0x8f, 0x21, 0xbf, 0x55, 0x03, 0x4c, 0x3e, 0x87, 0x28, 0x92, 0xbe, 
  0xff, 0xd3, 0x11, 0xbe, 0x37, 0xa7, 0xaa, 0x3f, 0x29, 0xe1, 0xfa, 0x3e, 
  0xdc, 0x16, 0x43, 0x3f, 0xf7, 0xde, 0x08, 0x3d, 0x16, 0x19, 0x74, 0xbf, 
  0x0a, 0xd3, 0xed, 0x3f, 0xf9, 0x07, 0x10, 0x3f, 0x03, 0x11, 0xad, 0xbf, 
  0x7e, 0xe5, 0xa7, 0x3e, 0xfc, 0x6c, 0xe4, 0x3e, 0xff, 0xa2, 0x6f, 0xbf, 
  0xdf, 0x52, 0xac, 0xbf, 0xfa, 0xf0, 0x0e, 0x3f, 0x9e, 0xf7, 0xc5, 0x3f, 
  0x5d, 0xd0, 0xa2, 0x3f, 0xd8, 0x39, 0x2a, 0xbe, 0x45, 0x28, 0xa3, 0xbe, 
  0xd2, 0xe0, 0x8d, 0x3e, 0xba, 0xf3, 0x31, 0xbf, 0x17, 0xa5, 0xaf, 0x3e, 
  0xe5, 0x73, 0x96, 0xbf, 0x1c, 0xf7, 0x15, 0x3f, 0x3f, 0x95, 0xf4, 0x3e, 
  0xfb, 0x94, 0x72, 0x3f, 0x8c, 0x37, 0x96, 0xbf, 0x16, 0xa3, 0x76, 0xbf, 
  0x41, 0x89, 0x08, 0xbe, 0x31, 0x84, 0x22, 0x3f, 0xdb, 0x6b, 0x4d, 0x3a, 
  0x6d, 0x03, 0x9b, 0xbf, 0xfa, 0xcb, 0x22, 0xbf, 0x69, 0x81, 0xd9, 0xbe, 
  0x81, 0x47, 0xd8, 0xbe, 0xa4, 0x65, 0x7f, 0xbe, 0xa4, 0x93, 0x66, 0xbf, 
  0xe2, 0x3d, 0xb9, 0xbf, 0xdf, 0xbf, 0x0c, 0x3f, 0x3c, 0x77, 0xb7, 0xbf, 
  0xc2, 0xdb, 0xfd, 0xbe, 0xd8, 0xd1, 0x68, 0x3e, 0x3c, 0xb7, 0x4f, 0xbf, 
  0xf5, 0xd7, 0x92, 0xbf, 0x7a, 0x00, 0xb1, 0xbf, 0xd8, 0xa3, 0x17, 0xbe, 
  0x8a, 0x63, 0x4c, 0xbd, 0x52, 0x5b, 0xa3, 0x3f, 0xc8, 0xfa, 0x65, 0x3f, 
  0x07, 0xda, 0x7f, 0xbf, 0x52, 0xd4, 0x2f, 0x3e, 0xac, 0x4a, 0x10, 0xbf, 
  0xc9, 0x7c, 0x50, 0xbe, 0x8c, 0x75, 0xd9, 0x3e, 0x0f, 0x85, 0xf4, 0x3e, 
  0x88, 0x5a, 0x56, 0x3e, 0x1e, 0x76, 0x02, 0x3f, 0xbb, 0x9f, 0x08, 0x3f, 
  0xfe, 0x01, 0x81, 0x3e, 0x0e, 0x35, 0x77, 0xbe, 0x48, 0x74, 0x9f, 0x3d, 
  0x58, 0xdc, 0x23, 0x3e, 0x36, 0x99, 0x14, 0x3c, 0x42, 0x0c, 0xd1, 0xbb, 
  0x30, 0x4d, 0xb7, 0xbd, 0x1b, 0x9c, 0xce, 0x3d, 0x1e, 0x48, 0x89, 0xbf, 
  0x5f, 0x2e, 0xcd, 0xbf, 0x1e, 0x31, 0x5a, 0xbf, 0xe1, 0x81, 0xb2, 0xbe, 
  0xc7, 0x99, 0x0f, 0x3f, 0x2c, 0x69, 0x89, 0xbf, 0xb4, 0xfa, 0x3e, 0xbf, 
  0xa6, 0xb1, 0x00, 0x3e, 0x17, 0x6f, 0x85, 0xbf, 0xe7, 0xb4, 0x27, 0xbf, 
  0x45, 0xb4, 0xb0, 0x3e, 0x66, 0x16, 0xbd, 0xbd, 0x2b, 0xb5, 0x00, 0xbf, 
  0x26, 0x90, 0x10, 0xc0, 0xbc, 0xc3, 0xe8, 0xbf, 0xf3, 0x34, 0x38, 0x3f, 
  0x79, 0xae, 0xf2, 0xbc, 0x2c, 0xb1, 0x6f, 0x3f, 0xad, 0x39, 0xcb, 0x3e, 
  0xd2, 0xa7, 0x58, 0xbf, 0xa1, 0xde, 0x46, 0x3e, 0x78, 0xd1, 0x15, 0xbf, 
  0x5e, 0x46, 0x3e, 0xbf, 0x55, 0xcf, 0x0a, 0xbf, 0x18, 0x73, 0x81, 0xbb, 
  0x91, 0xab, 0x4c, 0x3f, 0xad, 0x13, 0xf0, 0x3d, 0x9f, 0x5d, 0x45, 0xbf, 
  0x28, 0x34, 0x09, 0xbf, 0xdb, 0x6d, 0xaa, 0x3e, 0xf9, 0x35, 0x1b, 0xbe, 
  0x96, 0x84, 0x40, 0xbd, 0x1c, 0xc3, 0x83, 0x3f, 0x5f, 0x12, 0x3a, 0x3f, 
  0xc2, 0xe5, 0x5f, 0x3f, 0xb0, 0xbb, 0x8e, 0x3c, 0x92, 0x63, 0x1b, 0xbf, 
  0xd0, 0x8a, 0x68, 0x3f, 0xe2, 0xb5, 0x08, 0x3f, 0xdb, 0xf1, 0x84, 0xbf, 
  0x99, 0x85, 0x84, 0x3e, 0xa4, 0x5f, 0x30, 0x3f, 0xdc, 0x5d, 0xa4, 0x3e, 
  0x74, 0xc8, 0x93, 0xbe, 0x34, 0x04, 0x83, 0xbe, 0xde, 0x62, 0x23, 0xc0, 
  0xd7, 0x06, 0x0d, 0xc0, 0x3e, 0xeb, 0x65, 0x3f, 0xe9, 0x32, 0xfa, 0x3d, 
  0xf7, 0x01, 0x77, 0x3f, 0x06, 0x39, 0xd9, 0x3e, 0x04, 0x45, 0xa5, 0xbf, 
  0x89, 0xeb, 0x86, 0x3e, 0xf7, 0x0f, 0x8a, 0xbf, 0x20, 0xfd, 0xa9, 0xbf, 
  0xd8, 0xfb, 0x05, 0xbf, 0x90, 0x4e, 0x66, 0xbc, 0xf1, 0x72, 0x1d, 0x3e, 
  0x6b, 0xc1, 0x9b, 0x3e, 0xbf, 0x9a, 0xa2, 0xbf, 0x8e, 0xff, 0x02, 0x3e, 
  0xb2, 0x4e, 0x7d, 0x3e, 0x47, 0x0f, 0x7b, 0xbd, 0x6f, 0x4c, 0x54, 0xbd, 
  0x6c, 0x6b, 0xa9, 0x3f, 0xa1, 0x67, 0x80, 0x3f, 0xa2, 0xaa, 0x54, 0x3f, 
  0x21, 0x7d, 0xd3, 0x3e, 0x8a, 0x5d, 0x1f, 0xbf, 0x3c, 0xf8, 0xc5, 0x3f, 
  0x64, 0x2d, 0x82, 0x3f, 0x35, 0x87, 0x91, 0xbf, 0x5f, 0x72, 0x12, 0x3f, 
  0xdf, 0xb5, 0x41, 0x3f, 0xdb, 0x26, 0xec, 0x3d, 0xe2, 0xac, 0x1b, 0x3e, 
  0x86, 0xd6, 0x20, 0x3f, 0x30, 0xa1, 0x4c, 0x3e, 0xde, 0x4e, 0x84, 0xbe, 
  0x2a, 0x3e, 0x0f, 0x3f, 0x79, 0xd0, 0x71, 0xbf, 0x14, 0x7c, 0xe7, 0x3e, 
  0x2d, 0xa6, 0x4d, 0xbf, 0x2a, 0xe1, 0x5a, 0x3e, 0x98, 0x0d, 0x97, 0xbf, 
  0x4a, 0x08, 0x2c, 0x3f, 0xf2, 0x73, 0x1d, 0x3f, 0x0f, 0xae, 0x50, 0xbe, 
  0x6c, 0x84, 0x55, 0xbf, 0x8d, 0x4e, 0x06, 0xbf, 0xb0, 0xa8, 0xeb, 0xbd, 
  0xda, 0xc2, 0x0f, 0x3f, 0xad, 0x01, 0xc3, 0x3e, 0xbd, 0x16, 0x98, 0xbf, 
  0x8f, 0x4f, 0x2f, 0xbf, 0x85, 0x92, 0x87, 0xbf, 0x74, 0xc3, 0xde, 0xbe, 
  0xe7, 0x84, 0x27, 0xbe, 0x9a, 0x23, 0xf8, 0xbe, 0x8c, 0x33, 0xb6, 0xbf, 
  0x6c, 0x93, 0xb7, 0xbd, 0xe5, 0xc9, 0xb2, 0xbf, 0xb8, 0xb2, 0x27, 0xbf, 
  0x0b, 0x68, 0xb0, 0x3e, 0x89, 0x65, 0x59, 0xbe, 0xa9, 0x70, 0xc8, 0xbe, 
  0xc2, 0xa9, 0xc8, 0xbf, 0x99, 0xb1, 0xdc, 0xbe, 0x3f, 0xdb, 0x45, 0x3e, 
  0xb6, 0x70, 0xe1, 0x3f, 0xe9, 0xf1, 0xcb, 0x3f, 0xd4, 0x39, 0x68, 0xbf, 
  0x92, 0x72, 0xee, 0x3d, 0x18, 0x1a, 0xd6, 0xbe, 0x79, 0xbb, 0x0a, 0xbf, 
  0x2c, 0x14, 0xbd, 0x3e, 0x06, 0x48, 0x73, 0xbf, 0xc4, 0x1a, 0x82, 0xbd, 
  0x02, 0x41, 0x0c, 0x3e, 0xed, 0x84, 0xe2, 0x3d, 0x98, 0xd6, 0x53, 0xbf, 
  0x83, 0x44, 0x1f, 0xbf, 0x9c, 0xfa, 0x16, 0xbc, 0x87, 0x3a, 0xf0, 0x3e, 
  0x0e, 0x92, 0xce, 0x3e, 0xf4, 0x3c, 0x80, 0xbf, 0x2f, 0x90, 0x0b, 0xbe, 
  0x33, 0xaf, 0x82, 0x3e, 0x55, 0xb5, 0x80, 0xbf, 0x02, 0x74, 0xad, 0xbd, 
  0x7e, 0x3d, 0x11, 0xbf, 0xa9, 0x6f, 0xc3, 0xbf, 0x95, 0x96, 0x85, 0x3f, 
  0x1b, 0xd9, 0xe6, 0xbf, 0x9f, 0x68, 0x46, 0xbf, 0x6e, 0x2d, 0x90, 0x3e, 
  0x60, 0x79, 0x6c, 0xbe, 0x11, 0x81, 0x0c, 0xbf, 0xb5, 0x23, 0x9c, 0xbc, 
  0xde, 0xed, 0xed, 0x3d, 0x2f, 0x36, 0x02, 0x3f, 0xe6, 0x39, 0xb7, 0xbd, 
  0xa6, 0x11, 0xe8, 0x3d, 0xf9, 0x92, 0x80, 0x3e, 0x3e, 0x6a, 0x68, 0xbf, 
  0xcd, 0x69, 0x0b, 0x3f, 0x34, 0xf7, 0xcd, 0xbe, 0x8e, 0xa8, 0x1d, 0x3f, 
  0x35, 0xe6, 0x83, 0xbf, 0x84, 0x27, 0xca, 0x3e, 0xc7, 0x4e, 0x1b, 0x3f, 
  0xb4, 0xca, 0xb6, 0xbe, 0xbd, 0xd1, 0x76, 0xbf, 0xb0, 0xe4, 0xde, 0xbe, 
  0xf6, 0x23, 0xaf, 0xbd, 0xd5, 0x7f, 0xc3, 0x3e, 0x4b, 0x87, 0x96, 0x3e, 
  0x05, 0xd0, 0x81, 0xbf, 0x89, 0x9f, 0x27, 0xbf, 0xeb, 0xe3, 0x6d, 0xbf, 
  0xc4, 0x2e, 0x2e, 0x3e, 0x11, 0x6c, 0x92, 0xbe, 0x78, 0xc4, 0x26, 0xbf, 
  0x0e, 0x36, 0xb3, 0xbf, 0xca, 0x64, 0x96, 0xbd, 0x3a, 0x34, 0x9a, 0xbf, 
  0x12, 0x74, 0x94, 0xbe, 0x67, 0x08, 0x1d, 0x3f, 0x52, 0x1e, 0xd7, 0xbe, 
  0xa1, 0xb9, 0x40, 0xbf, 0x48, 0x51, 0xd5, 0x3c, 0x57, 0xcc, 0x7e, 0x3e, 
  0x8c, 0xd7, 0x37, 0xbe, 0x05, 0xf2, 0x53, 0xbe, 0x3c, 0x6f, 0xcc, 0x3d, 
  0x05, 0x11, 0x97, 0x3e, 0x92, 0x5d, 0x34, 0xbf, 0x48, 0x7c, 0xc4, 0x3e, 
  0x18, 0x18, 0xed, 0xbe, 0xf3, 0x44, 0x3e, 0x3f, 0xad, 0xd1, 0x0b, 0xbf, 
  0x33, 0x60, 0xe2, 0x3e, 0x8d, 0x7f, 0x2c, 0x3f, 0xf2, 0x03, 0xf9, 0xbe, 
  0x13, 0x61, 0x32, 0xbf, 0xea, 0x95, 0x26, 0xbf, 0x98, 0x02, 0x68, 0xbd, 
  0x5f, 0x75, 0x84, 0x3e, 0x19, 0xa4, 0xac, 0x3e, 0x5e, 0x2f, 0xb0, 0xbe, 
  0x60, 0x19, 0x2c, 0xbf, 0xfc, 0xf4, 0x06, 0xbf, 0xce, 0xa7, 0x8b, 0xbd, 
  0x4b, 0x03, 0x09, 0xbf, 0x50, 0x21, 0x17, 0xbf, 0x24, 0x4e, 0x93, 0xbf, 
  0x1b, 0x60, 0x1d, 0x3e, 0x08, 0xa9, 0x5a, 0xbf, 0x50, 0xc6, 0xb6, 0xbe, 
  0xa0, 0xef, 0x0b, 0x3f, 0x79, 0x89, 0x16, 0xbf, 0x80, 0x1d, 0x5b, 0xbf, 
  0x69, 0x82, 0xc6, 0xbf, 0x3e, 0xed, 0x34, 0xbe, 0xf6, 0x9f, 0x86, 0x3e, 
  0xfa, 0x82, 0xc5, 0x3f, 0x22, 0xd9, 0x9f, 0x3f, 0x67, 0x93, 0x60, 0xbf, 
  0xaf, 0xd6, 0x18, 0x3d, 0x04, 0xb9, 0x2d, 0xbf, 0x9e, 0x36, 0x5a, 0xbf, 
  0x94, 0xd8, 0x38, 0x3f, 0xcd, 0x48, 0x2f, 0xbf, 0xde, 0xf4, 0xea, 0x3d, 
  0xb2, 0x69, 0x6e, 0x3e, 0x24, 0xad, 0x00, 0x3f, 0xf2, 0xc3, 0x58, 0xbf, 
  0xea, 0x37, 0x04, 0xbf, 0xcb, 0x50, 0x08, 0x3d, 0x58, 0x83, 0x45, 0xbd, 
  0x65, 0x27, 0x6f, 0xbd, 0x9a, 0x2d, 0x14, 0xbf, 0xd9, 0xdb, 0x18, 0xbd, 
  0xaf, 0x3a, 0x15, 0x3e, 0x36, 0x75, 0x9f, 0xbf, 0xce, 0x21, 0xec, 0xbe, 
  0xc3, 0x89, 0x08, 0xbf, 0x7b, 0xbd, 0x99, 0xbf, 0x4a, 0x1c, 0x83, 0x3f, 
  0xf3, 0xc5, 0x1d, 0xc0, 0x7c, 0x46, 0x64, 0xbe, 0x33, 0xcb, 0x14, 0x3f, 
  0x43, 0x4e, 0x09, 0xbf, 0x41, 0x2f, 0x9b, 0xbe, 0x75, 0x60, 0x6c, 0xbe, 
  0x08, 0xc6, 0xa3, 0x3d, 0x4d, 0x1e, 0x68, 0x3e, 0xe2, 0x95, 0x85, 0xbe, 
  0xf6, 0x3a, 0xe5, 0xbd, 0x98, 0x82, 0x8c, 0x3e, 0x9e, 0x5d, 0x51, 0xbf, 
  0x72, 0x9e, 0xb1, 0x3e, 0x45, 0x7a, 0x2d, 0xbf, 0x3d, 0xbb, 0xcf, 0x3e, 
  0xe3, 0xc2, 0x92, 0xbf, 0x3d, 0x09, 0x09, 0x3f, 0xe1, 0x26, 0x97, 0x3e, 
  0x2b, 0xab, 0xec, 0x3a, 0x3f, 0x80, 0x6f, 0xbf, 0x42, 0x0f, 0x1f, 0xbf, 
  0xa0, 0x9a, 0xe6, 0xbd, 0x5b, 0x7a, 0x07, 0x3f, 0xec, 0x5a, 0x41, 0x3e, 
  0x02, 0xed, 0x28, 0xbf, 0xb7, 0x8d, 0x1b, 0xbf, 0x71, 0x5e, 0x4b, 0xbf, 
  0x8a, 0x17, 0x42, 0x3b, 0xfd, 0x9a, 0xa6, 0xbe, 0x87, 0x95, 0x90, 0xbe, 
  0xbb, 0x8a, 0xb2, 0xbf, 0x9e, 0xb3, 0xfc, 0x3e, 0x81, 0x91, 0x8a, 0xbf, 
  0x93, 0xc2, 0xdc, 0xbe, 0x39, 0x3f, 0x19, 0x3f, 0xc9, 0xdc, 0x17, 0xbe, 
  0x9a, 0x93, 0x31, 0xbf, 0xa6, 0x9e, 0x0a, 0x3f, 0x85, 0xf5, 0x2f, 0xbf, 
  0xe6, 0xd9, 0x94, 0x3e, 0xa1, 0x34, 0x49, 0x3e, 0x2c, 0x82, 0x45, 0x3e, 
  0xe9, 0x07, 0xd5, 0xbe, 0xd1, 0x1b, 0x78, 0x3e, 0x2f, 0xc1, 0x92, 0x3e, 
  0x52, 0xaa, 0xa8, 0x3e, 0x18, 0x4f, 0x1c, 0x3e, 0x27, 0xde, 0x02, 0xbe, 
  0x1e, 0xe9, 0x52, 0x3e, 0x6b, 0x7b, 0x1c, 0x3d, 0x67, 0x28, 0xcb, 0xbb, 
  0x7e, 0xf7, 0x27, 0x3e, 0xc2, 0xa7, 0xa0, 0x3e, 0x2b, 0x74, 0x32, 0xbf, 
  0x45, 0xc6, 0x07, 0x3e, 0xf8, 0x81, 0x23, 0x3e, 0x21, 0xc2, 0xfe, 0xbb, 
  0xdf, 0x0d, 0x82, 0x3e, 0xc1, 0x8a, 0xa3, 0x3d, 0x51, 0xa6, 0x46, 0x3f, 
  0x84, 0xc0, 0x69, 0x3f, 0x45, 0xa9, 0x3d, 0x3f, 0x96, 0x8b, 0x5b, 0xbe, 
  0xf6, 0xa9, 0x62, 0x3e, 0x80, 0x75, 0xbe, 0xbe, 0xea, 0xb1, 0x1d, 0x3f, 
  0x72, 0xcf, 0xd9, 0x3d, 0x54, 0x02, 0x0b, 0x3f, 0x6e, 0x78, 0x9e, 0x3e, 
  0x01, 0x64, 0xdc, 0x3e, 0xe7, 0x81, 0xb5, 0xbe, 0xc0, 0xa8, 0xe3, 0xbe, 
  0x23, 0x25, 0x1c, 0xc0, 0xeb, 0x70, 0x26, 0xc0, 0x5e, 0x2c, 0xe6, 0x3e, 
  0xb2, 0x41, 0x91, 0xbe, 0x4a, 0x1e, 0x80, 0x3f, 0xee, 0x61, 0xd9, 0x3d, 
  0x8b, 0x54, 0x1a, 0xbf, 0x73, 0xbf, 0x94, 0xbc, 0x41, 0x4e, 0x04, 0xbf, 
  0xf3, 0x63, 0x68, 0xbf, 0x9e, 0xc4, 0x8c, 0xbf, 0xd9, 0x64, 0xda, 0xbd, 
  0x77, 0x22, 0x08, 0xbe, 0x61, 0x16, 0x60, 0x3e, 0x39, 0x4d, 0x2b, 0xbf, 
  0x6c, 0x9e, 0xba, 0xbd, 0x4e, 0xc3, 0xe5, 0x3c, 0x06, 0xb3, 0xed, 0xbc, 
  0xd1, 0x5f, 0x59, 0xbd, 0x06, 0xf9, 0xde, 0x3e, 0x83, 0x89, 0xe6, 0x3e, 
  0xc1, 0x59, 0xbd, 0x3e, 0xb1, 0x22, 0x5a, 0x3e, 0x21, 0x69, 0xd8, 0xbe, 
  0x72, 0x7a, 0xa5, 0x3f, 0x3a, 0x4f, 0xea, 0x3e, 0x0f, 0x0b, 0x50, 0xbf, 
  0x90, 0xda, 0xc2, 0x3e, 0x7e, 0x14, 0x02, 0x3f, 0x5d, 0x85, 0xa8, 0xbe, 
  0x22, 0x48, 0xe1, 0xbd, 0x63, 0xc8, 0xfd, 0x3e, 0x3f, 0x45, 0xed, 0x39, 
  0x42, 0xd7, 0x85, 0xbd, 0x39, 0x11, 0xbb, 0x3e, 0x74, 0xad, 0x77, 0xbf, 
  0x3d, 0x68, 0x05, 0x3f, 0x58, 0x96, 0x41, 0xbf, 0xd7, 0x55, 0x4e, 0x3f, 
  0xe1, 0x06, 0xe8, 0xbe, 0xe6, 0xe7, 0x67, 0x3e, 0xd6, 0x10, 0x04, 0x3f, 
  0xdf, 0x8e, 0xf3, 0xbd, 0x13, 0xf4, 0x75, 0xbf, 0xef, 0xff, 0x46, 0xbf, 
  0x80, 0x49, 0xc4, 0xbd, 0x65, 0xf9, 0x2f, 0x3f, 0x27, 0xa7, 0xfe, 0x3d, 
  0x3d, 0x63, 0x85, 0xbf, 0x4a, 0x48, 0x31, 0xbf, 0x31, 0x3e, 0x85, 0xbf, 
  0x97, 0xab, 0xe0, 0xbd, 0xd2, 0x2a, 0x37, 0xbe, 0x04, 0x25, 0xc5, 0xbe, 
  0x6a, 0x83, 0x92, 0xbf, 0x4a, 0xb6, 0x5a, 0x3e, 0x3f, 0x87, 0x7d, 0xbf, 
  0xd8, 0x2d, 0x33, 0xbf, 0x0a, 0xaf, 0xdd, 0x3d, 0x56, 0xd9, 0xd5, 0xbe, 
  0x6c, 0x12, 0x65, 0xbf, 0x3b, 0x9b, 0x3e, 0x3f, 0x22, 0x6f, 0x5c, 0xbd, 
  0xca, 0x7e, 0x76, 0x3e, 0x74, 0x00, 0x09, 0xbf, 0xc2, 0x1e, 0x05, 0xbf, 
  0x4b, 0x6a, 0xed, 0xbd, 0x33, 0xa6, 0xe6, 0xbd, 0x7e, 0xcc, 0x1e, 0x3f, 
  0xf1, 0x9f, 0xa7, 0xbd, 0x66, 0xc5, 0xff, 0xbe, 0xc4, 0x5e, 0x83, 0xbe, 
  0xff, 0xb6, 0xd4, 0x3c, 0x2e, 0x1a, 0x7a, 0xbe, 0x03, 0x13, 0x9e, 0xbe, 
  0x4b, 0x0c, 0x84, 0x3d, 0x90, 0x82, 0xd4, 0x3e, 0x4f, 0x41, 0x40, 0xbf, 
  0x32, 0x38, 0x6c, 0x3d, 0xa1, 0xb2, 0x81, 0xbe, 0x63, 0x85, 0x5b, 0x3e, 
  0x25, 0x3f, 0x8f, 0x3e, 0x30, 0x51, 0x30, 0xbd, 0x50, 0xc5, 0x8b, 0x3f, 
  0xf4, 0x0a, 0x3b, 0x3f, 0x7f, 0xf3, 0x2d, 0x3f, 0xe1, 0x0b, 0xa7, 0x3d, 
  0x08, 0xe5, 0xa9, 0xbc, 0xc3, 0x97, 0x31, 0x3f, 0xab, 0x0d, 0x16, 0x3f, 
  0x9c, 0x9f, 0xed, 0xbd, 0x98, 0xc4, 0x18, 0x3f, 0x3b, 0xce, 0x1e, 0x3f, 
  0xd3, 0x13, 0xbb, 0x3d, 0x0e, 0x54, 0xb9, 0x3e, 0xb4, 0x5e, 0xc8, 0xbd, 
  0x07, 0x3c, 0x0d, 0xbf, 0xf9, 0x80, 0xe7, 0xbe, 0xd1, 0xec, 0xda, 0x3e, 
  0xe5, 0x07, 0x16, 0xbf, 0x17, 0x19, 0x7b, 0x3e, 0x1d, 0x45, 0xf0, 0x3d, 
  0x98, 0x93, 0x6b, 0x3f, 0x40, 0x71, 0xd9, 0x3e, 0xa0, 0xe3, 0xdc, 0x3e, 
  0xcf, 0xf9, 0xb8, 0x3e, 0x5c, 0x09, 0x9f, 0x3d, 0xa4, 0x9e, 0x28, 0x3e, 
  0xd9, 0xe4, 0xc9, 0xbe, 0xc7, 0x1e, 0x12, 0x3e, 0x5b, 0xab, 0x9c, 0x3e, 
  0x25, 0x57, 0x39, 0xbe, 0xe8, 0xb0, 0x0d, 0xbe, 0x92, 0x5e, 0xf6, 0xbe, 
  0x06, 0x11, 0xfd, 0xbe, 0xb2, 0xaf, 0x40, 0xbe, 0x78, 0x66, 0xca, 0xbf, 
  0xb7, 0xca, 0xcc, 0xbe, 0x61, 0x27, 0xa5, 0x3e, 0x48, 0x94, 0x27, 0x3e, 
  0x17, 0xe9, 0xaa, 0x3e, 0xc8, 0x0e, 0x47, 0xbf, 0x42, 0xef, 0x9b, 0x3e, 
  0x0f, 0xa7, 0x4b, 0xbf, 0x44, 0xa2, 0xcd, 0xbe, 0xa2, 0xff, 0xff, 0xff, 
  0x04, 0x00, 0x00, 0x00, 0x40, 0x00, 0x00, 0x00, 0x5e, 0x64, 0x27, 0xc0, 
  0x06, 0xf3, 0x43, 0x40, 0x54, 0xa7, 0xa1, 0x3f, 0xc0, 0xf9, 0xf6, 0xbf, 
  0xca, 0xb2, 0xc1, 0xbf, 0x8e, 0xd1, 0x03, 0x40, 0xda, 0x81, 0x39, 0x40, 
  0xcd, 0xa1, 0x1d, 0x40, 0x1c, 0x0f, 0xb2, 0x3f, 0xec, 0x2c, 0x06, 0x40, 
  0x3c, 0x93, 0x2b, 0x40, 0xac, 0x56, 0x94, 0xbf, 0x65, 0x64, 0x01, 0xc0, 
  0x0e, 0x97, 0xdb, 0x3f, 0x57, 0x5b, 0x65, 0xbf, 0x4f, 0x16, 0x62, 0x3f, 
  0xee, 0xff, 0xff, 0xff, 0x04, 0x00, 0x00, 0x00, 0x04, 0x00, 0x00, 0x00, 
  0xb8, 0x78, 0x08, 0xbf, 0x00, 0x00, 0x06, 0x00, 0x08, 0x00, 0x04, 0x00, 
  0x06, 0x00, 0x00, 0x00, 0x04, 0x00, 0x00, 0x00, 0x40, 0x00, 0x00, 0x00, 
  0xd2, 0x4c, 0xa1, 0x3e, 0x1c, 0xb9, 0xaa, 0x3e, 0xcf, 0x22, 0xa5, 0x3d, 
  0xa1, 0x01, 0xac, 0x3e, 0x2f, 0xa8, 0x99, 0x3e, 0x70, 0x2d, 0x6b, 0xbc, 
  0x4a, 0xd1, 0xe2, 0x3d, 0xa8, 0x10, 0x1b, 0xbd, 0x04, 0xb4, 0x9f, 0xbd, 
  0xd9, 0xfa, 0x04, 0x3e, 0x5c, 0x55, 0x0b, 0xbc, 0x1a, 0xbb, 0x1f, 0x3e, 
  0x08, 0xa1, 0xcb, 0x3e, 0xc9, 0x6e, 0x4f, 0x3b, 0xc5, 0xce, 0xbf, 0x3e, 
  0x46, 0xa4, 0x7f, 0xbe, 0x30, 0xfa, 0xff, 0xff, 0x34, 0xfa, 0xff, 0xff, 
  0x0f, 0x00, 0x00, 0x00, 0x4d, 0x4c, 0x49, 0x52, 0x20, 0x43, 0x6f, 0x6e, 
  0x76, 0x65, 0x72, 0x74, 0x65, 0x64, 0x2e, 0x00, 0x01, 0x00, 0x00, 0x00, 
  0x14, 0x00, 0x00, 0x00, 0x00, 0x00, 0x0e, 0x00, 0x18, 0x00, 0x14, 0x00, 
  0x10, 0x00, 0x0c, 0x00, 0x08, 0x00, 0x04, 0x00, 0x0e, 0x00, 0x00, 0x00, 
  0x14, 0x00, 0x00, 0x00, 0x1c, 0x00, 0x00, 0x00, 0x18, 0x01, 0x00, 0x00, 
  0x1c, 0x01, 0x00, 0x00, 0x20, 0x01, 0x00, 0x00, 0x04, 0x00, 0x00, 0x00, 
  0x6d, 0x61, 0x69, 0x6e, 0x00, 0x00, 0x00, 0x00, 0x04, 0x00, 0x00, 0x00, 
  0xc0, 0x00, 0x00, 0x00, 0x78, 0x00, 0x00, 0x00, 0x34, 0x00, 0x00, 0x00, 
  0x10, 0x00, 0x00, 0x00, 0x00, 0x00, 0x0a, 0x00, 0x10, 0x00, 0x0c, 0x00, 
  0x08, 0x00, 0x04, 0x00, 0x0a, 0x00, 0x00, 0x00, 0x0c, 0x00, 0x00, 0x00, 
  0x10, 0x00, 0x00, 0x00, 0x01, 0x00, 0x00, 0x00, 0x01, 0x00, 0x00, 0x00, 
  0x0a, 0x00, 0x00, 0x00, 0x01, 0x00, 0x00, 0x00, 0x09, 0x00, 0x00, 0x00, 
  0xce, 0xff, 0xff, 0xff, 0x10, 0x00, 0x00, 0x00, 0x00, 0x00, 0x00, 0x08, 
  0x0c, 0x00, 0x00, 0x00, 0x10, 0x00, 0x00, 0x00, 0xdc, 0xfa, 0xff, 0xff, 
  0x01, 0x00, 0x00, 0x00, 0x09, 0x00, 0x00, 0x00, 0x03, 0x00, 0x00, 0x00, 
  0x08, 0x00, 0x00, 0x00, 0x03, 0x00, 0x00, 0x00, 0x02, 0x00, 0x00, 0x00, 
  0x00, 0x00, 0x0e, 0x00, 0x14, 0x00, 0x00, 0x00, 0x10, 0x00, 0x0c, 0x00, 
  0x0b, 0x00, 0x04, 0x00, 0x0e, 0x00, 0x00, 0x00, 0x10, 0x00, 0x00, 0x00, 
  0x00, 0x00, 0x00, 0x08, 0x10, 0x00, 0x00, 0x00, 0x14, 0x00, 0x00, 0x00, 
  0xba, 0xff, 0xff, 0xff, 0x00, 0x00, 0x00, 0x01, 0x01, 0x00, 0x00, 0x00, 
  0x08, 0x00, 0x00, 0x00, 0x03, 0x00, 0x00, 0x00, 0x07, 0x00, 0x00, 0x00, 
  0x04, 0x00, 0x00, 0x00, 0x01, 0x00, 0x00, 0x00, 0x00, 0x00, 0x0e, 0x00, 
  0x16, 0x00, 0x00, 0x00, 0x10, 0x00, 0x0c, 0x00, 0x0b, 0x00, 0x04, 0x00, 
  0x0e, 0x00, 0x00, 0x00, 0x18, 0x00, 0x00, 0x00, 0x00, 0x00, 0x00, 0x08, 
  0x18, 0x00, 0x00, 0x00, 0x1c, 0x00, 0x00, 0x00, 0x00, 0x00, 0x06, 0x00, 
  0x08, 0x00, 0x07, 0x00, 0x06, 0x00, 0x00, 0x00, 0x00, 0x00, 0x00, 0x01, 
  0x01, 0x00, 0x00, 0x00, 0x07, 0x00, 0x00, 0x00, 0x03, 0x00, 0x00, 0x00, 
  0x00, 0x00, 0x00, 0x00, 0x05, 0x00, 0x00, 0x00, 0x06, 0x00, 0x00, 0x00, 
  0x01, 0x00, 0x00, 0x00, 0x0a, 0x00, 0x00, 0x00, 0x01, 0x00, 0x00, 0x00, 
  0x00, 0x00, 0x00, 0x00, 0x0b, 0x00, 0x00, 0x00, 0x3c, 0x04, 0x00, 0x00, 
  0xbc, 0x03, 0x00, 0x00, 0x5c, 0x03, 0x00, 0x00, 0x0c, 0x03, 0x00, 0x00, 
  0xbc, 0x02, 0x00, 0x00, 0x70, 0x02, 0x00, 0x00, 0x0c, 0x02, 0x00, 0x00, 
  0x78, 0x01, 0x00, 0x00, 0xdc, 0x00, 0x00, 0x00, 0x60, 0x00, 0x00, 0x00, 
  0x04, 0x00, 0x00, 0x00, 0x06, 0xfc, 0xff, 0xff, 0x00, 0x00, 0x00, 0x01, 
  0x14, 0x00, 0x00, 0x00, 0x1c, 0x00, 0x00, 0x00, 0x1c, 0x00, 0x00, 0x00, 
  0x0b, 0x00, 0x00, 0x00, 0x34, 0x00, 0x00, 0x00, 0x02, 0x00, 0x00, 0x00, 
  0xff, 0xff, 0xff, 0xff, 0x01, 0x00, 0x00, 0x00, 0xf0, 0xfb, 0xff, 0xff, 
  0x1b, 0x00, 0x00, 0x00, 0x53, 0x74, 0x61, 0x74, 0x65, 0x66, 0x75, 0x6c, 
  0x50, 0x61, 0x72, 0x74, 0x69, 0x74, 0x69, 0x6f, 0x6e, 0x65, 0x64, 0x43, 
  0x61, 0x6c, 0x6c, 0x5f, 0x31, 0x3a, 0x30, 0x00, 0x02, 0x00, 0x00, 0x00, 
  0x01, 0x00, 0x00, 0x00, 0x01, 0x00, 0x00, 0x00, 0x5e, 0xfc, 0xff, 0xff, 
  0x00, 0x00, 0x00, 0x01, 0x14, 0x00, 0x00, 0x00, 0x1c, 0x00, 0x00, 0x00, 
  0x1c, 0x00, 0x00, 0x00, 0x0a, 0x00, 0x00, 0x00, 0x54, 0x00, 0x00, 0x00, 
  0x02, 0x00, 0x00, 0x00, 0xff, 0xff, 0xff, 0xff, 0x01, 0x00, 0x00, 0x00, 
  0x48, 0xfc, 0xff, 0xff, 0x38, 0x00, 0x00, 0x00, 0x73, 0x65, 0x71, 0x75, 
  0x65, 0x6e, 0x74, 0x69, 0x61, 0x6c, 0x5f, 0x31, 0x2f, 0x64, 0x65, 0x6e, 
  0x73, 0x65, 0x5f, 0x32, 0x5f, 0x31, 0x2f, 0x4d, 0x61, 0x74, 0x4d, 0x75, 
  0x6c, 0x3b, 0x73, 0x65, 0x71, 0x75, 0x65, 0x6e, 0x74, 0x69, 0x61, 0x6c, 
  0x5f, 0x31, 0x2f, 0x64, 0x65, 0x6e, 0x73, 0x65, 0x5f, 0x32, 0x5f, 0x31, 
  0x2f, 0x41, 0x64, 0x64, 0x00, 0x00, 0x00, 0x00, 0x02, 0x00, 0x00, 0x00, 
  0x01, 0x00, 0x00, 0x00, 0x01, 0x00, 0x00, 0x00, 0xd6, 0xfc, 0xff, 0xff, 
  0x00, 0x00, 0x00, 0x01, 0x14, 0x00, 0x00, 0x00, 0x1c, 0x00, 0x00, 0x00, 
  0x1c, 0x00, 0x00, 0x00, 0x09, 0x00, 0x00, 0x00, 0x74, 0x00, 0x00, 0x00, 
  0x02, 0x00, 0x00, 0x00, 0xff, 0xff, 0xff, 0xff, 0x10, 0x00, 0x00, 0x00, 
  0xc0, 0xfc, 0xff, 0xff, 0x58, 0x00, 0x00, 0x00, 0x73, 0x65, 0x71, 0x75, 
  0x65, 0x6e, 0x74, 0x69, 0x61, 0x6c, 0x5f, 0x31, 0x2f, 0x64, 0x65, 0x6e, 
  0x73, 0x65, 0x5f, 0x31, 0x5f, 0x32, 0x2f, 0x4d, 0x61, 0x74, 0x4d, 0x75, 
  0x6c, 0x3b, 0x73, 0x65, 0x71, 0x75, 0x65, 0x6e, 0x74, 0x69, 0x61, 0x6c, 
  0x5f, 0x31, 0x2f, 0x64, 0x65, 0x6e, 0x73, 0x65, 0x5f, 0x31, 0x5f, 0x32, 
  0x2f, 0x52, 0x65, 0x6c, 0x75, 0x3b, 0x73, 0x65, 0x71, 0x75, 0x65, 0x6e, 
  0x74, 0x69, 0x61, 0x6c, 0x5f, 0x31, 0x2f, 0x64, 0x65, 0x6e, 0x73, 0x65, 
  0x5f, 0x31, 0x5f, 0x32, 0x2f, 0x42, 0x69, 0x61, 0x73, 0x41, 0x64, 0x64, 
  0x00, 0x00, 0x00, 0x00, 0x02, 0x00, 0x00, 0x00, 0x01, 0x00, 0x00, 0x00, 
  0x10, 0x00, 0x00, 0x00, 0x6e, 0xfd, 0xff, 0xff, 0x00, 0x00, 0x00, 0x01, 
  0x14, 0x00, 0x00, 0x00, 0x1c, 0x00, 0x00, 0x00, 0x1c, 0x00, 0x00, 0x00, 
  0x08, 0x00, 0x00, 0x00, 0x6c, 0x00, 0x00, 0x00, 0x02, 0x00, 0x00, 0x00, 
  0xff, 0xff, 0xff, 0xff, 0x20, 0x00, 0x00, 0x00, 0x58, 0xfd, 0xff, 0xff, 
  0x52, 0x00, 0x00, 0x00, 0x73, 0x65, 0x71, 0x75, 0x65, 0x6e, 0x74, 0x69, 
  0x61, 0x6c, 0x5f, 0x31, 0x2f, 0x64, 0x65, 0x6e, 0x73, 0x65, 0x5f, 0x31, 
  0x2f, 0x4d, 0x61, 0x74, 0x4d, 0x75, 0x6c, 0x3b, 0x73, 0x65, 0x71, 0x75, 
  0x65, 0x6e, 0x74, 0x69, 0x61, 0x6c, 0x5f, 0x31, 0x2f, 0x64, 0x65, 0x6e, 
  0x73, 0x65, 0x5f, 0x31, 0x2f, 0x52, 0x65, 0x6c, 0x75, 0x3b, 0x73, 0x65, 
  0x71, 0x75, 0x65, 0x6e, 0x74, 0x69, 0x61, 0x6c, 0x5f, 0x31, 0x2f, 0x64, 
  0x65, 0x6e, 0x73, 0x65, 0x5f, 0x31, 0x2f, 0x42, 0x69, 0x61, 0x73, 0x41, 
  0x64, 0x64, 0x00, 0x00, 0x02, 0x00, 0x00, 0x00, 0x01, 0x00, 0x00, 0x00, 
  0x20, 0x00, 0x00, 0x00, 0x7a, 0xfe, 0xff, 0xff, 0x00, 0x00, 0x00, 0x01, 
  0x10, 0x00, 0x00, 0x00, 0x10, 0x00, 0x00, 0x00, 0x07, 0x00, 0x00, 0x00, 
  0x44, 0x00, 0x00, 0x00, 0xd8, 0xfd, 0xff, 0xff, 0x36, 0x00, 0x00, 0x00, 
  0x73, 0x65, 0x71, 0x75, 0x65, 0x6e, 0x74, 0x69, 0x61, 0x6c, 0x5f, 0x31, 
  0x2f, 0x64, 0x65, 0x6e, 0x73, 0x65, 0x5f, 0x31, 0x2f, 0x52, 0x65, 0x6c, 
  0x75, 0x3b, 0x73, 0x65, 0x71, 0x75, 0x65, 0x6e, 0x74, 0x69, 0x61, 0x6c, 
  0x5f, 0x31, 0x2f, 0x64, 0x65, 0x6e, 0x73, 0x65, 0x5f, 0x31, 0x2f, 0x42, 
  0x69, 0x61, 0x73, 0x41, 0x64, 0x64, 0x00, 0x00, 0x01, 0x00, 0x00, 0x00, 
  0x20, 0x00, 0x00, 0x00, 0xda, 0xfe, 0xff, 0xff, 0x00, 0x00, 0x00, 0x01, 
  0x10, 0x00, 0x00, 0x00, 0x10, 0x00, 0x00, 0x00, 0x06, 0x00, 0x00, 0x00, 
  0x28, 0x00, 0x00, 0x00, 0x38, 0xfe, 0xff, 0xff, 0x1b, 0x00, 0x00, 0x00, 
  0x73, 0x65, 0x71, 0x75, 0x65, 0x6e, 0x74, 0x69, 0x61, 0x6c, 0x5f, 0x31, 
  0x2f, 0x64, 0x65, 0x6e, 0x73, 0x65, 0x5f, 0x31, 0x2f, 0x4d, 0x61, 0x74, 
  0x4d, 0x75, 0x6c, 0x00, 0x02, 0x00, 0x00, 0x00, 0x20, 0x00, 0x00, 0x00, 
  0x08, 0x00, 0x00, 0x00, 0x22, 0xff, 0xff, 0xff, 0x00, 0x00, 0x00, 0x01, 
  0x10, 0x00, 0x00, 0x00, 0x10, 0x00, 0x00, 0x00, 0x05, 0x00, 0x00, 0x00, 
  0x2c, 0x00, 0x00, 0x00, 0x80, 0xfe, 0xff, 0xff, 0x1d, 0x00, 0x00, 0x00, 
  0x73, 0x65, 0x71, 0x75, 0x65, 0x6e, 0x74, 0x69, 0x61, 0x6c, 0x5f, 0x31, 
  0x2f, 0x64, 0x65, 0x6e, 0x73, 0x65, 0x5f, 0x31, 0x5f, 0x32, 0x2f, 0x4d, 
  0x61, 0x74, 0x4d, 0x75, 0x6c, 0x00, 0x00, 0x00, 0x02, 0x00, 0x00, 0x00, 
  0x10, 0x00, 0x00, 0x00, 0x20, 0x00, 0x00, 0x00, 0x6e, 0xff, 0xff, 0xff, 
  0x00, 0x00, 0x00, 0x01, 0x10, 0x00, 0x00, 0x00, 0x10, 0x00, 0x00, 0x00, 
  0x04, 0x00, 0x00, 0x00, 0x2c, 0x00, 0x00, 0x00, 0xcc, 0xfe, 0xff, 0xff, 
  0x1d, 0x00, 0x00, 0x00, 0x73, 0x65, 0x71, 0x75, 0x65, 0x6e, 0x74, 0x69, 
  0x61, 0x6c, 0x5f, 0x31, 0x2f, 0x64, 0x65, 0x6e, 0x73, 0x65, 0x5f, 0x32, 
  0x5f, 0x31, 0x2f, 0x4d, 0x61, 0x74, 0x4d, 0x75, 0x6c, 0x00, 0x00, 0x00, 
  0x02, 0x00, 0x00, 0x00, 0x01, 0x00, 0x00, 0x00, 0x10, 0x00, 0x00, 0x00, 
  0xba, 0xff, 0xff, 0xff, 0x00, 0x00, 0x00, 0x01, 0x10, 0x00, 0x00, 0x00, 
  0x10, 0x00, 0x00, 0x00, 0x03, 0x00, 0x00, 0x00, 0x28, 0x00, 0x00, 0x00, 
  0x18, 0xff, 0xff, 0xff, 0x1a, 0x00, 0x00, 0x00, 0x73, 0x65, 0x71, 0x75, 
  0x65, 0x6e, 0x74, 0x69, 0x61, 0x6c, 0x5f, 0x31, 0x2f, 0x64, 0x65, 0x6e, 
  0x73, 0x65, 0x5f, 0x32, 0x5f, 0x31, 0x2f, 0x41, 0x64, 0x64, 0x00, 0x00, 
  0x01, 0x00, 0x00, 0x00, 0x01, 0x00, 0x00, 0x00, 0x00, 0x00, 0x16, 0x00, 
  0x18, 0x00, 0x14, 0x00, 0x00, 0x00, 0x10, 0x00, 0x0c, 0x00, 0x08, 0x00, 
  0x00, 0x00, 0x00, 0x00, 0x00, 0x00, 0x07, 0x00, 0x16, 0x00, 0x00, 0x00, 
  0x00, 0x00, 0x00, 0x01, 0x10, 0x00, 0x00, 0x00, 0x10, 0x00, 0x00, 0x00, 
  0x02, 0x00, 0x00, 0x00, 0x48, 0x00, 0x00, 0x00, 0x74, 0xff, 0xff, 0xff, 
  0x3a, 0x00, 0x00, 0x00, 0x73, 0x65, 0x71, 0x75, 0x65, 0x6e, 0x74, 0x69, 
  0x61, 0x6c, 0x5f, 0x31, 0x2f, 0x64, 0x65, 0x6e, 0x73, 0x65, 0x5f, 0x31, 
  0x5f, 0x32, 0x2f, 0x52, 0x65, 0x6c, 0x75, 0x3b, 0x73, 0x65, 0x71, 0x75, 
  0x65, 0x6e, 0x74, 0x69, 0x61, 0x6c, 0x5f, 0x31, 0x2f, 0x64, 0x65, 0x6e, 
  0x73, 0x65, 0x5f, 0x31, 0x5f, 0x32, 0x2f, 0x42, 0x69, 0x61, 0x73, 0x41, 
  0x64, 0x64, 0x00, 0x00, 0x01, 0x00, 0x00, 0x00, 0x10, 0x00, 0x00, 0x00, 
  0x00, 0x00, 0x16, 0x00, 0x1c, 0x00, 0x18, 0x00, 0x00, 0x00, 0x14, 0x00, 
  0x10, 0x00, 0x0c, 0x00, 0x00, 0x00, 0x00, 0x00, 0x08, 0x00, 0x07, 0x00, 
  0x16, 0x00, 0x00, 0x00, 0x00, 0x00, 0x00, 0x01, 0x14, 0x00, 0x00, 0x00, 
  0x20, 0x00, 0x00, 0x00, 0x20, 0x00, 0x00, 0x00, 0x01, 0x00, 0x00, 0x00, 
  0x3c, 0x00, 0x00, 0x00, 0x02, 0x00, 0x00, 0x00, 0xff, 0xff, 0xff, 0xff, 
  0x08, 0x00, 0x00, 0x00, 0x04, 0x00, 0x04, 0x00, 0x04, 0x00, 0x00, 0x00, 
  0x1e, 0x00, 0x00, 0x00, 0x73, 0x65, 0x72, 0x76, 0x69, 0x6e, 0x67, 0x5f, 
  0x64, 0x65, 0x66, 0x61, 0x75, 0x6c, 0x74, 0x5f, 0x6b, 0x65, 0x72, 0x61, 
  0x73, 0x5f, 0x74, 0x65, 0x6e, 0x73, 0x6f, 0x72, 0x3a, 0x30, 0x00, 0x00, 
  0x02, 0x00, 0x00, 0x00, 0x01, 0x00, 0x00, 0x00, 0x08, 0x00, 0x00, 0x00, 
  0x02, 0x00, 0x00, 0x00, 0x20, 0x00, 0x00, 0x00, 0x04, 0x00, 0x00, 0x00, 
  0xf4, 0xff, 0xff, 0xff, 0x0e, 0x00, 0x00, 0x00, 0x00, 0x00, 0x00, 0x0e, 
  0x0c, 0x00, 0x0c, 0x00, 0x0b, 0x00, 0x00, 0x00, 0x00, 0x00, 0x04, 0x00, 
  0x0c, 0x00, 0x00, 0x00, 0x09, 0x00, 0x00, 0x00, 0x00, 0x00, 0x00, 0x09
};

const unsigned int ann_model_tflite_len = 5484;

#endif // ANN_MODEL_DATA_H
