#ifndef ANN_MODEL_DATA_H
#define ANN_MODEL_DATA_H

const unsigned char ann_model_tflite[] = {
    0x1c, 0x00, 0x00, 0x00, 0x54, 0x46, 0x4c, 0x33, 0x14, 0x00, 0x20, 0x00, 
    0x1c, 0x00, 0x18, 0x00, 0x14, 0x00, 0x10, 0x00, 0x0c, 0x00, 0x00, 0x00, 
    0x08, 0x00, 0x04, 0x00, 0x14, 0x00, 0x00, 0x00, 0x1c, 0x00, 0x00, 0x00, 
    0x98, 0x00, 0x00, 0x00, 0xf0, 0x00, 0x00, 0x00, 0xe0, 0x0f, 0x00, 0x00, 
    0xf0, 0x0f, 0x00, 0x00, 0xfc, 0x15, 0x00, 0x00, 0x03, 0x00, 0x00, 0x00, 
    0x01, 0x00, 0x00, 0x00, 0x10, 0x00, 0x00, 0x00, 0x00, 0x00, 0x0a, 0x00, 
    0x10, 0x00, 0x0c, 0x00, 0x08, 0x00, 0x04, 0x00, 0x0a, 0x00, 0x00, 0x00, 
    0x0c, 0x00, 0x00, 0x00, 0x1c, 0x00, 0x00, 0x00, 0x3c, 0x00, 0x00, 0x00, 
    0x0f, 0x00, 0x00, 0x00, 0x73, 0x65, 0x72, 0x76, 0x69, 0x6e, 0x67, 0x5f, 
    0x64, 0x65, 0x66, 0x61, 0x75, 0x6c, 0x74, 0x00, 0x01, 0x00, 0x00, 0x00, 
    0x04, 0x00, 0x00, 0x00, 0x90, 0xff, 0xff, 0xff, 0x0a, 0x00, 0x00, 0x00, 
    0x04, 0x00, 0x00, 0x00, 0x08, 0x00, 0x00, 0x00, 0x6f, 0x75, 0x74, 0x70, 
    0x75, 0x74, 0x5f, 0x30, 0x00, 0x00, 0x00, 0x00, 0x01, 0x00, 0x00, 0x00, 
    0x04, 0x00, 0x00, 0x00, 0x06, 0xf0, 0xff, 0xff, 0x04, 0x00, 0x00, 0x00, 
    0x0c, 0x00, 0x00, 0x00, 0x6b, 0x65, 0x72, 0x61, 0x73, 0x5f, 0x74, 0x65, 
    0x6e, 0x73, 0x6f, 0x72, 0x00, 0x00, 0x00, 0x00, 0x02, 0x00, 0x00, 0x00, 
    0x34, 0x00, 0x00, 0x00, 0x04, 0x00, 0x00, 0x00, 0xdc, 0xff, 0xff, 0xff, 
    0x0d, 0x00, 0x00, 0x00, 0x04, 0x00, 0x00, 0x00, 0x13, 0x00, 0x00, 0x00, 
    0x43, 0x4f, 0x4e, 0x56, 0x45, 0x52, 0x53, 0x49, 0x4f, 0x4e, 0x5f, 0x4d, 
    0x45, 0x54, 0x41, 0x44, 0x41, 0x54, 0x41, 0x00, 0x08, 0x00, 0x0c, 0x00, 
    0x08, 0x00, 0x04, 0x00, 0x08, 0x00, 0x00, 0x00, 0x0c, 0x00, 0x00, 0x00, 
    0x04, 0x00, 0x00, 0x00, 0x13, 0x00, 0x00, 0x00, 0x6d, 0x69, 0x6e, 0x5f, 
    0x72, 0x75, 0x6e, 0x74, 0x69, 0x6d, 0x65, 0x5f, 0x76, 0x65, 0x72, 0x73, 
    0x69, 0x6f, 0x6e, 0x00, 0x0e, 0x00, 0x00, 0x00, 0xec, 0x0e, 0x00, 0x00, 
    0xe4, 0x0e, 0x00, 0x00, 0x94, 0x0e, 0x00, 0x00, 0x74, 0x0e, 0x00, 0x00, 
    0x64, 0x0d, 0x00, 0x00, 0x54, 0x05, 0x00, 0x00, 0x44, 0x01, 0x00, 0x00, 
    0xb4, 0x00, 0x00, 0x00, 0xac, 0x00, 0x00, 0x00, 0xa4, 0x00, 0x00, 0x00, 
    0x9c, 0x00, 0x00, 0x00, 0x94, 0x00, 0x00, 0x00, 0x74, 0x00, 0x00, 0x00, 
    0x04, 0x00, 0x00, 0x00, 0xba, 0xf0, 0xff, 0xff, 0x04, 0x00, 0x00, 0x00, 
    0x60, 0x00, 0x00, 0x00, 0x10, 0x00, 0x00, 0x00, 0x00, 0x00, 0x00, 0x00, 
    0x08, 0x00, 0x0e, 0x00, 0x08, 0x00, 0x04, 0x00, 0x08, 0x00, 0x00, 0x00, 
    0x10, 0x00, 0x00, 0x00, 0x24, 0x00, 0x00, 0x00, 0x00, 0x00, 0x06, 0x00, 
    0x08, 0x00, 0x04, 0x00, 0x06, 0x00, 0x00, 0x00, 0x04, 0x00, 0x00, 0x00, 
    0x00, 0x00, 0x00, 0x00, 0x0c, 0x00, 0x18, 0x00, 0x14, 0x00, 0x10, 0x00, 
    0x0c, 0x00, 0x04, 0x00, 0x0c, 0x00, 0x00, 0x00, 0x5b, 0x0b, 0xf4, 0x30, 
    0x84, 0x55, 0x79, 0x45, 0x02, 0x00, 0x00, 0x00, 0x02, 0x00, 0x00, 0x00, 
    0x04, 0x00, 0x00, 0x00, 0x06, 0x00, 0x00, 0x00, 0x32, 0x2e, 0x32, 0x31, 
    0x2e, 0x30, 0x00, 0x00, 0x26, 0xf1, 0xff, 0xff, 0x04, 0x00, 0x00, 0x00, 
    0x10, 0x00, 0x00, 0x00, 0x31, 0x2e, 0x35, 0x2e, 0x30, 0x00, 0x00, 0x00, 
    0x00, 0x00, 0x00, 0x00, 0x00, 0x00, 0x00, 0x00, 0xe4, 0xeb, 0xff, 0xff, 
    0xe8, 0xeb, 0xff, 0xff, 0xec, 0xeb, 0xff, 0xff, 0xf0, 0xeb, 0xff, 0xff, 
    0x52, 0xf1, 0xff, 0xff, 0x04, 0x00, 0x00, 0x00, 0x80, 0x00, 0x00, 0x00, 
    0xfa, 0x42, 0xa1, 0xbe, 0x59, 0xbb, 0x74, 0xbe, 0xbb, 0x8a, 0x86, 0x3c, 
    0xea, 0x06, 0x0e, 0xbf, 0x28, 0x48, 0x72, 0x3e, 0xd9, 0x2c, 0x15, 0xbf, 
    0x03, 0xe4, 0xa4, 0xbe, 0xd3, 0xf9, 0x96, 0xbd, 0x87, 0x80, 0x18, 0x3e, 
    0x51, 0x34, 0x8b, 0x3e, 0x83, 0x6a, 0xc7, 0xbe, 0x60, 0xc5, 0x03, 0xbe, 
    0xc2, 0xd9, 0xad, 0x3d, 0xcf, 0x06, 0xff, 0x3d, 0x46, 0xd0, 0xcd, 0x3a, 
    0x18, 0xa9, 0xfd, 0xbe, 0x38, 0x1e, 0x67, 0xbe, 0x2c, 0x51, 0x8d, 0xbe, 
    0x2f, 0x3e, 0xd8, 0xbd, 0x89, 0xa2, 0x1d, 0x3f, 0x75, 0x3b, 0xb2, 0xbe, 
    0x7f, 0xc0, 0xf8, 0xbd, 0x09, 0x83, 0xb1, 0xbe, 0xeb, 0xed, 0x73, 0x3e, 
    0xc4, 0x2f, 0xa6, 0x3e, 0xe4, 0xa7, 0x2d, 0x3e, 0x91, 0x78, 0x23, 0xbe, 
    0x1c, 0xc2, 0x5e, 0xba, 0xa7, 0xc8, 0x47, 0x3c, 0xd7, 0xad, 0xc6, 0xbd, 
    0x64, 0xea, 0xee, 0xbd, 0xbb, 0xd8, 0xa4, 0xbe, 0xde, 0xf1, 0xff, 0xff, 
    0x04, 0x00, 0x00, 0x00, 0x00, 0x04, 0x00, 0x00, 0x15, 0xb3, 0x6d, 0x3f, 
    0x78, 0xe1, 0xce, 0x3d, 0x9a, 0x4f, 0x6f, 0xbf, 0x94, 0x81, 0x10, 0xbc, 
    0xae, 0x3f, 0x02, 0xbe, 0x6b, 0xc7, 0x0c, 0x3e, 0xf5, 0xac, 0xc6, 0xbe, 
    0xa9, 0x43, 0x01, 0x3e, 0x64, 0x16, 0x84, 0x3f, 0x69, 0xba, 0x41, 0x3e, 
    0x7b, 0x1c, 0x8f, 0xbf, 0x98, 0x75, 0x4f, 0x3d, 0x93, 0x36, 0x0b, 0x3e, 
    0xbe, 0x8b, 0x0e, 0xbe, 0x01, 0xa1, 0x5f, 0xbe, 0xda, 0x9c, 0x91, 0x3d, 
    0xd9, 0x14, 0x54, 0x3e, 0x62, 0x97, 0x1f, 0xbe, 0x9c, 0x18, 0x67, 0x3f, 
    0x14, 0x94, 0x44, 0xbf, 0x4e, 0x4b, 0x87, 0x3e, 0x32, 0x2f, 0x4a, 0x3d, 
    0xfd, 0x9a, 0x27, 0xbf, 0x79, 0x48, 0x07, 0xbd, 0x81, 0xd4, 0xcc, 0xbe, 
    0xcc, 0x78, 0x8c, 0xbe, 0x84, 0x4f, 0x15, 0x3e, 0xf7, 0x95, 0x6f, 0x3b, 
    0xc8, 0xf1, 0x1f, 0x3f, 0x94, 0xb7, 0xe1, 0xbe, 0x70, 0xfe, 0xcf, 0x3e, 
    0x64, 0x4a, 0x60, 0x3d, 0xbe, 0xe7, 0x86, 0x3d, 0x7f, 0xd2, 0xb4, 0xbe, 
    0x8a, 0xd4, 0x74, 0x3f, 0xa2, 0x4f, 0x42, 0x3e, 0x5a, 0x1c, 0xe5, 0xbe, 
    0xfc, 0x17, 0x9a, 0xbe, 0x7f, 0x96, 0xc3, 0xbf, 0xea, 0xfa, 0x63, 0xbf, 
    0x60, 0xae, 0xce, 0x3d, 0x31, 0xb3, 0xcc, 0x3d, 0xa3, 0xf7, 0x62, 0xbf, 
    0x60, 0x92, 0x0a, 0xbe, 0x18, 0x2c, 0xb3, 0xbb, 0x06, 0xbe, 0x49, 0xbf, 
    0x6a, 0xfe, 0x8f, 0xbf, 0xac, 0xfe, 0x57, 0xbf, 0xc2, 0xb7, 0xb9, 0xbe, 
    0x18, 0x7a, 0x96, 0x3d, 0x19, 0xfa, 0xc0, 0x3c, 0x2e, 0x7c, 0x3d, 0x3e, 
    0x6a, 0x5a, 0x06, 0x3e, 0xc0, 0x34, 0xf4, 0xbd, 0x70, 0xd7, 0x67, 0x3e, 
    0x2c, 0x77, 0x30, 0xbd, 0xdb, 0x38, 0x0f, 0xbf, 0xeb, 0xc5, 0x31, 0x3d, 
    0xda, 0x97, 0x65, 0xbe, 0xc0, 0xc8, 0x27, 0xbc, 0x78, 0x66, 0x11, 0xbd, 
    0xf0, 0x71, 0x9e, 0xbd, 0x27, 0x78, 0x0d, 0x3d, 0xbd, 0x8d, 0xf2, 0x3c, 
    0xb7, 0xbb, 0x6c, 0xbc, 0x5a, 0x3e, 0x33, 0xbf, 0xaf, 0x38, 0x58, 0x3f, 
    0x97, 0x34, 0x56, 0xbf, 0x85, 0x14, 0xdc, 0xbe, 0xad, 0xac, 0x1e, 0xbf, 
    0x3c, 0xea, 0x50, 0xbf, 0x62, 0x46, 0xee, 0xbe, 0xb8, 0x3c, 0xb6, 0xbe, 
    0xa9, 0x28, 0x6a, 0x3c, 0x6f, 0x93, 0xa6, 0x3e, 0xe4, 0xa5, 0x10, 0x3d, 
    0x8b, 0x19, 0xb0, 0x3e, 0xb4, 0x1a, 0xae, 0xbe, 0xbe, 0x83, 0x50, 0x3e, 
    0x57, 0x97, 0xb7, 0xbd, 0xce, 0x89, 0x2b, 0x3d, 0x8e, 0x5e, 0x00, 0x3d, 
    0xb5, 0x6d, 0x9b, 0xbf, 0x8e, 0xbd, 0x04, 0xbe, 0x2d, 0x18, 0x1f, 0x3c, 
    0x24, 0x03, 0xa1, 0xbd, 0xd1, 0x05, 0xab, 0xbd, 0x15, 0x8d, 0xf6, 0xbe, 
    0x94, 0xa8, 0x47, 0x3e, 0xe6, 0x96, 0x48, 0x3e, 0xec, 0xa3, 0x7b, 0xbf, 
    0xbb, 0xca, 0x15, 0xbf, 0x5a, 0x86, 0x23, 0x3e, 0x8f, 0xad, 0x28, 0xbf, 
    0xb0, 0x92, 0x54, 0xbf, 0xad, 0x4c, 0x3e, 0xbf, 0x4a, 0x3f, 0x18, 0xbd, 
    0x5d, 0xe7, 0xea, 0x3d, 0x70, 0x17, 0x16, 0x3f, 0x8a, 0xe5, 0xd1, 0x3d, 
    0xac, 0x3c, 0x05, 0x3f, 0xe6, 0xa8, 0xcb, 0x3d, 0xe1, 0x2c, 0x22, 0x3e, 
    0x44, 0xba, 0xe9, 0xbd, 0x9f, 0x2f, 0x4b, 0x3f, 0x0b, 0x64, 0x64, 0x3e, 
    0x25, 0xb3, 0x3e, 0x3f, 0x40, 0xb7, 0xb2, 0x3d, 0x8d, 0x22, 0x0f, 0xbe, 
    0xe9, 0x36, 0x6d, 0xbc, 0x36, 0x04, 0xce, 0xbe, 0xa5, 0xe1, 0x3c, 0x3e, 
    0x3c, 0xdd, 0x83, 0x3e, 0xf4, 0x99, 0xaa, 0xbc, 0x5a, 0x08, 0x52, 0x3f, 
    0x92, 0x6e, 0x42, 0xbe, 0x36, 0xf7, 0xb3, 0x3d, 0x06, 0xa8, 0x9c, 0xbe, 
    0x13, 0x35, 0x94, 0xbf, 0x82, 0x5d, 0x32, 0xbe, 0x1b, 0x03, 0x6b, 0x3f, 
    0x1c, 0x26, 0xb4, 0x3c, 0x4f, 0xba, 0x9c, 0x3e, 0xfe, 0x32, 0xdb, 0xbc, 
    0xeb, 0x00, 0x8f, 0x3e, 0x1a, 0x56, 0xbe, 0xbe, 0xe5, 0x0f, 0xe2, 0x3d, 
    0xce, 0x18, 0xe7, 0x3d, 0x66, 0x94, 0x83, 0xbe, 0x0b, 0xe5, 0x2e, 0x3c, 
    0xcb, 0x6b, 0x60, 0xbe, 0xdd, 0x4a, 0xa3, 0x3d, 0x7c, 0x2e, 0xb0, 0x3e, 
    0x4e, 0x33, 0xa2, 0x3d, 0x1e, 0x37, 0x79, 0x3e, 0xf1, 0xe0, 0xaf, 0x3c, 
    0x03, 0x72, 0x6c, 0x3a, 0xa7, 0x3a, 0x9f, 0x3e, 0x74, 0xd6, 0xa7, 0xbf, 
    0x34, 0x2b, 0x47, 0x3d, 0xa7, 0x88, 0x2a, 0xbe, 0x13, 0x1e, 0xa8, 0xbe, 
    0xea, 0xf6, 0x3f, 0x3d, 0x8f, 0xe2, 0x13, 0x3e, 0x64, 0x82, 0xf3, 0xbe, 
    0x02, 0xff, 0xe8, 0x3d, 0x99, 0xbe, 0x34, 0xbf, 0x3c, 0xb2, 0xf6, 0x3d, 
    0x84, 0xff, 0xe8, 0x3c, 0xce, 0x83, 0xc0, 0xba, 0xf6, 0xe6, 0x1f, 0xbe, 
    0xd4, 0x72, 0x6e, 0x3d, 0xaf, 0xf3, 0x97, 0x3e, 0x3c, 0xc1, 0xe1, 0x3e, 
    0xda, 0x06, 0x1f, 0x3f, 0x62, 0x24, 0xf8, 0x3d, 0x27, 0x8e, 0x54, 0xbe, 
    0x92, 0xf3, 0xb8, 0xbd, 0x51, 0xc7, 0xf8, 0xbd, 0xdb, 0x77, 0x26, 0x3e, 
    0x4c, 0xfb, 0xf1, 0xbe, 0x32, 0xa8, 0x20, 0xbe, 0x47, 0x8c, 0x2c, 0x3e, 
    0x38, 0x15, 0x2e, 0x3d, 0xf3, 0x75, 0xb5, 0x3e, 0x83, 0xa9, 0x07, 0xbe, 
    0xcb, 0x64, 0x01, 0x3e, 0xe6, 0x8a, 0x1b, 0x3d, 0xa9, 0xe0, 0x58, 0x3d, 
    0x53, 0x72, 0xb1, 0xbe, 0x86, 0x2e, 0xc7, 0xbe, 0xb3, 0x97, 0xd8, 0x3d, 
    0x83, 0xf2, 0x07, 0xbf, 0x54, 0xb1, 0x9f, 0xbf, 0x6c, 0xb6, 0x98, 0xbf, 
    0xbb, 0x03, 0xcb, 0xbf, 0xce, 0x09, 0x62, 0x3f, 0x2f, 0xc6, 0x1e, 0xbe, 
    0xae, 0x19, 0x2c, 0x3e, 0x5b, 0x60, 0xf8, 0xbc, 0x06, 0x80, 0xb7, 0x3e, 
    0xa8, 0x2e, 0x80, 0xbe, 0xac, 0x6e, 0x4d, 0x3d, 0x08, 0x5e, 0xf5, 0x3d, 
    0x81, 0xcc, 0x84, 0x3d, 0x2b, 0x38, 0xe9, 0xbe, 0xfb, 0x74, 0xd4, 0xbe, 
    0xbd, 0x6b, 0x24, 0xbf, 0xb0, 0x94, 0x50, 0xbf, 0x59, 0x00, 0x13, 0xbf, 
    0x6b, 0xba, 0xac, 0x3e, 0x93, 0xca, 0x01, 0xbf, 0x0a, 0xcb, 0x1c, 0x3e, 
    0x62, 0x10, 0x31, 0xbf, 0x7c, 0x95, 0x21, 0xbf, 0x67, 0x6b, 0xdb, 0xbd, 
    0x38, 0x45, 0xf2, 0xbe, 0x38, 0x18, 0x58, 0xbf, 0xb5, 0x31, 0x49, 0xbf, 
    0x97, 0x94, 0x9c, 0xbf, 0xd4, 0x42, 0x08, 0x3d, 0x29, 0x3b, 0x27, 0xbe, 
    0x60, 0x10, 0x9f, 0x3e, 0xf3, 0xfe, 0x37, 0xbf, 0xa5, 0x85, 0x99, 0x3d, 
    0xc8, 0x95, 0x77, 0xbf, 0xb5, 0xd6, 0x9d, 0xbf, 0xfa, 0x7a, 0x8d, 0xbf, 
    0xe5, 0xa5, 0x1d, 0x3e, 0x5e, 0xfe, 0xe6, 0xbd, 0x10, 0xa6, 0x31, 0x3f, 
    0x29, 0xa7, 0x8c, 0x3d, 0x97, 0xa9, 0x57, 0xbe, 0x43, 0xfa, 0xf0, 0xbe, 
    0x67, 0xb6, 0x84, 0xbf, 0x9b, 0x3a, 0x86, 0x3d, 0xeb, 0x4d, 0xbd, 0xbd, 
    0x2d, 0x73, 0x58, 0xbe, 0xe3, 0x5b, 0x9d, 0x3f, 0x8d, 0xe8, 0x50, 0xbd, 
    0x83, 0x54, 0x88, 0x3e, 0xd1, 0x6a, 0xbb, 0x3c, 0x34, 0xa4, 0x6b, 0x3e, 
    0x71, 0x0c, 0xd4, 0x3d, 0xff, 0x29, 0xf2, 0x3e, 0x98, 0xc1, 0xe9, 0x3c, 
    0x13, 0xa0, 0xbb, 0x3c, 0xfd, 0x6c, 0x7d, 0x3e, 0x21, 0xed, 0x92, 0x3d, 
    0x30, 0xfb, 0xb3, 0xbe, 0x18, 0xe9, 0x52, 0x3e, 0x51, 0xf1, 0x85, 0xbe, 
    0xb0, 0xe2, 0x31, 0x3f, 0xd6, 0x4e, 0x13, 0xbd, 0x6a, 0xb5, 0x3d, 0x3e, 
    0x02, 0x15, 0xae, 0x3c, 0xd1, 0xa2, 0x6e, 0x3e, 0x5c, 0xeb, 0x0f, 0xbd, 
    0x74, 0xab, 0x5b, 0x3e, 0x9d, 0xec, 0xb6, 0xbe, 0xa2, 0x56, 0x7c, 0x3d, 
    0x59, 0x70, 0x0e, 0x3e, 0xa0, 0x6d, 0x56, 0x3f, 0x3e, 0x68, 0x5d, 0xbf, 
    0x22, 0xc0, 0x1f, 0xbe, 0xf5, 0xff, 0x8c, 0xbe, 0x26, 0xef, 0x16, 0xbf, 
    0xf8, 0x56, 0xd9, 0xbe, 0x95, 0xcc, 0x27, 0x3f, 0x38, 0xca, 0x5d, 0xbd, 
    0x96, 0x93, 0x95, 0xbf, 0xb4, 0x4d, 0xe0, 0x3b, 0x9d, 0x33, 0x38, 0x3e, 
    0x29, 0x37, 0x5e, 0xbe, 0x04, 0xc8, 0xb5, 0x3d, 0xa2, 0xaf, 0x5c, 0xbc, 
    0xea, 0xf5, 0xff, 0xff, 0x04, 0x00, 0x00, 0x00, 0x00, 0x08, 0x00, 0x00, 
    0x19, 0x33, 0xd2, 0x3d, 0x2b, 0xc1, 0x8a, 0x3e, 0xf9, 0x59, 0x83, 0xbe, 
    0x85, 0xec, 0xd4, 0xbe, 0x32, 0xda, 0x4c, 0xbf, 0x9c, 0xfa, 0x23, 0x3f, 
    0x3e, 0x51, 0x9c, 0xbe, 0xa0, 0xcb, 0x9b, 0xbe, 0x99, 0x21, 0x79, 0xbf, 
    0x04, 0x8d, 0x3b, 0xbf, 0xc0, 0xc6, 0x47, 0x3f, 0x08, 0x89, 0xce, 0x3e, 
    0x75, 0x32, 0xcd, 0xbe, 0xf2, 0x2a, 0xa6, 0xbe, 0x9f, 0xdc, 0x8d, 0xbe, 
    0xe4, 0x67, 0xd3, 0x3b, 0x29, 0x6a, 0xc6, 0xbe, 0x2d, 0x1a, 0x0c, 0x3f, 
    0x9c, 0x7b, 0x5b, 0x3e, 0x10, 0x69, 0x67, 0xbf, 0x5b, 0xfd, 0x86, 0xbd, 
    0x60, 0x09, 0x2f, 0x3e, 0xc9, 0xba, 0x94, 0xbe, 0xfe, 0xde, 0xa5, 0x3d, 
    0xd1, 0xbd, 0x3a, 0x3e, 0xe7, 0xad, 0x97, 0x3e, 0xed, 0x4f, 0x39, 0xbd, 
    0x1e, 0xf6, 0x02, 0x3e, 0xa5, 0x73, 0x9a, 0xbe, 0x3b, 0xde, 0xac, 0xbe, 
    0xda, 0xd8, 0x8c, 0xbd, 0x14, 0xa6, 0x63, 0x3e, 0x28, 0x05, 0x32, 0x3e, 
    0x4e, 0x28, 0xcc, 0x3d, 0xa9, 0xe0, 0xdc, 0xbe, 0x26, 0x40, 0x0f, 0xbe, 
    0xcd, 0xd7, 0x14, 0x3d, 0xf2, 0x43, 0x0f, 0x3f, 0x86, 0x58, 0xa3, 0xbe, 
    0x9a, 0xf5, 0x0f, 0x3e, 0xc7, 0x17, 0xe4, 0x3c, 0x55, 0x23, 0x24, 0xbd, 
    0x5b, 0xfa, 0x74, 0xbe, 0xa7, 0xb2, 0x26, 0x3f, 0x61, 0x3f, 0xf0, 0xbe, 
    0x39, 0x22, 0x0d, 0xbf, 0xc1, 0x01, 0x2c, 0xbf, 0x30, 0xa4, 0x39, 0xbe, 
    0x9d, 0xa3, 0xa5, 0xbe, 0xd7, 0x3a, 0x0e, 0x3d, 0x8f, 0x48, 0x31, 0x3d, 
    0x34, 0x46, 0x82, 0xbe, 0xf3, 0x57, 0x60, 0x3d, 0xad, 0x65, 0x13, 0x3f, 
    0xde, 0x7b, 0x6e, 0xbe, 0x13, 0xc9, 0xf9, 0x3e, 0xcb, 0x72, 0x19, 0x3f, 
    0xa9, 0x78, 0x29, 0x3f, 0xdc, 0xf6, 0x0a, 0xbf, 0x23, 0x3e, 0xf2, 0xbe, 
    0x4d, 0xee, 0x07, 0xbe, 0x8a, 0xa2, 0x5b, 0xbe, 0xed, 0x38, 0x08, 0xbf, 
    0x8e, 0xf4, 0x32, 0x3d, 0x07, 0xe0, 0x0f, 0x3f, 0x44, 0x6d, 0x15, 0x3e, 
    0x1c, 0x81, 0xb2, 0xbc, 0x2f, 0x12, 0x92, 0xbe, 0xe8, 0x1b, 0x5c, 0xbe, 
    0xcd, 0xf3, 0xcc, 0xbd, 0xf1, 0x1a, 0x55, 0xbe, 0xcf, 0xf5, 0xf4, 0x3d, 
    0x33, 0xb7, 0x0f, 0x3d, 0xb5, 0xcf, 0xa3, 0xbe, 0x8a, 0x1c, 0xf3, 0xbe, 
    0xb0, 0xde, 0x1c, 0x3d, 0xbd, 0x6b, 0x56, 0x3e, 0x15, 0x53, 0x4c, 0x3d, 
    0x38, 0xec, 0x28, 0x3e, 0x2b, 0xb3, 0x32, 0x3f, 0xcc, 0x75, 0x08, 0x3d, 
    0xc8, 0x6c, 0x4c, 0xbd, 0xf8, 0xc8, 0x13, 0xbf, 0x62, 0x36, 0x06, 0xbe, 
    0xe1, 0xd7, 0xc2, 0xbe, 0xc3, 0x13, 0x66, 0xbe, 0x97, 0x57, 0x26, 0x3e, 
    0xe6, 0x54, 0x5a, 0xbe, 0x77, 0xb8, 0xab, 0xbd, 0x92, 0x3c, 0xf7, 0xbe, 
    0xe7, 0x2e, 0x33, 0x3e, 0x8a, 0xf5, 0x18, 0xbe, 0x1b, 0x17, 0x8d, 0x3e, 
    0x3c, 0x40, 0xf0, 0x3d, 0x46, 0x04, 0x54, 0xbd, 0x1b, 0xe6, 0xe7, 0x3e, 
    0xee, 0xf4, 0xdf, 0xbd, 0x54, 0x7d, 0x24, 0xbe, 0x8e, 0x5a, 0xd2, 0xbe, 
    0x95, 0x6a, 0x0d, 0xbe, 0x28, 0x6f, 0x87, 0x3d, 0x73, 0xd4, 0x39, 0xbf, 
    0x22, 0x55, 0x07, 0xbf, 0x4d, 0xea, 0xa6, 0xbf, 0xfa, 0xcb, 0x9a, 0x3e, 
    0x31, 0xfa, 0xe1, 0xbd, 0x1f, 0x24, 0x63, 0xbf, 0xb5, 0x15, 0x9d, 0x3d, 
    0x32, 0xac, 0x32, 0xbf, 0x29, 0xf4, 0x94, 0xbe, 0x4a, 0xa2, 0x3a, 0xbe, 
    0xe2, 0x9c, 0x72, 0xbd, 0xdc, 0xad, 0x95, 0xbe, 0xa3, 0xb0, 0x96, 0xbf, 
    0x1d, 0x3e, 0x3c, 0xbf, 0x9d, 0xf8, 0x89, 0x3e, 0x1d, 0xa1, 0xa6, 0xbd, 
    0x5e, 0x3f, 0x99, 0xbc, 0x1b, 0x3b, 0xee, 0x3d, 0x94, 0x35, 0xa0, 0x3e, 
    0x75, 0xc4, 0x55, 0x3d, 0x9b, 0xc6, 0x47, 0xbc, 0x62, 0x38, 0x40, 0xbf, 
    0xfd, 0xa6, 0x0b, 0xbf, 0xe9, 0x2a, 0xc8, 0x3d, 0xf7, 0x94, 0xd5, 0xbd, 
    0x8b, 0x27, 0x19, 0xbf, 0xff, 0xa3, 0x11, 0xbf, 0x3d, 0x0c, 0x8e, 0x3f, 
    0x35, 0x30, 0xf5, 0x3e, 0x12, 0xa2, 0x90, 0xbd, 0xab, 0x64, 0x19, 0x3f, 
    0x91, 0x84, 0xb6, 0xbe, 0xfd, 0x0c, 0x33, 0x3f, 0x81, 0xef, 0x39, 0x3e, 
    0xf0, 0x35, 0xa9, 0x3e, 0x7f, 0x6e, 0x22, 0xbf, 0xf4, 0xc2, 0x26, 0x3e, 
    0x86, 0xa2, 0x86, 0x3f, 0xa2, 0xe7, 0xd7, 0x3e, 0xc0, 0xa9, 0x8d, 0xbc, 
    0x13, 0x3f, 0x88, 0x3e, 0x56, 0x27, 0xa8, 0x3d, 0x5c, 0x52, 0x55, 0x3f, 
    0x05, 0x30, 0x9f, 0x3e, 0xf3, 0xa6, 0x14, 0x3f, 0x29, 0xce, 0x85, 0x3e, 
    0x82, 0x55, 0x74, 0xbe, 0xe2, 0x93, 0x52, 0x3e, 0xb4, 0x10, 0x89, 0xbe, 
    0x97, 0xd4, 0x31, 0x3f, 0x7d, 0xd8, 0xcf, 0x3c, 0x40, 0x75, 0x00, 0x3d, 
    0x05, 0x1f, 0x05, 0xbf, 0x17, 0x68, 0x95, 0xbd, 0x41, 0x70, 0x33, 0x3e, 
    0x8a, 0xb5, 0x18, 0xbe, 0x5f, 0x0b, 0x9d, 0x3e, 0x98, 0xe9, 0x4b, 0xbb, 
    0x4f, 0x93, 0xb7, 0x3e, 0x77, 0x28, 0x94, 0xbe, 0x45, 0x35, 0x08, 0xbf, 
    0x1b, 0xa0, 0x26, 0x3f, 0x1f, 0x91, 0x74, 0xbe, 0x02, 0x87, 0x37, 0x3e, 
    0xaa, 0xf7, 0xd2, 0x3d, 0xa4, 0x92, 0x9f, 0xbe, 0x7d, 0x7d, 0x19, 0xbd, 
    0x4c, 0x95, 0x09, 0x3f, 0x4d, 0x9a, 0xac, 0x3e, 0x84, 0x4c, 0x3a, 0x3e, 
    0xa6, 0x67, 0x59, 0xbf, 0xec, 0xaa, 0x47, 0xbe, 0x0a, 0xe2, 0x84, 0xbe, 
    0x27, 0xcf, 0xe9, 0x3e, 0xc2, 0xc4, 0x60, 0xbe, 0x12, 0xd6, 0x1e, 0xbe, 
    0x30, 0xef, 0x51, 0xbe, 0x3a, 0xac, 0x0b, 0xbf, 0xa3, 0x6f, 0x1e, 0xbe, 
    0xb2, 0x3c, 0xb1, 0xbe, 0xca, 0x62, 0x99, 0xbe, 0xe1, 0x92, 0x64, 0xbe, 
    0xea, 0x84, 0x2b, 0xbf, 0xe6, 0x59, 0xf2, 0xbe, 0xea, 0x96, 0x11, 0x3f, 
    0x7a, 0x05, 0xbc, 0x3e, 0x6e, 0x9b, 0x25, 0x3e, 0x35, 0x93, 0xda, 0xbe, 
    0xa4, 0x81, 0x81, 0xbe, 0x08, 0xa1, 0xed, 0x3e, 0x1f, 0x3f, 0x38, 0xbe, 
    0x1e, 0x4d, 0x90, 0xbf, 0x92, 0xd1, 0xa2, 0xbf, 0xcd, 0xef, 0x3a, 0xbf, 
    0xad, 0x5c, 0x80, 0x3c, 0xf8, 0xb3, 0x2f, 0x3e, 0xc2, 0x25, 0x8b, 0xbf, 
    0x4c, 0x42, 0x57, 0xbe, 0xe7, 0xc8, 0x0c, 0xbc, 0x23, 0xe0, 0xad, 0x3e, 
    0xae, 0xd7, 0xc8, 0xbc, 0xc6, 0xe7, 0x87, 0xbf, 0xbb, 0xf2, 0x45, 0xbe, 
    0x7b, 0x4f, 0x45, 0xbf, 0x18, 0xd1, 0x6f, 0xbf, 0x92, 0x11, 0x5e, 0xbf, 
    0xbd, 0x67, 0x4b, 0x3d, 0xe6, 0x62, 0xdd, 0xbd, 0xf6, 0x91, 0xeb, 0xbe, 
    0xfc, 0x00, 0xe9, 0x3d, 0x99, 0xb2, 0x5f, 0x3d, 0x2b, 0x81, 0xaa, 0x3d, 
    0xad, 0x29, 0x98, 0x3e, 0x24, 0x1d, 0x4c, 0x3e, 0xcd, 0x0e, 0xd2, 0x3d, 
    0x1c, 0xe9, 0x0f, 0x3d, 0x4f, 0xb9, 0x48, 0x3e, 0xa0, 0x80, 0x89, 0xbf, 
    0x3a, 0xa9, 0x80, 0xbf, 0xbd, 0x65, 0x86, 0xbe, 0x2c, 0x75, 0xd3, 0xbd, 
    0x5f, 0x78, 0x56, 0xbf, 0x69, 0xd1, 0x94, 0xbf, 0xf0, 0x6d, 0xb3, 0xbf, 
    0x9e, 0xf2, 0x4a, 0xbf, 0xaa, 0xe5, 0x54, 0xbf, 0x15, 0xb9, 0x96, 0x3e, 
    0xf3, 0x1e, 0x3c, 0x3e, 0xac, 0x32, 0xb1, 0xbf, 0x98, 0xa7, 0xf5, 0x3e, 
    0x24, 0xb9, 0x8d, 0x3c, 0x96, 0x42, 0x89, 0x3e, 0xd1, 0xd2, 0xd2, 0x3e, 
    0x60, 0xd3, 0x21, 0xbf, 0x0c, 0x7a, 0xc4, 0x3d, 0x9b, 0x54, 0xe6, 0x3d, 
    0x37, 0x65, 0x3e, 0xbf, 0x9d, 0x70, 0x02, 0xbf, 0x9a, 0xd4, 0x08, 0x3e, 
    0xa6, 0x72, 0x6a, 0xbd, 0x8c, 0xc1, 0xb7, 0xbe, 0xab, 0x4e, 0xa2, 0xbd, 
    0x37, 0x5d, 0x8a, 0xbe, 0x40, 0xf3, 0x09, 0x3e, 0x0a, 0x82, 0xc6, 0xbd, 
    0x5e, 0x30, 0x04, 0x3e, 0xf9, 0x80, 0xec, 0x3e, 0x7d, 0x94, 0x88, 0x3e, 
    0xa1, 0x0f, 0x99, 0x3c, 0x2b, 0x1e, 0xbe, 0xbe, 0x20, 0x5a, 0xa8, 0xbe, 
    0x60, 0xdc, 0xe6, 0x3d, 0xd5, 0xba, 0x49, 0xbf, 0x18, 0xf3, 0x29, 0xbf, 
    0x7a, 0xac, 0x93, 0xbf, 0x6e, 0x2d, 0x9e, 0xbd, 0x79, 0x7d, 0x17, 0x3b, 
    0xbf, 0x2a, 0x12, 0xbf, 0xf0, 0xa8, 0xef, 0xbc, 0xfa, 0x16, 0xa3, 0x3d, 
    0xc0, 0xf2, 0x64, 0x3f, 0xbe, 0x1e, 0xe3, 0xbb, 0xcb, 0x0e, 0x65, 0xbd, 
    0x1c, 0x8a, 0x1c, 0x3e, 0xe5, 0xe2, 0x62, 0x3c, 0xe7, 0xef, 0x8e, 0x3e, 
    0xdc, 0xf7, 0x4c, 0x3f, 0xb2, 0x3f, 0x28, 0x3c, 0x34, 0xc5, 0xac, 0xbe, 
    0xf4, 0x47, 0xb3, 0xbe, 0x7b, 0x98, 0x3f, 0xbe, 0x0b, 0x22, 0xac, 0xbe, 
    0x55, 0x86, 0xde, 0xbe, 0x1a, 0x52, 0x3c, 0xbe, 0xa6, 0xbc, 0x84, 0xbe, 
    0xd7, 0x50, 0x00, 0xbd, 0xb9, 0xca, 0x85, 0x3f, 0x7c, 0x49, 0x45, 0xbd, 
    0xc7, 0xe6, 0x16, 0x3f, 0x55, 0x1b, 0x34, 0x3f, 0x72, 0xb7, 0x33, 0x3f, 
    0x45, 0x08, 0x81, 0xbe, 0xd9, 0x68, 0xb9, 0xbe, 0xf6, 0xfa, 0x45, 0x3d, 
    0xe9, 0x7e, 0x41, 0xbe, 0xc7, 0x86, 0x29, 0xbf, 0x5c, 0xa0, 0x54, 0xbe, 
    0x33, 0x9a, 0x35, 0x3f, 0x54, 0x50, 0x5e, 0x3e, 0xaa, 0x9e, 0x2b, 0xbe, 
    0x49, 0xdc, 0x3d, 0x3d, 0x2a, 0xcc, 0x1c, 0xbf, 0x15, 0xf5, 0x0a, 0x40, 
    0x9a, 0xc0, 0x47, 0x3d, 0xc5, 0x36, 0x7b, 0x3d, 0x36, 0x5b, 0x54, 0xbf, 
    0x77, 0x1e, 0xb9, 0x3c, 0x03, 0xd6, 0xae, 0x3f, 0x6e, 0xd2, 0x08, 0x3f, 
    0x89, 0x87, 0x8b, 0x3d, 0xa4, 0x36, 0x5e, 0xbe, 0x91, 0xb0, 0xb6, 0xbd, 
    0xd0, 0x4c, 0x65, 0xbd, 0xd8, 0x2d, 0x72, 0x3d, 0x6f, 0xd8, 0xe9, 0x3e, 
    0x13, 0x03, 0x56, 0x3e, 0x47, 0xf7, 0x0a, 0xbf, 0x5b, 0x16, 0x01, 0x3e, 
    0x4b, 0x8a, 0x1c, 0x3d, 0xd6, 0x27, 0xb7, 0xbd, 0xf0, 0xec, 0x14, 0x3e, 
    0x96, 0x89, 0x8f, 0x3d, 0x47, 0xcf, 0x5f, 0xbe, 0xac, 0x0e, 0x04, 0xbd, 
    0x6e, 0x19, 0x17, 0x3e, 0xb4, 0x8a, 0x51, 0x3d, 0x73, 0x20, 0x9c, 0x3e, 
    0xc5, 0x4e, 0xe2, 0x3c, 0x46, 0x3c, 0xb4, 0x3e, 0x17, 0xfc, 0x19, 0xbd, 
    0xc2, 0x5e, 0xf9, 0xbd, 0x47, 0x4e, 0x0c, 0x3f, 0x20, 0x94, 0x3a, 0x3d, 
    0x1b, 0xd2, 0x8c, 0x3e, 0x80, 0x18, 0x10, 0x3c, 0x4e, 0x40, 0x29, 0x3e, 
    0x3a, 0x20, 0x09, 0xbf, 0x0e, 0xc9, 0x44, 0x3f, 0x2d, 0x75, 0x27, 0x3e, 
    0xf5, 0xd9, 0xb1, 0x3c, 0xa5, 0xdd, 0xa3, 0xbe, 0x4b, 0x7b, 0x07, 0xbe, 
    0x54, 0x27, 0xa3, 0x3d, 0xa7, 0xfc, 0x30, 0x3f, 0xd0, 0xf9, 0x17, 0xbe, 
    0x34, 0xf1, 0x28, 0xbd, 0x7d, 0x1b, 0x85, 0x3e, 0x3a, 0xfa, 0xcf, 0x3c, 
    0x32, 0xfd, 0xfc, 0xbc, 0x48, 0x40, 0xa4, 0xbe, 0x1b, 0x8c, 0x21, 0xbf, 
    0x93, 0x41, 0xe7, 0xbd, 0xb0, 0xd0, 0x15, 0xbf, 0x76, 0xdc, 0xde, 0xbe, 
    0x0a, 0x0d, 0x39, 0x3f, 0xfc, 0x89, 0x2d, 0x3f, 0xb7, 0xf3, 0x80, 0x3d, 
    0xf3, 0x54, 0x45, 0x3e, 0x28, 0xa6, 0xc8, 0xbe, 0x24, 0x98, 0x86, 0x3f, 
    0xa0, 0x1c, 0x89, 0xbe, 0xd0, 0xd0, 0x43, 0xbf, 0x37, 0xcd, 0x1b, 0xbf, 
    0x64, 0x66, 0x47, 0x3f, 0xe7, 0x77, 0x94, 0xbe, 0x8e, 0x76, 0x08, 0x3f, 
    0xc6, 0x7b, 0x0a, 0xbf, 0xd1, 0x98, 0x3d, 0xbf, 0x80, 0x69, 0x9d, 0xbe, 
    0x3b, 0x7b, 0x50, 0x3f, 0xf9, 0x19, 0xbd, 0x3c, 0xd1, 0x0a, 0x1a, 0xbf, 
    0x73, 0xd4, 0xe9, 0xbd, 0x86, 0xe4, 0x11, 0xbe, 0x37, 0x46, 0x40, 0x3e, 
    0x5b, 0x37, 0x0a, 0x3f, 0x45, 0xcc, 0x8b, 0xbe, 0x72, 0x60, 0x07, 0xbf, 
    0x62, 0xed, 0xce, 0xbe, 0x3e, 0xa4, 0x23, 0xbf, 0x42, 0xd6, 0x99, 0x3c, 
    0x07, 0x9e, 0x0c, 0x3b, 0x0c, 0x97, 0x2b, 0x3c, 0xff, 0x81, 0x0e, 0xbf, 
    0xc3, 0x77, 0x97, 0x3d, 0x95, 0xd6, 0x8d, 0x3d, 0x4b, 0x3b, 0x5e, 0x3f, 
    0x37, 0xb7, 0xbd, 0x3e, 0x50, 0xa8, 0xb9, 0xbd, 0xd5, 0xbd, 0x46, 0xbf, 
    0xd5, 0x6c, 0x4b, 0xbe, 0xf0, 0x69, 0xad, 0x3e, 0xa9, 0x37, 0xc3, 0xbe, 
    0x12, 0xc8, 0xc4, 0x3e, 0x7d, 0x13, 0x12, 0x3e, 0x05, 0x22, 0xe6, 0xbc, 
    0x0b, 0x83, 0x0f, 0x3f, 0x4e, 0xc4, 0xc0, 0xbd, 0x64, 0xd7, 0x3e, 0xbf, 
    0x26, 0xb7, 0xde, 0xbb, 0x63, 0x38, 0xed, 0x3e, 0xba, 0x41, 0x83, 0xbe, 
    0x1d, 0x86, 0x79, 0x3e, 0x2d, 0x19, 0x5d, 0xbe, 0xfc, 0x7a, 0x38, 0xbe, 
    0xf2, 0x6b, 0x48, 0x3e, 0x9b, 0xa5, 0x85, 0x3e, 0x64, 0x59, 0x04, 0xbe, 
    0xfd, 0x44, 0x2c, 0x3f, 0xeb, 0x91, 0xe1, 0x3d, 0x8c, 0xe4, 0x3f, 0xbe, 
    0x8f, 0xae, 0x9a, 0x3d, 0x44, 0x1c, 0x16, 0xbe, 0xdf, 0xc0, 0xa3, 0x3e, 
    0xf7, 0xcb, 0x21, 0xbf, 0x71, 0xf8, 0xb9, 0x3e, 0xc7, 0x47, 0x30, 0xbe, 
    0x2f, 0xcc, 0x93, 0xbe, 0xfe, 0x1e, 0x2b, 0xbf, 0x8f, 0x14, 0x96, 0xbe, 
    0xec, 0x10, 0x21, 0xbe, 0xdd, 0x40, 0xe0, 0xbd, 0x37, 0xd2, 0x22, 0x3f, 
    0xb8, 0x58, 0xa6, 0xbe, 0x86, 0x49, 0xfa, 0x3d, 0xf3, 0x03, 0x1a, 0x3e, 
    0x9f, 0xd5, 0xdb, 0x3d, 0x7b, 0xe6, 0x73, 0x3f, 0xe6, 0xbe, 0xd0, 0x3e, 
    0x5d, 0x4e, 0x00, 0x3f, 0x1a, 0x7e, 0x58, 0xbf, 0x1b, 0x6d, 0x03, 0x3e, 
    0xe8, 0xb4, 0xb1, 0x3e, 0x20, 0x33, 0x80, 0x3f, 0x54, 0xac, 0xfe, 0x3d, 
    0x06, 0xf8, 0xbb, 0xbe, 0xd4, 0xbb, 0x92, 0xbc, 0xfd, 0xbd, 0x0f, 0x3c, 
    0xf7, 0xaa, 0xb4, 0x3e, 0xea, 0x8d, 0x6e, 0x3f, 0xc3, 0x11, 0xa1, 0x3e, 
    0xf6, 0xbe, 0x26, 0x3e, 0x0d, 0xf6, 0x94, 0xbe, 0x8e, 0xce, 0x20, 0x3e, 
    0x00, 0x91, 0x38, 0x3e, 0xa9, 0xf5, 0xe7, 0x3e, 0x38, 0xdf, 0x0e, 0xbe, 
    0xc3, 0x58, 0x15, 0x3f, 0xaf, 0xbc, 0x21, 0x3e, 0xd1, 0xba, 0xc3, 0x3d, 
    0xce, 0xb9, 0x3b, 0x3d, 0x9d, 0xe6, 0x8d, 0x3d, 0x43, 0x72, 0x3d, 0xbd, 
    0xd7, 0x55, 0x7a, 0x3e, 0xc0, 0xc2, 0xaf, 0x3e, 0xb7, 0xb3, 0x9d, 0x3f, 
    0xc6, 0xcd, 0x89, 0x3c, 0xf9, 0x84, 0x7d, 0xbd, 0x3d, 0x56, 0xc5, 0xbc, 
    0xb9, 0x66, 0xfd, 0xbe, 0x98, 0x53, 0x9b, 0xbd, 0x5c, 0x03, 0xbf, 0xbd, 
    0x69, 0xfc, 0x94, 0x3f, 0x62, 0x3f, 0x8f, 0xbe, 0x4b, 0xfd, 0xd1, 0xbb, 
    0xe8, 0x08, 0xa8, 0xbd, 0xf9, 0x46, 0x46, 0x3d, 0xb6, 0x0a, 0x0b, 0x3f, 
    0x36, 0x92, 0x8f, 0x3f, 0x05, 0x80, 0x00, 0xbf, 0x55, 0xe7, 0x7e, 0xbe, 
    0xd1, 0x34, 0x13, 0xbf, 0x06, 0xa5, 0xdb, 0xbe, 0xcc, 0xdd, 0x3b, 0xbe, 
    0xc0, 0xb0, 0xcb, 0xbd, 0xfc, 0xe4, 0xad, 0x3d, 0x86, 0xa8, 0x49, 0xbe, 
    0x4e, 0xa4, 0x74, 0xbd, 0x7f, 0x28, 0x84, 0x3f, 0xee, 0x9c, 0xcd, 0xbe, 
    0x42, 0x7c, 0x34, 0x3f, 0xd1, 0xec, 0x08, 0x3f, 0x55, 0xe6, 0x0a, 0x3f, 
    0xdb, 0x7d, 0x2e, 0xbf, 0x7e, 0x8d, 0xd9, 0xbe, 0x67, 0x39, 0x20, 0xbe, 
    0x38, 0x6b, 0x0b, 0xbe, 0x44, 0x6d, 0xaf, 0xbe, 0x0f, 0x6d, 0xb7, 0x3e, 
    0x6b, 0x7c, 0x44, 0x3f, 0xeb, 0x00, 0x97, 0x3e, 0x19, 0x81, 0x9c, 0xbc, 
    0x93, 0x5b, 0x30, 0x3e, 0xd5, 0x31, 0x6e, 0xbe, 0xdb, 0x8f, 0x33, 0x3f, 
    0xf2, 0xc6, 0xc5, 0x3d, 0x78, 0x66, 0xa0, 0x3e, 0xcf, 0x77, 0x98, 0xbe, 
    0x3c, 0x19, 0xb4, 0x3e, 0x18, 0x9c, 0xcc, 0x3e, 0x66, 0xea, 0xd0, 0x3e, 
    0x7e, 0xfb, 0xc0, 0x3d, 0x60, 0x15, 0x75, 0x3e, 0x71, 0x3d, 0x99, 0xbe, 
    0xcf, 0xf5, 0x32, 0x3f, 0x57, 0xd0, 0xa5, 0x3c, 0x81, 0x78, 0xf6, 0x3c, 
    0x9b, 0x88, 0xe6, 0x3e, 0x9b, 0x22, 0xa5, 0xbe, 0xdf, 0xbd, 0x81, 0x3e, 
    0x95, 0x9d, 0xe3, 0xbe, 0x84, 0xe3, 0x2a, 0x3f, 0x60, 0xb3, 0x14, 0x3c, 
    0xcb, 0x1b, 0x26, 0x3b, 0x6b, 0x9b, 0x18, 0xbf, 0xeb, 0xcc, 0xaf, 0xbe, 
    0x63, 0xf4, 0xc1, 0x3e, 0x28, 0x23, 0x92, 0xbd, 0xfb, 0x27, 0x1f, 0x3e, 
    0x68, 0xc4, 0x3f, 0xbe, 0xdf, 0x74, 0xa3, 0x3e, 0xf6, 0xfd, 0xff, 0xff, 
    0x04, 0x00, 0x00, 0x00, 0x00, 0x01, 0x00, 0x00, 0x9f, 0x09, 0xad, 0xbe, 
    0x28, 0xe0, 0x8c, 0xbf, 0x53, 0x3e, 0xd3, 0x3e, 0x70, 0xae, 0x58, 0xbf, 
    0xbe, 0xe8, 0xe0, 0x3e, 0x37, 0x59, 0x0e, 0xbf, 0x9f, 0x19, 0xfb, 0xbe, 
    0x46, 0x09, 0x37, 0x3f, 0x4c, 0x5d, 0x4b, 0xbf, 0x3b, 0x2f, 0x92, 0x3e, 
    0x34, 0xef, 0xab, 0xbe, 0x31, 0x7c, 0x67, 0xbe, 0x2d, 0x21, 0x0b, 0x3f, 
    0xb5, 0x44, 0x99, 0x3e, 0x33, 0x0e, 0x2d, 0xbe, 0xc7, 0x26, 0x4c, 0x3f, 
    0x3e, 0xa5, 0xab, 0x3f, 0xed, 0x18, 0x05, 0x3f, 0x19, 0x36, 0x42, 0xbf, 
    0xe7, 0x93, 0x92, 0xbf, 0x99, 0x27, 0x3a, 0x3e, 0xc6, 0x44, 0x9f, 0xbf, 
    0x59, 0x5c, 0xb0, 0xbf, 0x2e, 0x36, 0xa9, 0xbf, 0x3f, 0x8c, 0x15, 0x3f, 
    0xc6, 0x4c, 0x33, 0x3f, 0x35, 0xec, 0x80, 0xbf, 0x95, 0x1f, 0x08, 0xc0, 
    0x65, 0x59, 0x1a, 0xbf, 0x7b, 0xa0, 0x46, 0xbf, 0xcc, 0xae, 0x34, 0x3f, 
    0xde, 0x16, 0xa0, 0x3e, 0xa2, 0x5c, 0x8c, 0xbf, 0x79, 0x17, 0xa6, 0x3e, 
    0x3f, 0x66, 0xe4, 0x3d, 0x94, 0xda, 0xe8, 0x3f, 0x3b, 0x9c, 0x00, 0xbf, 
    0x74, 0xcb, 0x5b, 0xbf, 0xdb, 0xd5, 0xdc, 0x3f, 0x09, 0xe0, 0x16, 0x3f, 
    0x59, 0x49, 0x00, 0x3f, 0x84, 0xbc, 0xca, 0xbf, 0x05, 0xe7, 0x5d, 0xbf, 
    0xdb, 0x92, 0xb1, 0x3e, 0x79, 0x4f, 0x1c, 0xbe, 0x32, 0x75, 0x4c, 0x38, 
    0x6b, 0x52, 0x02, 0x3f, 0x54, 0x57, 0xe0, 0xbe, 0x57, 0x0b, 0xd2, 0xbe, 
    0xf7, 0x9b, 0xa6, 0xbf, 0x7c, 0x38, 0x0f, 0xbe, 0xdc, 0x85, 0x44, 0xbd, 
    0x92, 0xdc, 0xaf, 0xbe, 0x3f, 0x6b, 0x4f, 0x3f, 0xbf, 0x1b, 0x5d, 0xbf, 
    0x19, 0x59, 0x67, 0xbf, 0x1c, 0xf8, 0xe9, 0xbe, 0x98, 0xf4, 0x9a, 0xbf, 
    0x6a, 0x34, 0x6e, 0x3e, 0x73, 0xf0, 0x40, 0x3f, 0x87, 0x8a, 0x49, 0xbf, 
    0x16, 0x42, 0xd8, 0x3e, 0x3e, 0x95, 0x43, 0xbf, 0x6b, 0x99, 0xf4, 0xbe, 
    0x02, 0xff, 0xff, 0xff, 0x04, 0x00, 0x00, 0x00, 0x10, 0x00, 0x00, 0x00, 
    0x05, 0x90, 0xbe, 0xbe, 0x59, 0x45, 0x28, 0xbf, 0x7e, 0x00, 0x53, 0x3e, 
    0x0e, 0xf1, 0x4a, 0x3f, 0x1e, 0xff, 0xff, 0xff, 0x04, 0x00, 0x00, 0x00, 
    0x40, 0x00, 0x00, 0x00, 0x12, 0xd3, 0x6f, 0xbe, 0x8d, 0xdb, 0xee, 0x3e, 
    0x39, 0x51, 0xc7, 0xbd, 0xac, 0x32, 0x4e, 0x3f, 0x0a, 0xc8, 0xb7, 0xbd, 
    0xc3, 0x33, 0xc2, 0xbe, 0x70, 0x1e, 0x1e, 0x3f, 0x3f, 0xb2, 0x21, 0x3f, 
    0x96, 0x68, 0xee, 0x3e, 0xb1, 0x38, 0x44, 0xbd, 0x6d, 0xc0, 0x0d, 0xbf, 
    0x8a, 0x73, 0xc4, 0x3e, 0x69, 0x67, 0x17, 0x3e, 0xff, 0x56, 0x98, 0x3d, 
    0x19, 0x92, 0xfc, 0x3e, 0xca, 0xc7, 0xa0, 0x3c, 0x0c, 0xfa, 0xff, 0xff, 
    0x10, 0xfa, 0xff, 0xff, 0x0f, 0x00, 0x00, 0x00, 0x4d, 0x4c, 0x49, 0x52, 
    0x20, 0x43, 0x6f, 0x6e, 0x76, 0x65, 0x72, 0x74, 0x65, 0x64, 0x2e, 0x00, 
    0x01, 0x00, 0x00, 0x00, 0x14, 0x00, 0x00, 0x00, 0x00, 0x00, 0x0e, 0x00, 
    0x18, 0x00, 0x14, 0x00, 0x10, 0x00, 0x0c, 0x00, 0x08, 0x00, 0x04, 0x00, 
    0x0e, 0x00, 0x00, 0x00, 0x14, 0x00, 0x00, 0x00, 0x1c, 0x00, 0x00, 0x00, 
    0x34, 0x01, 0x00, 0x00, 0x38, 0x01, 0x00, 0x00, 0x3c, 0x01, 0x00, 0x00, 
    0x04, 0x00, 0x00, 0x00, 0x6d, 0x61, 0x69, 0x6e, 0x00, 0x00, 0x00, 0x00, 
    0x04, 0x00, 0x00, 0x00, 0xdc, 0x00, 0x00, 0x00, 0x94, 0x00, 0x00, 0x00, 
    0x50, 0x00, 0x00, 0x00, 0x14, 0x00, 0x00, 0x00, 0x00, 0x00, 0x0e, 0x00, 
    0x1a, 0x00, 0x14, 0x00, 0x10, 0x00, 0x0c, 0x00, 0x0b, 0x00, 0x04, 0x00, 
    0x0e, 0x00, 0x00, 0x00, 0x1c, 0x00, 0x00, 0x00, 0x00, 0x00, 0x00, 0x09, 
    0x1c, 0x00, 0x00, 0x00, 0x20, 0x00, 0x00, 0x00, 0x01, 0x00, 0x00, 0x00, 
    0x00, 0x00, 0x06, 0x00, 0x08, 0x00, 0x04, 0x00, 0x06, 0x00, 0x00, 0x00, 
    0x00, 0x00, 0x80, 0x3f, 0x01, 0x00, 0x00, 0x00, 0x0a, 0x00, 0x00, 0x00, 
    0x01, 0x00, 0x00, 0x00, 0x09, 0x00, 0x00, 0x00, 0xce, 0xff, 0xff, 0xff, 
    0x10, 0x00, 0x00, 0x00, 0x00, 0x00, 0x00, 0x08, 0x0c, 0x00, 0x00, 0x00, 
    0x10, 0x00, 0x00, 0x00, 0xd4, 0xfa, 0xff, 0xff, 0x01, 0x00, 0x00, 0x00, 
    0x09, 0x00, 0x00, 0x00, 0x03, 0x00, 0x00, 0x00, 0x08, 0x00, 0x00, 0x00, 
    0x03, 0x00, 0x00, 0x00, 0x02, 0x00, 0x00, 0x00, 0x00, 0x00, 0x0e, 0x00, 
    0x14, 0x00, 0x00, 0x00, 0x10, 0x00, 0x0c, 0x00, 0x0b, 0x00, 0x04, 0x00, 
    0x0e, 0x00, 0x00, 0x00, 0x10, 0x00, 0x00, 0x00, 0x00, 0x00, 0x00, 0x08, 
    0x10, 0x00, 0x00, 0x00, 0x14, 0x00, 0x00, 0x00, 0xba, 0xff, 0xff, 0xff, 
    0x00, 0x00, 0x00, 0x01, 0x01, 0x00, 0x00, 0x00, 0x08, 0x00, 0x00, 0x00, 
    0x03, 0x00, 0x00, 0x00, 0x07, 0x00, 0x00, 0x00, 0x04, 0x00, 0x00, 0x00, 
    0x01, 0x00, 0x00, 0x00, 0x00, 0x00, 0x0e, 0x00, 0x16, 0x00, 0x00, 0x00, 
    0x10, 0x00, 0x0c, 0x00, 0x0b, 0x00, 0x04, 0x00, 0x0e, 0x00, 0x00, 0x00, 
    0x18, 0x00, 0x00, 0x00, 0x00, 0x00, 0x00, 0x08, 0x18, 0x00, 0x00, 0x00, 
    0x1c, 0x00, 0x00, 0x00, 0x00, 0x00, 0x06, 0x00, 0x08, 0x00, 0x07, 0x00, 
    0x06, 0x00, 0x00, 0x00, 0x00, 0x00, 0x00, 0x01, 0x01, 0x00, 0x00, 0x00, 
    0x07, 0x00, 0x00, 0x00, 0x03, 0x00, 0x00, 0x00, 0x00, 0x00, 0x00, 0x00, 
    0x05, 0x00, 0x00, 0x00, 0x06, 0x00, 0x00, 0x00, 0x01, 0x00, 0x00, 0x00, 
    0x0a, 0x00, 0x00, 0x00, 0x01, 0x00, 0x00, 0x00, 0x00, 0x00, 0x00, 0x00, 
    0x0b, 0x00, 0x00, 0x00, 0x44, 0x04, 0x00, 0x00, 0xc4, 0x03, 0x00, 0x00, 
    0x60, 0x03, 0x00, 0x00, 0x10, 0x03, 0x00, 0x00, 0xc0, 0x02, 0x00, 0x00, 
    0x74, 0x02, 0x00, 0x00, 0x10, 0x02, 0x00, 0x00, 0x7c, 0x01, 0x00, 0x00, 
    0xe0, 0x00, 0x00, 0x00, 0x60, 0x00, 0x00, 0x00, 0x04, 0x00, 0x00, 0x00, 
    0xfe, 0xfb, 0xff, 0xff, 0x00, 0x00, 0x00, 0x01, 0x14, 0x00, 0x00, 0x00, 
    0x1c, 0x00, 0x00, 0x00, 0x1c, 0x00, 0x00, 0x00, 0x0b, 0x00, 0x00, 0x00, 
    0x34, 0x00, 0x00, 0x00, 0x02, 0x00, 0x00, 0x00, 0xff, 0xff, 0xff, 0xff, 
    0x04, 0x00, 0x00, 0x00, 0xe8, 0xfb, 0xff, 0xff, 0x1b, 0x00, 0x00, 0x00, 
    0x53, 0x74, 0x61, 0x74, 0x65, 0x66, 0x75, 0x6c, 0x50, 0x61, 0x72, 0x74, 
    0x69, 0x74, 0x69, 0x6f, 0x6e, 0x65, 0x64, 0x43, 0x61, 0x6c, 0x6c, 0x5f, 
    0x31, 0x3a, 0x30, 0x00, 0x02, 0x00, 0x00, 0x00, 0x01, 0x00, 0x00, 0x00, 
    0x04, 0x00, 0x00, 0x00, 0x56, 0xfc, 0xff, 0xff, 0x00, 0x00, 0x00, 0x01, 
    0x14, 0x00, 0x00, 0x00, 0x1c, 0x00, 0x00, 0x00, 0x1c, 0x00, 0x00, 0x00, 
    0x0a, 0x00, 0x00, 0x00, 0x58, 0x00, 0x00, 0x00, 0x02, 0x00, 0x00, 0x00, 
    0xff, 0xff, 0xff, 0xff, 0x04, 0x00, 0x00, 0x00, 0x40, 0xfc, 0xff, 0xff, 
    0x3c, 0x00, 0x00, 0x00, 0x73, 0x65, 0x71, 0x75, 0x65, 0x6e, 0x74, 0x69, 
    0x61, 0x6c, 0x5f, 0x31, 0x2f, 0x64, 0x65, 0x6e, 0x73, 0x65, 0x5f, 0x32, 
    0x5f, 0x31, 0x2f, 0x4d, 0x61, 0x74, 0x4d, 0x75, 0x6c, 0x3b, 0x73, 0x65, 
    0x71, 0x75, 0x65, 0x6e, 0x74, 0x69, 0x61, 0x6c, 0x5f, 0x31, 0x2f, 0x64, 
    0x65, 0x6e, 0x73, 0x65, 0x5f, 0x32, 0x5f, 0x31, 0x2f, 0x42, 0x69, 0x61, 
    0x73, 0x41, 0x64, 0x64, 0x00, 0x00, 0x00, 0x00, 0x02, 0x00, 0x00, 0x00, 
    0x01, 0x00, 0x00, 0x00, 0x04, 0x00, 0x00, 0x00, 0xd2, 0xfc, 0xff, 0xff, 
    0x00, 0x00, 0x00, 0x01, 0x14, 0x00, 0x00, 0x00, 0x1c, 0x00, 0x00, 0x00, 
    0x1c, 0x00, 0x00, 0x00, 0x09, 0x00, 0x00, 0x00, 0x74, 0x00, 0x00, 0x00, 
    0x02, 0x00, 0x00, 0x00, 0xff, 0xff, 0xff, 0xff, 0x10, 0x00, 0x00, 0x00, 
    0xbc, 0xfc, 0xff, 0xff, 0x58, 0x00, 0x00, 0x00, 0x73, 0x65, 0x71, 0x75, 
    0x65, 0x6e, 0x74, 0x69, 0x61, 0x6c, 0x5f, 0x31, 0x2f, 0x64, 0x65, 0x6e, 
    0x73, 0x65, 0x5f, 0x31, 0x5f, 0x32, 0x2f, 0x4d, 0x61, 0x74, 0x4d, 0x75, 
    0x6c, 0x3b, 0x73, 0x65, 0x71, 0x75, 0x65, 0x6e, 0x74, 0x69, 0x61, 0x6c, 
    0x5f, 0x31, 0x2f, 0x64, 0x65, 0x6e, 0x73, 0x65, 0x5f, 0x31, 0x5f, 0x32, 
    0x2f, 0x52, 0x65, 0x6c, 0x75, 0x3b, 0x73, 0x65, 0x71, 0x75, 0x65, 0x6e, 
    0x74, 0x69, 0x61, 0x6c, 0x5f, 0x31, 0x2f, 0x64, 0x65, 0x6e, 0x73, 0x65, 
    0x5f, 0x31, 0x5f, 0x32, 0x2f, 0x42, 0x69, 0x61, 0x73, 0x41, 0x64, 0x64, 
    0x00, 0x00, 0x00, 0x00, 0x02, 0x00, 0x00, 0x00, 0x01, 0x00, 0x00, 0x00, 
    0x10, 0x00, 0x00, 0x00, 0x6a, 0xfd, 0xff, 0xff, 0x00, 0x00, 0x00, 0x01, 
    0x14, 0x00, 0x00, 0x00, 0x1c, 0x00, 0x00, 0x00, 0x1c, 0x00, 0x00, 0x00, 
    0x08, 0x00, 0x00, 0x00, 0x6c, 0x00, 0x00, 0x00, 0x02, 0x00, 0x00, 0x00, 
    0xff, 0xff, 0xff, 0xff, 0x20, 0x00, 0x00, 0x00, 0x54, 0xfd, 0xff, 0xff, 
    0x52, 0x00, 0x00, 0x00, 0x73, 0x65, 0x71, 0x75, 0x65, 0x6e, 0x74, 0x69, 
    0x61, 0x6c, 0x5f, 0x31, 0x2f, 0x64, 0x65, 0x6e, 0x73, 0x65, 0x5f, 0x31, 
    0x2f, 0x4d, 0x61, 0x74, 0x4d, 0x75, 0x6c, 0x3b, 0x73, 0x65, 0x71, 0x75, 
    0x65, 0x6e, 0x74, 0x69, 0x61, 0x6c, 0x5f, 0x31, 0x2f, 0x64, 0x65, 0x6e, 
    0x73, 0x65, 0x5f, 0x31, 0x2f, 0x52, 0x65, 0x6c, 0x75, 0x3b, 0x73, 0x65, 
    0x71, 0x75, 0x65, 0x6e, 0x74, 0x69, 0x61, 0x6c, 0x5f, 0x31, 0x2f, 0x64, 
    0x65, 0x6e, 0x73, 0x65, 0x5f, 0x31, 0x2f, 0x42, 0x69, 0x61, 0x73, 0x41, 
    0x64, 0x64, 0x00, 0x00, 0x02, 0x00, 0x00, 0x00, 0x01, 0x00, 0x00, 0x00, 
    0x20, 0x00, 0x00, 0x00, 0x76, 0xfe, 0xff, 0xff, 0x00, 0x00, 0x00, 0x01, 
    0x10, 0x00, 0x00, 0x00, 0x10, 0x00, 0x00, 0x00, 0x07, 0x00, 0x00, 0x00, 
    0x44, 0x00, 0x00, 0x00, 0xd4, 0xfd, 0xff, 0xff, 0x36, 0x00, 0x00, 0x00, 
    0x73, 0x65, 0x71, 0x75, 0x65, 0x6e, 0x74, 0x69, 0x61, 0x6c, 0x5f, 0x31, 
    0x2f, 0x64, 0x65, 0x6e, 0x73, 0x65, 0x5f, 0x31, 0x2f, 0x52, 0x65, 0x6c, 
    0x75, 0x3b, 0x73, 0x65, 0x71, 0x75, 0x65, 0x6e, 0x74, 0x69, 0x61, 0x6c, 
    0x5f, 0x31, 0x2f, 0x64, 0x65, 0x6e, 0x73, 0x65, 0x5f, 0x31, 0x2f, 0x42, 
    0x69, 0x61, 0x73, 0x41, 0x64, 0x64, 0x00, 0x00, 0x01, 0x00, 0x00, 0x00, 
    0x20, 0x00, 0x00, 0x00, 0xd6, 0xfe, 0xff, 0xff, 0x00, 0x00, 0x00, 0x01, 
    0x10, 0x00, 0x00, 0x00, 0x10, 0x00, 0x00, 0x00, 0x06, 0x00, 0x00, 0x00, 
    0x28, 0x00, 0x00, 0x00, 0x34, 0xfe, 0xff, 0xff, 0x1b, 0x00, 0x00, 0x00, 
    0x73, 0x65, 0x71, 0x75, 0x65, 0x6e, 0x74, 0x69, 0x61, 0x6c, 0x5f, 0x31, 
    0x2f, 0x64, 0x65, 0x6e, 0x73, 0x65, 0x5f, 0x31, 0x2f, 0x4d, 0x61, 0x74, 
    0x4d, 0x75, 0x6c, 0x00, 0x02, 0x00, 0x00, 0x00, 0x20, 0x00, 0x00, 0x00, 
    0x08, 0x00, 0x00, 0x00, 0x1e, 0xff, 0xff, 0xff, 0x00, 0x00, 0x00, 0x01, 
    0x10, 0x00, 0x00, 0x00, 0x10, 0x00, 0x00, 0x00, 0x05, 0x00, 0x00, 0x00, 
    0x2c, 0x00, 0x00, 0x00, 0x7c, 0xfe, 0xff, 0xff, 0x1d, 0x00, 0x00, 0x00, 
    0x73, 0x65, 0x71, 0x75, 0x65, 0x6e, 0x74, 0x69, 0x61, 0x6c, 0x5f, 0x31, 
    0x2f, 0x64, 0x65, 0x6e, 0x73, 0x65, 0x5f, 0x31, 0x5f, 0x32, 0x2f, 0x4d, 
    0x61, 0x74, 0x4d, 0x75, 0x6c, 0x00, 0x00, 0x00, 0x02, 0x00, 0x00, 0x00, 
    0x10, 0x00, 0x00, 0x00, 0x20, 0x00, 0x00, 0x00, 0x6a, 0xff, 0xff, 0xff, 
    0x00, 0x00, 0x00, 0x01, 0x10, 0x00, 0x00, 0x00, 0x10, 0x00, 0x00, 0x00, 
    0x04, 0x00, 0x00, 0x00, 0x2c, 0x00, 0x00, 0x00, 0xc8, 0xfe, 0xff, 0xff, 
    0x1d, 0x00, 0x00, 0x00, 0x73, 0x65, 0x71, 0x75, 0x65, 0x6e, 0x74, 0x69, 
    0x61, 0x6c, 0x5f, 0x31, 0x2f, 0x64, 0x65, 0x6e, 0x73, 0x65, 0x5f, 0x32, 
    0x5f, 0x31, 0x2f, 0x4d, 0x61, 0x74, 0x4d, 0x75, 0x6c, 0x00, 0x00, 0x00, 
    0x02, 0x00, 0x00, 0x00, 0x04, 0x00, 0x00, 0x00, 0x10, 0x00, 0x00, 0x00, 
    0xb6, 0xff, 0xff, 0xff, 0x00, 0x00, 0x00, 0x01, 0x10, 0x00, 0x00, 0x00, 
    0x10, 0x00, 0x00, 0x00, 0x03, 0x00, 0x00, 0x00, 0x2c, 0x00, 0x00, 0x00, 
    0x14, 0xff, 0xff, 0xff, 0x1e, 0x00, 0x00, 0x00, 0x73, 0x65, 0x71, 0x75, 
    0x65, 0x6e, 0x74, 0x69, 0x61, 0x6c, 0x5f, 0x31, 0x2f, 0x64, 0x65, 0x6e, 
    0x73, 0x65, 0x5f, 0x32, 0x5f, 0x31, 0x2f, 0x42, 0x69, 0x61, 0x73, 0x41, 
    0x64, 0x64, 0x00, 0x00, 0x01, 0x00, 0x00, 0x00, 0x04, 0x00, 0x00, 0x00, 
    0x00, 0x00, 0x16, 0x00, 0x18, 0x00, 0x14, 0x00, 0x00, 0x00, 0x10, 0x00, 
    0x0c, 0x00, 0x08, 0x00, 0x00, 0x00, 0x00, 0x00, 0x00, 0x00, 0x07, 0x00, 
    0x16, 0x00, 0x00, 0x00, 0x00, 0x00, 0x00, 0x01, 0x10, 0x00, 0x00, 0x00, 
    0x10, 0x00, 0x00, 0x00, 0x02, 0x00, 0x00, 0x00, 0x48, 0x00, 0x00, 0x00, 
    0x74, 0xff, 0xff, 0xff, 0x3a, 0x00, 0x00, 0x00, 0x73, 0x65, 0x71, 0x75, 
    0x65, 0x6e, 0x74, 0x69, 0x61, 0x6c, 0x5f, 0x31, 0x2f, 0x64, 0x65, 0x6e, 
    0x73, 0x65, 0x5f, 0x31, 0x5f, 0x32, 0x2f, 0x52, 0x65, 0x6c, 0x75, 0x3b, 
    0x73, 0x65, 0x71, 0x75, 0x65, 0x6e, 0x74, 0x69, 0x61, 0x6c, 0x5f, 0x31, 
    0x2f, 0x64, 0x65, 0x6e, 0x73, 0x65, 0x5f, 0x31, 0x5f, 0x32, 0x2f, 0x42, 
    0x69, 0x61, 0x73, 0x41, 0x64, 0x64, 0x00, 0x00, 0x01, 0x00, 0x00, 0x00, 
    0x10, 0x00, 0x00, 0x00, 0x00, 0x00, 0x16, 0x00, 0x1c, 0x00, 0x18, 0x00, 
    0x00, 0x00, 0x14, 0x00, 0x10, 0x00, 0x0c, 0x00, 0x00, 0x00, 0x00, 0x00, 
    0x08, 0x00, 0x07, 0x00, 0x16, 0x00, 0x00, 0x00, 0x00, 0x00, 0x00, 0x01, 
    0x14, 0x00, 0x00, 0x00, 0x20, 0x00, 0x00, 0x00, 0x20, 0x00, 0x00, 0x00, 
    0x01, 0x00, 0x00, 0x00, 0x3c, 0x00, 0x00, 0x00, 0x02, 0x00, 0x00, 0x00, 
    0xff, 0xff, 0xff, 0xff, 0x08, 0x00, 0x00, 0x00, 0x04, 0x00, 0x04, 0x00, 
    0x04, 0x00, 0x00, 0x00, 0x1e, 0x00, 0x00, 0x00, 0x73, 0x65, 0x72, 0x76, 
    0x69, 0x6e, 0x67, 0x5f, 0x64, 0x65, 0x66, 0x61, 0x75, 0x6c, 0x74, 0x5f, 
    0x6b, 0x65, 0x72, 0x61, 0x73, 0x5f, 0x74, 0x65, 0x6e, 0x73, 0x6f, 0x72, 
    0x3a, 0x30, 0x00, 0x00, 0x02, 0x00, 0x00, 0x00, 0x01, 0x00, 0x00, 0x00, 
    0x08, 0x00, 0x00, 0x00, 0x02, 0x00, 0x00, 0x00, 0x20, 0x00, 0x00, 0x00, 
    0x04, 0x00, 0x00, 0x00, 0xf4, 0xff, 0xff, 0xff, 0x19, 0x00, 0x00, 0x00, 
    0x00, 0x00, 0x00, 0x19, 0x0c, 0x00, 0x0c, 0x00, 0x0b, 0x00, 0x00, 0x00, 
    0x00, 0x00, 0x04, 0x00, 0x0c, 0x00, 0x00, 0x00, 0x09, 0x00, 0x00, 0x00, 
    0x00, 0x00, 0x00, 0x09
};

const unsigned int ann_model_tflite_len = 5728;

#endif
