#ifndef CNN_MODEL_DATA_H
#define CNN_MODEL_DATA_H

const unsigned char cnn_model_tflite[] = {
    0x1c, 0x00, 0x00, 0x00, 0x54, 0x46, 0x4c, 0x33, 0x14, 0x00, 0x20, 0x00, 
    0x1c, 0x00, 0x18, 0x00, 0x14, 0x00, 0x10, 0x00, 0x0c, 0x00, 0x00, 0x00, 
    0x08, 0x00, 0x04, 0x00, 0x14, 0x00, 0x00, 0x00, 0x1c, 0x00, 0x00, 0x00, 
    0x8c, 0x00, 0x00, 0x00, 0xe4, 0x00, 0x00, 0x00, 0xb0, 0x0b, 0x00, 0x00, 
    0xc0, 0x0b, 0x00, 0x00, 0x74, 0x18, 0x00, 0x00, 0x03, 0x00, 0x00, 0x00, 
    0x01, 0x00, 0x00, 0x00, 0x04, 0x00, 0x00, 0x00, 0x5a, 0xf2, 0xff, 0xff, 
    0x0c, 0x00, 0x00, 0x00, 0x1c, 0x00, 0x00, 0x00, 0x3c, 0x00, 0x00, 0x00, 
    0x0f, 0x00, 0x00, 0x00, 0x73, 0x65, 0x72, 0x76, 0x69, 0x6e, 0x67, 0x5f, 
    0x64, 0x65, 0x66, 0x61, 0x75, 0x6c, 0x74, 0x00, 0x01, 0x00, 0x00, 0x00, 
    0x04, 0x00, 0x00, 0x00, 0x90, 0xff, 0xff, 0xff, 0x15, 0x00, 0x00, 0x00, 
    0x04, 0x00, 0x00, 0x00, 0x08, 0x00, 0x00, 0x00, 0x6f, 0x75, 0x74, 0x70, 
    0x75, 0x74, 0x5f, 0x30, 0x00, 0x00, 0x00, 0x00, 0x01, 0x00, 0x00, 0x00, 
    0x04, 0x00, 0x00, 0x00, 0x62, 0xf3, 0xff, 0xff, 0x04, 0x00, 0x00, 0x00, 
    0x0c, 0x00, 0x00, 0x00, 0x6b, 0x65, 0x72, 0x61, 0x73, 0x5f, 0x74, 0x65, 
    0x6e, 0x73, 0x6f, 0x72, 0x00, 0x00, 0x00, 0x00, 0x02, 0x00, 0x00, 0x00, 
    0x34, 0x00, 0x00, 0x00, 0x04, 0x00, 0x00, 0x00, 0xdc, 0xff, 0xff, 0xff, 
    0x18, 0x00, 0x00, 0x00, 0x04, 0x00, 0x00, 0x00, 0x13, 0x00, 0x00, 0x00, 
    0x43, 0x4f, 0x4e, 0x56, 0x45, 0x52, 0x53, 0x49, 0x4f, 0x4e, 0x5f, 0x4d, 
    0x45, 0x54, 0x41, 0x44, 0x41, 0x54, 0x41, 0x00, 0x08, 0x00, 0x0c, 0x00, 
    0x08, 0x00, 0x04, 0x00, 0x08, 0x00, 0x00, 0x00, 0x17, 0x00, 0x00, 0x00, 
    0x04, 0x00, 0x00, 0x00, 0x13, 0x00, 0x00, 0x00, 0x6d, 0x69, 0x6e, 0x5f, 
    0x72, 0x75, 0x6e, 0x74, 0x69, 0x6d, 0x65, 0x5f, 0x76, 0x65, 0x72, 0x73, 
    0x69, 0x6f, 0x6e, 0x00, 0x19, 0x00, 0x00, 0x00, 0xc8, 0x0a, 0x00, 0x00, 
    0xc0, 0x0a, 0x00, 0x00, 0x90, 0x0a, 0x00, 0x00, 0x60, 0x0a, 0x00, 0x00, 
    0x40, 0x0a, 0x00, 0x00, 0x24, 0x0a, 0x00, 0x00, 0xd4, 0x09, 0x00, 0x00, 
    0x44, 0x09, 0x00, 0x00, 0x34, 0x01, 0x00, 0x00, 0x20, 0x01, 0x00, 0x00, 
    0x0c, 0x01, 0x00, 0x00, 0xf8, 0x00, 0x00, 0x00, 0xe4, 0x00, 0x00, 0x00, 
    0xdc, 0x00, 0x00, 0x00, 0xd4, 0x00, 0x00, 0x00, 0xcc, 0x00, 0x00, 0x00, 
    0xc4, 0x00, 0x00, 0x00, 0xbc, 0x00, 0x00, 0x00, 0xb4, 0x00, 0x00, 0x00, 
    0xac, 0x00, 0x00, 0x00, 0xa4, 0x00, 0x00, 0x00, 0x9c, 0x00, 0x00, 0x00, 
    0x94, 0x00, 0x00, 0x00, 0x74, 0x00, 0x00, 0x00, 0x04, 0x00, 0x00, 0x00, 
    0x42, 0xf4, 0xff, 0xff, 0x04, 0x00, 0x00, 0x00, 0x60, 0x00, 0x00, 0x00, 
    0x10, 0x00, 0x00, 0x00, 0x00, 0x00, 0x00, 0x00, 0x08, 0x00, 0x0e, 0x00, 
    0x08, 0x00, 0x04, 0x00, 0x08, 0x00, 0x00, 0x00, 0x10, 0x00, 0x00, 0x00, 
    0x24, 0x00, 0x00, 0x00, 0x00, 0x00, 0x06, 0x00, 0x08, 0x00, 0x04, 0x00, 
    0x06, 0x00, 0x00, 0x00, 0x04, 0x00, 0x00, 0x00, 0x00, 0x00, 0x00, 0x00, 
    0x0c, 0x00, 0x18, 0x00, 0x14, 0x00, 0x10, 0x00, 0x0c, 0x00, 0x04, 0x00, 
    0x0c, 0x00, 0x00, 0x00, 0xd1, 0xd6, 0x65, 0x7f, 0x85, 0x6b, 0xc0, 0xe5, 
    0x02, 0x00, 0x00, 0x00, 0x02, 0x00, 0x00, 0x00, 0x04, 0x00, 0x00, 0x00, 
    0x06, 0x00, 0x00, 0x00, 0x32, 0x2e, 0x32, 0x31, 0x2e, 0x30, 0x00, 0x00, 
    0xae, 0xf4, 0xff, 0xff, 0x04, 0x00, 0x00, 0x00, 0x10, 0x00, 0x00, 0x00, 
    0x31, 0x2e, 0x31, 0x31, 0x2e, 0x30, 0x00, 0x00, 0x00, 0x00, 0x00, 0x00, 
    0x00, 0x00, 0x00, 0x00, 0x90, 0xe9, 0xff, 0xff, 0x94, 0xe9, 0xff, 0xff, 
    0x98, 0xe9, 0xff, 0xff, 0x9c, 0xe9, 0xff, 0xff, 0xa0, 0xe9, 0xff, 0xff, 
    0xa4, 0xe9, 0xff, 0xff, 0xa8, 0xe9, 0xff, 0xff, 0xac, 0xe9, 0xff, 0xff, 
    0xb0, 0xe9, 0xff, 0xff, 0xb4, 0xe9, 0xff, 0xff, 0xf2, 0xf4, 0xff, 0xff, 
    0x04, 0x00, 0x00, 0x00, 0x04, 0x00, 0x00, 0x00, 0xfd, 0xff, 0xff, 0xff, 
    0x02, 0xf5, 0xff, 0xff, 0x04, 0x00, 0x00, 0x00, 0x04, 0x00, 0x00, 0x00, 
    0x40, 0x00, 0x00, 0x00, 0x12, 0xf5, 0xff, 0xff, 0x04, 0x00, 0x00, 0x00, 
    0x04, 0x00, 0x00, 0x00, 0x00, 0x00, 0x00, 0x00, 0x22, 0xf5, 0xff, 0xff, 
    0x04, 0x00, 0x00, 0x00, 0x04, 0x00, 0x00, 0x00, 0x01, 0x00, 0x00, 0x00, 
    0x32, 0xf5, 0xff, 0xff, 0x04, 0x00, 0x00, 0x00, 0x00, 0x08, 0x00, 0x00, 
    0xdf, 0x9e, 0x09, 0xbf, 0x6f, 0x8b, 0x34, 0x3f, 0xce, 0xe8, 0x15, 0x3e, 
    0x9a, 0x83, 0xf3, 0xbe, 0x03, 0x64, 0x15, 0xbe, 0x0d, 0x86, 0x52, 0xbe, 
    0x71, 0x8b, 0xe5, 0xbe, 0xa2, 0x34, 0xa2, 0xbd, 0x6e, 0xcb, 0x13, 0xbf, 
    0x31, 0x30, 0x46, 0x3d, 0x4f, 0xed, 0x9f, 0xbe, 0xba, 0xd7, 0x99, 0x3d, 
    0x8b, 0x93, 0xb1, 0xbe, 0xf9, 0xcd, 0xbf, 0x3d, 0x53, 0x04, 0x80, 0xbf, 
    0x50, 0x66, 0x4a, 0x3e, 0xe0, 0x82, 0x17, 0xbf, 0x88, 0x04, 0x4c, 0x3f, 
    0x0c, 0xf6, 0x08, 0x3f, 0x62, 0x4e, 0xac, 0xbd, 0x8f, 0x81, 0x93, 0x3c, 
    0x11, 0x8e, 0xa7, 0x3e, 0xa2, 0xf4, 0x4a, 0xbe, 0x5a, 0xcb, 0xc9, 0x3b, 
    0x77, 0x94, 0x97, 0x3f, 0xcc, 0x1d, 0x15, 0x3f, 0x77, 0x61, 0x3b, 0x3f, 
    0xa7, 0x77, 0x9a, 0xbe, 0xd4, 0x36, 0xd5, 0xbd, 0xda, 0x96, 0x7d, 0xbe, 
    0x23, 0xae, 0x58, 0x3e, 0x43, 0x1e, 0x27, 0x3f, 0x80, 0x2d, 0x53, 0x3f, 
    0x17, 0xd6, 0x06, 0x3f, 0x98, 0x42, 0xeb, 0x3e, 0xcc, 0x76, 0x59, 0xbe, 
    0x42, 0x9a, 0xcb, 0xbd, 0x17, 0xbf, 0x33, 0xbd, 0xb8, 0x97, 0x6d, 0xbf, 
    0x2d, 0xd5, 0x63, 0x3f, 0xdb, 0x84, 0x9f, 0x3f, 0xea, 0xe2, 0x20, 0x3f, 
    0x01, 0xab, 0x47, 0x3f, 0xa7, 0x64, 0x9a, 0x3d, 0x93, 0x84, 0x0b, 0x3e, 
    0x6f, 0x46, 0x08, 0xbd, 0xc1, 0xa9, 0x25, 0x3e, 0xb6, 0xce, 0x10, 0x3f, 
    0xaf, 0x64, 0x67, 0x3f, 0xea, 0xba, 0xfb, 0x3e, 0xc8, 0xd8, 0x12, 0x3f, 
    0x6c, 0x3b, 0xbd, 0x3d, 0x1b, 0x5e, 0x93, 0x3e, 0xaf, 0x5f, 0x82, 0xbe, 
    0xbd, 0xae, 0x47, 0x3d, 0x16, 0x88, 0x5f, 0x3f, 0x3a, 0x88, 0xf9, 0x3e, 
    0x6c, 0x59, 0xdf, 0x3e, 0x8b, 0xd7, 0xf9, 0x3e, 0x22, 0x1f, 0x6b, 0xbc, 
    0x93, 0xe1, 0x60, 0xbe, 0xc7, 0xe0, 0x3a, 0x3e, 0x77, 0x44, 0x9a, 0xbe, 
    0x38, 0xdf, 0x7b, 0x3f, 0xbc, 0x15, 0xe0, 0x3e, 0xaa, 0xc9, 0x1a, 0xbe, 
    0xeb, 0x8d, 0x06, 0x3f, 0x83, 0x34, 0xb6, 0x3e, 0xd5, 0xfa, 0x95, 0x3f, 
    0x85, 0x8b, 0x39, 0x3f, 0xda, 0x70, 0x72, 0x3f, 0x4e, 0x37, 0x59, 0x3f, 
    0x51, 0x7b, 0x11, 0x3e, 0x04, 0xc8, 0x42, 0x3e, 0xa2, 0x2c, 0x59, 0xbd, 
    0x2b, 0x8e, 0x03, 0xbe, 0x91, 0xbe, 0x2a, 0x3d, 0xba, 0xb0, 0xfa, 0x3a, 
    0xa4, 0x6a, 0x8e, 0xbe, 0x94, 0xf9, 0x10, 0xbe, 0x08, 0x01, 0x53, 0x3e, 
    0x44, 0xea, 0x8d, 0xbd, 0xa4, 0xc0, 0xab, 0xbe, 0xd6, 0xf9, 0x28, 0x3e, 
    0x27, 0x6d, 0xae, 0x3d, 0xce, 0x82, 0x48, 0xbe, 0x4c, 0x51, 0x24, 0x3f, 
    0x6d, 0xb8, 0xe4, 0xbd, 0xb3, 0x0b, 0x23, 0xbf, 0xc5, 0xce, 0x64, 0xbe, 
    0x34, 0x26, 0x11, 0xbe, 0xab, 0x5e, 0xcd, 0x3d, 0x3f, 0xd4, 0x14, 0xbe, 
    0xf0, 0x45, 0x18, 0xbd, 0xf7, 0x5d, 0xb5, 0xbd, 0xac, 0x48, 0x4e, 0xbc, 
    0xc1, 0xbc, 0x2b, 0xbf, 0xc7, 0xe4, 0x9b, 0xbd, 0x0e, 0x76, 0x03, 0xbf, 
    0x7a, 0xc1, 0xde, 0xbd, 0xff, 0xd1, 0x1c, 0x3f, 0x21, 0xce, 0x09, 0xbe, 
    0x42, 0x88, 0x8f, 0x3f, 0xf1, 0x5c, 0xd9, 0xbe, 0x80, 0x43, 0xae, 0xbf, 
    0x84, 0xba, 0xac, 0xbe, 0xa1, 0xff, 0xac, 0xbd, 0x98, 0x82, 0xf1, 0x3d, 
    0x1b, 0x78, 0xb2, 0xbd, 0xaa, 0x5a, 0x3b, 0x3e, 0xc8, 0xe4, 0x03, 0x3e, 
    0x22, 0xfd, 0x46, 0xbd, 0x15, 0x83, 0xaa, 0xbf, 0x6d, 0xb8, 0x67, 0xbe, 
    0x72, 0xf3, 0xbd, 0xbe, 0x91, 0x9a, 0x1d, 0xbd, 0x74, 0xc8, 0x4f, 0x3d, 
    0x09, 0xd5, 0x63, 0x3d, 0xd4, 0xf7, 0xf1, 0xbe, 0x60, 0xbe, 0xa4, 0xbe, 
    0xed, 0x6e, 0x47, 0xbf, 0x1d, 0x6b, 0xce, 0xbe, 0x1e, 0xa0, 0x8a, 0xbd, 
    0x1f, 0x8b, 0xa3, 0x3d, 0x39, 0xb9, 0x2f, 0xbe, 0x7e, 0x03, 0x5f, 0x3e, 
    0x16, 0x1e, 0x03, 0x3e, 0x92, 0x23, 0x92, 0xbe, 0xaa, 0x38, 0x81, 0x3e, 
    0x0f, 0x82, 0xb7, 0xbc, 0xfb, 0x35, 0x3c, 0xbe, 0xd0, 0xb1, 0xf2, 0x3d, 
    0x07, 0x6a, 0xea, 0xbd, 0xac, 0xf8, 0x2f, 0xbe, 0x3d, 0xe5, 0x55, 0xbe, 
    0x4d, 0xea, 0x36, 0xbe, 0x89, 0x09, 0x6b, 0x3d, 0x0f, 0xc5, 0x78, 0xbe, 
    0x45, 0x08, 0x17, 0x3e, 0xcd, 0xde, 0x86, 0xbe, 0x6d, 0x67, 0x88, 0xbc, 
    0x52, 0x3a, 0xe0, 0x3d, 0x73, 0x6e, 0xd3, 0xbb, 0x1a, 0x1b, 0x83, 0xbe, 
    0x19, 0x12, 0x42, 0x3e, 0xc4, 0x4b, 0x70, 0x3d, 0xd3, 0xab, 0x92, 0xbe, 
    0xf8, 0x28, 0x8f, 0xbd, 0x3e, 0xd4, 0x8f, 0xbe, 0x31, 0x65, 0x8e, 0xbe, 
    0x7f, 0x5c, 0xea, 0xbd, 0x49, 0x02, 0x93, 0xbd, 0x5d, 0xc2, 0x01, 0x3c, 
    0xff, 0x58, 0x6f, 0xbe, 0xc0, 0xc1, 0x49, 0xbd, 0x31, 0xdd, 0xb2, 0xbc, 
    0xe0, 0x07, 0x4a, 0xbe, 0x70, 0x7a, 0x86, 0x3d, 0x3f, 0xe0, 0x40, 0x3e, 
    0xeb, 0x65, 0x87, 0xbe, 0x88, 0x93, 0x6a, 0xbe, 0xcb, 0x55, 0x17, 0x3e, 
    0x9c, 0x61, 0x82, 0xbe, 0xc7, 0x8c, 0x6d, 0xbe, 0x0b, 0x24, 0xd5, 0x3c, 
    0xcd, 0xa7, 0x8e, 0xbd, 0x10, 0x97, 0x0e, 0x3e, 0x02, 0xdd, 0x4a, 0x3e, 
    0xee, 0x96, 0x22, 0xbe, 0x7c, 0xe1, 0x82, 0xbc, 0xec, 0xaa, 0x72, 0xbd, 
    0x73, 0xc8, 0x92, 0xbe, 0xf3, 0x98, 0x92, 0xbe, 0x10, 0xa4, 0xfb, 0x3d, 
    0xc9, 0x38, 0x4b, 0xbe, 0x09, 0xec, 0x91, 0x3d, 0xf6, 0x5d, 0x86, 0xbe, 
    0x96, 0xfd, 0x29, 0x3e, 0x3e, 0x92, 0xb8, 0xbd, 0x41, 0x71, 0x5f, 0xbe, 
    0x4c, 0xc5, 0xf9, 0x3c, 0x0d, 0x0d, 0x5b, 0xbd, 0xaa, 0x43, 0xd1, 0x3c, 
    0x6f, 0x62, 0x88, 0xbe, 0x1f, 0xd0, 0x8e, 0xbe, 0x59, 0xc4, 0x8b, 0xbe, 
    0x37, 0x85, 0x86, 0xbe, 0x72, 0xd3, 0x58, 0x3e, 0xd3, 0x9a, 0xb4, 0xbd, 
    0xb3, 0x50, 0xf8, 0x3d, 0x3b, 0x06, 0xd6, 0x3d, 0x82, 0xf4, 0x46, 0xbd, 
    0xa0, 0xce, 0xbe, 0xbe, 0x9c, 0x12, 0x95, 0x3e, 0x74, 0x35, 0xf1, 0x3b, 
    0xb4, 0x7e, 0xcd, 0xbe, 0x9f, 0xe4, 0x37, 0xbe, 0x32, 0xd6, 0x61, 0xbe, 
    0xbc, 0x81, 0x1e, 0xbf, 0x75, 0x62, 0xd4, 0xbe, 0xf8, 0x5c, 0x4e, 0xbf, 
    0xa0, 0x6c, 0x81, 0xbf, 0xf3, 0x38, 0x78, 0xbf, 0xb7, 0x3b, 0xc1, 0x3a, 
    0x53, 0xc9, 0x91, 0xbf, 0xcc, 0x65, 0xd3, 0x3d, 0xec, 0xad, 0xda, 0xbe, 
    0x65, 0x44, 0xe1, 0xbe, 0xba, 0x47, 0x69, 0xbf, 0x01, 0xca, 0x14, 0x3f, 
    0xe6, 0xf0, 0x15, 0xbf, 0x75, 0x62, 0xc5, 0x3e, 0xd3, 0x5f, 0x5c, 0x3f, 
    0x02, 0x61, 0xeb, 0x3e, 0x06, 0x27, 0x8c, 0x3f, 0x3c, 0xbb, 0x2e, 0xbf, 
    0x56, 0x63, 0x74, 0x3f, 0x47, 0xd9, 0xad, 0x3c, 0xa4, 0xad, 0xae, 0x3e, 
    0x6c, 0x53, 0x23, 0xbe, 0x88, 0x08, 0xa5, 0x3c, 0xae, 0x1a, 0x03, 0x3a, 
    0x32, 0x78, 0x94, 0x3d, 0x88, 0x51, 0xea, 0x3e, 0xb8, 0xff, 0x4e, 0x3f, 
    0x56, 0x18, 0xce, 0x3e, 0x77, 0x08, 0xd0, 0x3e, 0x24, 0x99, 0xc4, 0xbe, 
    0xf0, 0x7d, 0x09, 0xbd, 0xa7, 0x0a, 0x33, 0xbe, 0x41, 0x82, 0xa9, 0xbe, 
    0xf7, 0x13, 0xf2, 0x3d, 0x25, 0xe9, 0x16, 0x3f, 0xe5, 0x97, 0x26, 0x3f, 
    0xc6, 0x1b, 0x01, 0x3f, 0x8d, 0x06, 0x31, 0xbe, 0x1a, 0x11, 0x3d, 0x3f, 
    0x48, 0xc7, 0x97, 0xbe, 0xc6, 0x91, 0x92, 0x3f, 0xae, 0x48, 0xb7, 0x3e, 
    0x43, 0xbc, 0x1d, 0x3f, 0x5c, 0xd9, 0x63, 0xbd, 0x68, 0x26, 0xc6, 0x3e, 
    0x73, 0xda, 0xa3, 0xbe, 0x7b, 0x72, 0xea, 0x3c, 0x6e, 0xa4, 0x63, 0xbd, 
    0x23, 0xc3, 0x75, 0xbe, 0xd1, 0x87, 0x40, 0x3f, 0xab, 0x90, 0x6b, 0x3f, 
    0x52, 0x82, 0x2c, 0xbe, 0xeb, 0x5f, 0x9e, 0xbc, 0xbf, 0xee, 0xaa, 0xbe, 
    0x32, 0x04, 0xad, 0xbb, 0x05, 0x1d, 0xc8, 0xbd, 0x35, 0xd1, 0xd6, 0xbd, 
    0xfd, 0xcd, 0xb8, 0x3e, 0xe8, 0x66, 0x8a, 0x3e, 0x4f, 0xb5, 0x0e, 0x3e, 
    0xd8, 0x2b, 0xe6, 0x3e, 0xdb, 0x86, 0x77, 0x3b, 0x29, 0x8b, 0x83, 0x3f, 
    0x7d, 0xc0, 0xa9, 0x3e, 0x8c, 0xf1, 0x1f, 0x3f, 0x19, 0xe0, 0x29, 0x3f, 
    0xdf, 0x42, 0xcc, 0xbe, 0xfb, 0x6a, 0xaa, 0xbe, 0x00, 0x3d, 0xfd, 0xbd, 
    0x4b, 0x8b, 0x03, 0xbc, 0xcb, 0xa0, 0xc3, 0xbe, 0x1c, 0x26, 0xf3, 0x3d, 
    0x0e, 0x1c, 0xbc, 0x3c, 0x17, 0x79, 0xb4, 0xbe, 0x85, 0x88, 0x16, 0xbe, 
    0xdb, 0x77, 0x95, 0x3c, 0x44, 0xa2, 0x42, 0xbf, 0x9c, 0x69, 0x05, 0x3e, 
    0x7c, 0xec, 0x83, 0x3f, 0x28, 0x79, 0x28, 0x3d, 0xfd, 0x80, 0x86, 0x3f, 
    0xfb, 0x60, 0xe8, 0xbe, 0x8b, 0xb7, 0xea, 0xbe, 0xf4, 0x0b, 0x8a, 0x3e, 
    0xad, 0xac, 0x46, 0x3e, 0xec, 0xac, 0x23, 0x3e, 0x7f, 0xf9, 0x67, 0xbd, 
    0x05, 0x28, 0x9a, 0x3d, 0x2e, 0xea, 0xf6, 0xbd, 0xf1, 0xb6, 0x0c, 0x3f, 
    0x4a, 0x62, 0xaf, 0x3e, 0xe0, 0x9c, 0x27, 0x3e, 0x30, 0x2f, 0xab, 0xbe, 
    0x9b, 0xbf, 0x3a, 0x3e, 0xbc, 0x10, 0xa3, 0x3e, 0xfb, 0x7f, 0x5c, 0xbd, 
    0xd2, 0x02, 0xe1, 0x3e, 0x4f, 0xf7, 0x8f, 0x3c, 0xea, 0xf5, 0x87, 0xbf, 
    0x62, 0xd9, 0xe8, 0x3d, 0x4f, 0x68, 0x35, 0x3d, 0x31, 0xd4, 0x08, 0x3e, 
    0x63, 0x55, 0x09, 0x3f, 0x3d, 0x8b, 0x3c, 0x3e, 0xd5, 0x04, 0x4e, 0x3e, 
    0x5a, 0x6b, 0x24, 0xbe, 0x68, 0x07, 0x9c, 0xbf, 0x71, 0xf4, 0x1b, 0xbd, 
    0xbc, 0xd7, 0x28, 0xbc, 0x8f, 0x75, 0x10, 0x3e, 0x5a, 0xae, 0x8c, 0xbe, 
    0xd1, 0x9e, 0x2c, 0xbe, 0x8c, 0x51, 0x3a, 0xbd, 0x77, 0xc0, 0x2d, 0x3e, 
    0xb8, 0x86, 0x24, 0xbe, 0x1f, 0xcd, 0x76, 0x3e, 0x89, 0x8d, 0x03, 0xbd, 
    0x72, 0xf2, 0x06, 0xbd, 0x6b, 0x0c, 0x09, 0xbd, 0xf5, 0xcf, 0x29, 0xbe, 
    0xb5, 0xc8, 0x53, 0x3e, 0x79, 0x42, 0x9a, 0xbd, 0x65, 0xb6, 0xe1, 0xbe, 
    0xb9, 0x2e, 0x24, 0x3e, 0x2b, 0xeb, 0x4a, 0x3e, 0x59, 0x6d, 0x3c, 0x3b, 
    0x6f, 0x68, 0x98, 0xbe, 0x2b, 0xde, 0xde, 0xbe, 0x72, 0x1e, 0x11, 0xbf, 
    0x61, 0x28, 0xc9, 0xbe, 0x4a, 0x5d, 0x82, 0x3e, 0xb1, 0x4c, 0x8b, 0x3e, 
    0xeb, 0x62, 0xb4, 0x3e, 0x15, 0x45, 0xbd, 0x3d, 0x8e, 0x66, 0xb4, 0x3e, 
    0x14, 0x49, 0x51, 0xbe, 0x26, 0x4d, 0x09, 0x3e, 0xa7, 0x39, 0xcc, 0x3e, 
    0x1b, 0x7d, 0x10, 0x3f, 0x2a, 0x48, 0x03, 0x3e, 0x5a, 0x42, 0x23, 0x3f, 
    0x75, 0x91, 0xcb, 0xbe, 0x01, 0x2e, 0xed, 0xbe, 0x1e, 0x81, 0xd6, 0xbd, 
    0x20, 0x36, 0x0d, 0xbf, 0xd6, 0x20, 0x57, 0x3e, 0xb5, 0xd8, 0x0a, 0x3f, 
    0xff, 0x24, 0x0a, 0x3f, 0x3c, 0x78, 0x99, 0x3e, 0xfa, 0xa0, 0xc5, 0xbe, 
    0x62, 0x1c, 0x1e, 0x3e, 0x52, 0x09, 0x19, 0x3e, 0x48, 0xf6, 0xf7, 0x3d, 
    0xdc, 0xb5, 0xbb, 0x3e, 0x4b, 0x31, 0x93, 0x3e, 0x3e, 0x48, 0x4c, 0x3e, 
    0x3d, 0x31, 0xd1, 0x3e, 0x00, 0x4d, 0xba, 0xbe, 0xab, 0xf8, 0xc3, 0x3c, 
    0x2e, 0x7d, 0x2b, 0xbe, 0xa6, 0x8a, 0x94, 0xbe, 0xcb, 0xe8, 0xbb, 0x3e, 
    0x77, 0xd2, 0xb2, 0x3f, 0xeb, 0x54, 0x53, 0x3e, 0x84, 0x96, 0x26, 0x3f, 
    0x00, 0x3f, 0x67, 0x3e, 0x31, 0xe6, 0x43, 0xbd, 0xe6, 0x9d, 0x78, 0x3e, 
    0xcc, 0xf8, 0x57, 0x3e, 0x38, 0x0a, 0x08, 0x3f, 0x7c, 0x3b, 0x53, 0x3f, 
    0x58, 0xd8, 0xe5, 0x3e, 0x96, 0x76, 0x22, 0x3f, 0x4f, 0xf9, 0x1f, 0x3e, 
    0x7f, 0xd6, 0x83, 0x3e, 0x36, 0x1f, 0x29, 0xbe, 0x77, 0x6f, 0x08, 0x3e, 
    0xf5, 0x23, 0xb6, 0x3e, 0x55, 0xce, 0xef, 0x3e, 0x25, 0x71, 0xb3, 0xbd, 
    0x2a, 0x17, 0x6e, 0xbc, 0x52, 0xff, 0xe5, 0xba, 0x41, 0x08, 0xbe, 0x3d, 
    0x38, 0x1a, 0x53, 0x3d, 0x78, 0x68, 0x03, 0x3e, 0x7c, 0xdc, 0xcf, 0x3d, 
    0x90, 0xf9, 0xa0, 0xbd, 0xca, 0x93, 0x21, 0xbd, 0xf7, 0x28, 0x0d, 0xbe, 
    0xb8, 0x2a, 0x50, 0x3e, 0xe9, 0x54, 0xcc, 0xbe, 0x72, 0xee, 0xb7, 0xbe, 
    0xee, 0xa7, 0x55, 0xbd, 0xd8, 0xb0, 0x9c, 0xbe, 0xed, 0x90, 0x80, 0x3f, 
    0xc2, 0x17, 0x74, 0x3f, 0xf9, 0x00, 0x03, 0x3f, 0x8d, 0xb2, 0x9e, 0xbe, 
    0x1b, 0xcb, 0x8f, 0x3f, 0x97, 0x48, 0x8e, 0xbf, 0xa0, 0xfb, 0x75, 0x3f, 
    0x7a, 0x81, 0x02, 0x3f, 0x95, 0xa3, 0x7f, 0x3f, 0xd9, 0xc4, 0x29, 0xbe, 
    0x5d, 0xc6, 0x3a, 0x3f, 0x5b, 0x1a, 0x48, 0xbf, 0xbd, 0x07, 0xa0, 0xc0, 
    0xa9, 0xb0, 0x18, 0xc0, 0x36, 0xb7, 0x6e, 0xbe, 0xde, 0x4f, 0x5b, 0x3f, 
    0x23, 0x0d, 0x84, 0xbe, 0x10, 0x8e, 0x87, 0xbe, 0x85, 0x87, 0x7b, 0xbd, 
    0x42, 0x4e, 0x09, 0x3d, 0xf9, 0x59, 0xa8, 0xbe, 0x48, 0xe1, 0x0a, 0x3e, 
    0x83, 0x6e, 0xe9, 0xbe, 0x23, 0x37, 0xc5, 0xbe, 0x96, 0xb6, 0xd1, 0x3e, 
    0xa7, 0x47, 0x5e, 0x3e, 0xcb, 0xc1, 0xff, 0xbd, 0x90, 0x8d, 0x43, 0xbe, 
    0x81, 0x4d, 0xcc, 0x3d, 0xb7, 0x32, 0x80, 0x3d, 0x04, 0x16, 0x3d, 0x3e, 
    0x3c, 0xf0, 0x60, 0xbb, 0x78, 0x1c, 0x33, 0x3f, 0xe2, 0xb1, 0xfb, 0x3d, 
    0xf2, 0x1e, 0xf4, 0xbd, 0x39, 0xd3, 0x31, 0xbe, 0x42, 0x0f, 0xca, 0x3d, 
    0xec, 0xbf, 0x27, 0xbf, 0x94, 0x52, 0x4d, 0x3f, 0xf6, 0x77, 0xd2, 0xbc, 
    0x42, 0xb9, 0x86, 0x3f, 0xf0, 0x73, 0x9d, 0xbe, 0xc2, 0xf8, 0xa0, 0xbd, 
    0x34, 0x1f, 0xb6, 0xbe, 0x8f, 0x42, 0x66, 0xbe, 0xff, 0x8a, 0x0a, 0xbe, 
    0x32, 0x03, 0xcf, 0x3d, 0xa6, 0x63, 0x54, 0xbd, 0x8f, 0x5a, 0x62, 0x3f, 
    0x83, 0x1c, 0xe3, 0xbe, 0x61, 0xcf, 0x7a, 0xbe, 0xfa, 0xef, 0x26, 0xbf, 
    0x9f, 0x31, 0x56, 0xbe, 0x17, 0xad, 0xec, 0xbe, 0x8f, 0xb6, 0xed, 0x3e, 
    0xca, 0xaf, 0x1a, 0xbe, 0xc9, 0xb4, 0xfe, 0x3e, 0xd6, 0xe7, 0x0b, 0xbe, 
    0x2e, 0x17, 0x9b, 0x3e, 0xbb, 0xa4, 0x1b, 0x3f, 0x76, 0x7c, 0x00, 0x3f, 
    0x43, 0x05, 0xd2, 0x3e, 0xec, 0xc7, 0x86, 0x3f, 0x05, 0xca, 0x5f, 0x3f, 
    0x79, 0xf9, 0x08, 0xbe, 0x9f, 0x1e, 0xa3, 0xbe, 0x25, 0x27, 0x93, 0x3a, 
    0xd2, 0x61, 0x99, 0xbe, 0x84, 0x06, 0x6e, 0x3e, 0x83, 0x57, 0x34, 0xbd, 
    0x67, 0x03, 0x10, 0xbe, 0x0f, 0x37, 0x53, 0x3e, 0x36, 0xd9, 0xc5, 0xbe, 
    0xd7, 0xc5, 0x65, 0xbe, 0x0d, 0x5e, 0xd6, 0x3e, 0x9b, 0xc3, 0xd7, 0xbd, 
    0x51, 0x9d, 0x47, 0xbf, 0xf2, 0x64, 0x9f, 0xbe, 0x6b, 0x17, 0x7e, 0xbf, 
    0x18, 0x38, 0x2e, 0xbb, 0x1f, 0x76, 0xfc, 0x3e, 0xf4, 0x02, 0x5e, 0x3e, 
    0xd1, 0xfe, 0x59, 0x3e, 0x98, 0x30, 0x8e, 0x3e, 0x3a, 0x29, 0x1f, 0x3e, 
    0x35, 0x5e, 0x52, 0xbe, 0x1c, 0x8f, 0x67, 0xbe, 0x9b, 0x06, 0x58, 0x3e, 
    0xb2, 0x56, 0xdd, 0xbe, 0x97, 0x5d, 0xfa, 0x3e, 0x2d, 0xf5, 0x6f, 0x3d, 
    0x86, 0x1c, 0x83, 0x3e, 0xf8, 0x7f, 0x1a, 0x3f, 0x75, 0xb2, 0xef, 0x3e, 
    0x6b, 0x7b, 0xc2, 0x3e, 0x54, 0xbd, 0x29, 0x3f, 0x9b, 0x18, 0x1b, 0xbf, 
    0x4d, 0x1d, 0x73, 0xbe, 0x9c, 0x28, 0x52, 0x3c, 0x77, 0x6f, 0xa7, 0xbe, 
    0xee, 0xd0, 0xa3, 0x3e, 0x64, 0x0e, 0x9a, 0xbc, 0xdb, 0x27, 0x29, 0x3e, 
    0x89, 0xe9, 0x3e, 0x3e, 0x50, 0x1a, 0x3a, 0xbf, 0xc1, 0xf6, 0x9f, 0x3e, 
    0xec, 0x68, 0x17, 0x3e, 0xa5, 0xd0, 0xc1, 0x3d, 0x8b, 0xe9, 0x4b, 0xbd, 
    0x86, 0xd3, 0x48, 0xbc, 0x58, 0x15, 0x1c, 0x3e, 0x0f, 0xae, 0x99, 0x3e, 
    0x38, 0x1b, 0x8b, 0xbf, 0x50, 0x6e, 0x2a, 0x3e, 0xc4, 0xcb, 0x02, 0x3f, 
    0x64, 0x1c, 0x6a, 0x3e, 0x7a, 0x6e, 0x34, 0xbe, 0x4c, 0xf8, 0x1f, 0xbe, 
    0x64, 0x2e, 0x02, 0xbb, 0x69, 0xea, 0xd4, 0x3e, 0x3e, 0xfd, 0xff, 0xff, 
    0x04, 0x00, 0x00, 0x00, 0x80, 0x00, 0x00, 0x00, 0x70, 0xe9, 0xb2, 0xbf, 
    0x20, 0xff, 0x7d, 0x3f, 0x81, 0x19, 0xdd, 0xbe, 0x50, 0x3f, 0x54, 0xbf, 
    0x29, 0x7e, 0x2f, 0x3f, 0x18, 0x9b, 0x35, 0xbf, 0x19, 0x9c, 0x1a, 0xbf, 
    0xda, 0xd9, 0x53, 0x3f, 0x17, 0x26, 0xa7, 0xbe, 0xd3, 0xfc, 0xba, 0xbe, 
    0x0e, 0xcf, 0xbc, 0x3d, 0x05, 0x9c, 0x60, 0x3e, 0x2a, 0x86, 0x82, 0x3e, 
    0xf6, 0x41, 0x36, 0x3f, 0x3c, 0xf5, 0x64, 0x3f, 0x65, 0xd0, 0x19, 0xbf, 
    0x4d, 0x27, 0xa4, 0x3f, 0xc2, 0x6a, 0xd6, 0xbe, 0xf1, 0x7f, 0x08, 0x3f, 
    0xda, 0xb1, 0x86, 0xbf, 0xb9, 0xee, 0x3e, 0xbf, 0xb4, 0x06, 0xe6, 0x3e, 
    0xdf, 0x31, 0x0e, 0xc0, 0xf5, 0x6a, 0xfa, 0x3e, 0x77, 0x5b, 0x32, 0x3f, 
    0x12, 0x5b, 0x92, 0x3e, 0x46, 0xbf, 0x27, 0x3f, 0x53, 0x4d, 0x71, 0x3f, 
    0x84, 0x01, 0x14, 0x3f, 0x1c, 0x08, 0x17, 0xbe, 0xb7, 0x8d, 0xeb, 0xbe, 
    0xb4, 0x8a, 0x00, 0xbf, 0xca, 0xfd, 0xff, 0xff, 0x04, 0x00, 0x00, 0x00, 
    0x40, 0x00, 0x00, 0x00, 0x58, 0x12, 0xb5, 0xbf, 0x62, 0x49, 0x83, 0xbf, 
    0x62, 0x0d, 0x31, 0xbd, 0x8b, 0x42, 0xa7, 0xbf, 0xb4, 0x57, 0x93, 0xbf, 
    0x01, 0xb2, 0xbb, 0xbf, 0xed, 0x09, 0xfd, 0x3e, 0x21, 0x60, 0xdc, 0x3e, 
    0xff, 0x48, 0x38, 0x3f, 0xbd, 0x0a, 0x88, 0xbf, 0x7b, 0xa9, 0x59, 0x3f, 
    0xc4, 0x48, 0x84, 0x3d, 0xaf, 0xb9, 0x37, 0x3f, 0x1b, 0x20, 0x82, 0xbf, 
    0xad, 0x8c, 0x99, 0xbf, 0xd0, 0x79, 0x4a, 0xbe, 0x16, 0xfe, 0xff, 0xff, 
    0x04, 0x00, 0x00, 0x00, 0x0c, 0x00, 0x00, 0x00, 0xff, 0xff, 0xff, 0xff, 
    0x08, 0x00, 0x00, 0x00, 0x08, 0x00, 0x00, 0x00, 0x2e, 0xfe, 0xff, 0xff, 
    0x04, 0x00, 0x00, 0x00, 0x10, 0x00, 0x00, 0x00, 0x49, 0x55, 0x39, 0xbf, 
    0xc9, 0x7f, 0x11, 0x3e, 0x46, 0xb9, 0xa2, 0x3e, 0x72, 0x63, 0x17, 0x3d, 
    0x4a, 0xfe, 0xff, 0xff, 0x04, 0x00, 0x00, 0x00, 0x20, 0x00, 0x00, 0x00, 
    0xa5, 0x7a, 0x4b, 0xbe, 0x55, 0xaa, 0xfc, 0x3e, 0x23, 0x31, 0xe1, 0x3e, 
    0x12, 0x8a, 0x0c, 0x3e, 0x4a, 0x91, 0x41, 0x3e, 0x2a, 0x69, 0xac, 0x3e, 
    0x21, 0x84, 0xb1, 0xbd, 0x56, 0x2e, 0x7f, 0x3e, 0x76, 0xfe, 0xff, 0xff, 
    0x04, 0x00, 0x00, 0x00, 0x20, 0x00, 0x00, 0x00, 0xec, 0x2d, 0xc8, 0x3e, 
    0xa1, 0x1d, 0xb1, 0xbe, 0xd9, 0x1d, 0x0f, 0xbd, 0x17, 0x13, 0x2b, 0x3d, 
    0x92, 0x4e, 0xd9, 0xbd, 0xfe, 0x53, 0x90, 0x3e, 0x5d, 0x02, 0x2d, 0xbe, 
    0xfb, 0xe2, 0x3c, 0xbe, 0x68, 0xf3, 0xff, 0xff, 0x6c, 0xf3, 0xff, 0xff, 
    0x0f, 0x00, 0x00, 0x00, 0x4d, 0x4c, 0x49, 0x52, 0x20, 0x43, 0x6f, 0x6e, 
    0x76, 0x65, 0x72, 0x74, 0x65, 0x64, 0x2e, 0x00, 0x01, 0x00, 0x00, 0x00, 
    0x14, 0x00, 0x00, 0x00, 0x00, 0x00, 0x0e, 0x00, 0x18, 0x00, 0x14, 0x00, 
    0x10, 0x00, 0x0c, 0x00, 0x08, 0x00, 0x04, 0x00, 0x0e, 0x00, 0x00, 0x00, 
    0x14, 0x00, 0x00, 0x00, 0x1c, 0x00, 0x00, 0x00, 0x9c, 0x02, 0x00, 0x00, 
    0xa0, 0x02, 0x00, 0x00, 0xa4, 0x02, 0x00, 0x00, 0x04, 0x00, 0x00, 0x00, 
    0x6d, 0x61, 0x69, 0x6e, 0x00, 0x00, 0x00, 0x00, 0x0a, 0x00, 0x00, 0x00, 
    0x54, 0x02, 0x00, 0x00, 0xf4, 0x01, 0x00, 0x00, 0xbc, 0x01, 0x00, 0x00, 
    0x74, 0x01, 0x00, 0x00, 0x14, 0x01, 0x00, 0x00, 0xd4, 0x00, 0x00, 0x00, 
    0xac, 0x00, 0x00, 0x00, 0x70, 0x00, 0x00, 0x00, 0x38, 0x00, 0x00, 0x00, 
    0x04, 0x00, 0x00, 0x00, 0x3e, 0xfe, 0xff, 0xff, 0x14, 0x00, 0x00, 0x00, 
    0x00, 0x00, 0x00, 0x09, 0x14, 0x00, 0x00, 0x00, 0x18, 0x00, 0x00, 0x00, 
    0x07, 0x00, 0x00, 0x00, 0x3e, 0xff, 0xff, 0xff, 0x00, 0x00, 0x80, 0x3f, 
    0x01, 0x00, 0x00, 0x00, 0x15, 0x00, 0x00, 0x00, 0x01, 0x00, 0x00, 0x00, 
    0x14, 0x00, 0x00, 0x00, 0x6e, 0xfe, 0xff, 0xff, 0x14, 0x00, 0x00, 0x00, 
    0x00, 0x00, 0x00, 0x08, 0x10, 0x00, 0x00, 0x00, 0x14, 0x00, 0x00, 0x00, 
    0x06, 0x00, 0x00, 0x00, 0x34, 0xf4, 0xff, 0xff, 0x01, 0x00, 0x00, 0x00, 
    0x14, 0x00, 0x00, 0x00, 0x03, 0x00, 0x00, 0x00, 0x13, 0x00, 0x00, 0x00, 
    0x06, 0x00, 0x00, 0x00, 0x03, 0x00, 0x00, 0x00, 0xa2, 0xfe, 0xff, 0xff, 
    0x14, 0x00, 0x00, 0x00, 0x00, 0x00, 0x00, 0x08, 0x14, 0x00, 0x00, 0x00, 
    0x18, 0x00, 0x00, 0x00, 0x06, 0x00, 0x00, 0x00, 0x0a, 0xff, 0xff, 0xff, 
    0x00, 0x00, 0x00, 0x01, 0x01, 0x00, 0x00, 0x00, 0x13, 0x00, 0x00, 0x00, 
    0x03, 0x00, 0x00, 0x00, 0x12, 0x00, 0x00, 0x00, 0x07, 0x00, 0x00, 0x00, 
    0x01, 0x00, 0x00, 0x00, 0x0a, 0xff, 0xff, 0xff, 0x0c, 0x00, 0x00, 0x00, 
    0x10, 0x00, 0x00, 0x00, 0x02, 0x00, 0x00, 0x00, 0x01, 0x00, 0x00, 0x00, 
    0x12, 0x00, 0x00, 0x00, 0x02, 0x00, 0x00, 0x00, 0x0d, 0x00, 0x00, 0x00, 
    0x11, 0x00, 0x00, 0x00, 0x76, 0xff, 0xff, 0xff, 0x1c, 0x00, 0x00, 0x00, 
    0x00, 0x00, 0x00, 0x3b, 0x1c, 0x00, 0x00, 0x00, 0x20, 0x00, 0x00, 0x00, 
    0x05, 0x00, 0x00, 0x00, 0x00, 0x00, 0x06, 0x00, 0x08, 0x00, 0x04, 0x00, 
    0x06, 0x00, 0x00, 0x00, 0x02, 0x00, 0x00, 0x00, 0x01, 0x00, 0x00, 0x00, 
    0x11, 0x00, 0x00, 0x00, 0x02, 0x00, 0x00, 0x00, 0x10, 0x00, 0x00, 0x00, 
    0x0a, 0x00, 0x00, 0x00, 0xb2, 0xff, 0xff, 0xff, 0x24, 0x00, 0x00, 0x00, 
    0x00, 0x00, 0x00, 0x20, 0x24, 0x00, 0x00, 0x00, 0x28, 0x00, 0x00, 0x00, 
    0x04, 0x00, 0x00, 0x00, 0x00, 0x00, 0x0e, 0x00, 0x08, 0x00, 0x00, 0x00, 
    0x00, 0x00, 0x00, 0x00, 0x00, 0x00, 0x04, 0x00, 0x0e, 0x00, 0x00, 0x00, 
    0x01, 0x00, 0x00, 0x00, 0x01, 0x00, 0x00, 0x00, 0x10, 0x00, 0x00, 0x00, 
    0x04, 0x00, 0x00, 0x00, 0x0f, 0x00, 0x00, 0x00, 0x09, 0x00, 0x00, 0x00, 
    0x08, 0x00, 0x00, 0x00, 0x08, 0x00, 0x00, 0x00, 0x00, 0x00, 0x0e, 0x00, 
    0x1a, 0x00, 0x14, 0x00, 0x10, 0x00, 0x0c, 0x00, 0x0b, 0x00, 0x04, 0x00, 
    0x0e, 0x00, 0x00, 0x00, 0x1c, 0x00, 0x00, 0x00, 0x00, 0x00, 0x00, 0x37, 
    0x1c, 0x00, 0x00, 0x00, 0x20, 0x00, 0x00, 0x00, 0x03, 0x00, 0x00, 0x00, 
    0x00, 0x00, 0x06, 0x00, 0x08, 0x00, 0x07, 0x00, 0x06, 0x00, 0x00, 0x00, 
    0x00, 0x00, 0x00, 0x02, 0x01, 0x00, 0x00, 0x00, 0x0f, 0x00, 0x00, 0x00, 
    0x01, 0x00, 0x00, 0x00, 0x0e, 0x00, 0x00, 0x00, 0x00, 0x00, 0x0a, 0x00, 
    0x10, 0x00, 0x0c, 0x00, 0x08, 0x00, 0x04, 0x00, 0x0a, 0x00, 0x00, 0x00, 
    0x0c, 0x00, 0x00, 0x00, 0x10, 0x00, 0x00, 0x00, 0x02, 0x00, 0x00, 0x00, 
    0x01, 0x00, 0x00, 0x00, 0x0e, 0x00, 0x00, 0x00, 0x02, 0x00, 0x00, 0x00, 
    0x0d, 0x00, 0x00, 0x00, 0x04, 0x00, 0x00, 0x00, 0x00, 0x00, 0x0e, 0x00, 
    0x18, 0x00, 0x14, 0x00, 0x10, 0x00, 0x0c, 0x00, 0x0b, 0x00, 0x04, 0x00, 
    0x0e, 0x00, 0x00, 0x00, 0x20, 0x00, 0x00, 0x00, 0x00, 0x00, 0x00, 0x01, 
    0x28, 0x00, 0x00, 0x00, 0x2c, 0x00, 0x00, 0x00, 0x01, 0x00, 0x00, 0x00, 
    0x0c, 0x00, 0x10, 0x00, 0x00, 0x00, 0x0c, 0x00, 0x08, 0x00, 0x07, 0x00, 
    0x0c, 0x00, 0x00, 0x00, 0x00, 0x00, 0x00, 0x01, 0x01, 0x00, 0x00, 0x00, 
    0x01, 0x00, 0x00, 0x00, 0x01, 0x00, 0x00, 0x00, 0x0d, 0x00, 0x00, 0x00, 
    0x03, 0x00, 0x00, 0x00, 0x0c, 0x00, 0x00, 0x00, 0x05, 0x00, 0x00, 0x00, 
    0x02, 0x00, 0x00, 0x00, 0x00, 0x00, 0x0e, 0x00, 0x14, 0x00, 0x00, 0x00, 
    0x10, 0x00, 0x0c, 0x00, 0x0b, 0x00, 0x04, 0x00, 0x0e, 0x00, 0x00, 0x00, 
    0x10, 0x00, 0x00, 0x00, 0x00, 0x00, 0x00, 0x34, 0x0c, 0x00, 0x00, 0x00, 
    0x10, 0x00, 0x00, 0x00, 0x2c, 0xf6, 0xff, 0xff, 0x01, 0x00, 0x00, 0x00, 
    0x0c, 0x00, 0x00, 0x00, 0x02, 0x00, 0x00, 0x00, 0x00, 0x00, 0x00, 0x00, 
    0x0b, 0x00, 0x00, 0x00, 0x01, 0x00, 0x00, 0x00, 0x15, 0x00, 0x00, 0x00, 
    0x01, 0x00, 0x00, 0x00, 0x00, 0x00, 0x00, 0x00, 0x16, 0x00, 0x00, 0x00, 
    0x7c, 0x09, 0x00, 0x00, 0x00, 0x09, 0x00, 0x00, 0x18, 0x08, 0x00, 0x00, 
    0xcc, 0x07, 0x00, 0x00, 0x70, 0x07, 0x00, 0x00, 0xfc, 0x06, 0x00, 0x00, 
    0xac, 0x06, 0x00, 0x00, 0x60, 0x06, 0x00, 0x00, 0x20, 0x06, 0x00, 0x00, 
    0xc4, 0x05, 0x00, 0x00, 0x70, 0x05, 0x00, 0x00, 0x10, 0x05, 0x00, 0x00, 
    0x90, 0x04, 0x00, 0x00, 0x9c, 0x03, 0x00, 0x00, 0xd0, 0x02, 0x00, 0x00, 
    0x80, 0x02, 0x00, 0x00, 0x2c, 0x02, 0x00, 0x00, 0xd4, 0x01, 0x00, 0x00, 
    0x74, 0x01, 0x00, 0x00, 0xe0, 0x00, 0x00, 0x00, 0x60, 0x00, 0x00, 0x00, 
    0x04, 0x00, 0x00, 0x00, 0xf2, 0xf6, 0xff, 0xff, 0x00, 0x00, 0x00, 0x01, 
    0x14, 0x00, 0x00, 0x00, 0x1c, 0x00, 0x00, 0x00, 0x1c, 0x00, 0x00, 0x00, 
    0x16, 0x00, 0x00, 0x00, 0x34, 0x00, 0x00, 0x00, 0x02, 0x00, 0x00, 0x00, 
    0xff, 0xff, 0xff, 0xff, 0x04, 0x00, 0x00, 0x00, 0xd8, 0xf6, 0xff, 0xff, 
    0x1b, 0x00, 0x00, 0x00, 0x53, 0x74, 0x61, 0x74, 0x65, 0x66, 0x75, 0x6c, 
    0x50, 0x61, 0x72, 0x74, 0x69, 0x74, 0x69, 0x6f, 0x6e, 0x65, 0x64, 0x43, 
    0x61, 0x6c, 0x6c, 0x5f, 0x31, 0x3a, 0x30, 0x00, 0x02, 0x00, 0x00, 0x00, 
    0x01, 0x00, 0x00, 0x00, 0x04, 0x00, 0x00, 0x00, 0x4a, 0xf7, 0xff, 0xff, 
    0x00, 0x00, 0x00, 0x01, 0x14, 0x00, 0x00, 0x00, 0x1c, 0x00, 0x00, 0x00, 
    0x1c, 0x00, 0x00, 0x00, 0x15, 0x00, 0x00, 0x00, 0x58, 0x00, 0x00, 0x00, 
    0x02, 0x00, 0x00, 0x00, 0xff, 0xff, 0xff, 0xff, 0x04, 0x00, 0x00, 0x00, 
    0x30, 0xf7, 0xff, 0xff, 0x3c, 0x00, 0x00, 0x00, 0x73, 0x65, 0x71, 0x75, 
    0x65, 0x6e, 0x74, 0x69, 0x61, 0x6c, 0x5f, 0x31, 0x2f, 0x64, 0x65, 0x6e, 
    0x73, 0x65, 0x5f, 0x31, 0x5f, 0x32, 0x2f, 0x4d, 0x61, 0x74, 0x4d, 0x75, 
    0x6c, 0x3b, 0x73, 0x65, 0x71, 0x75, 0x65, 0x6e, 0x74, 0x69, 0x61, 0x6c, 
    0x5f, 0x31, 0x2f, 0x64, 0x65, 0x6e, 0x73, 0x65, 0x5f, 0x31, 0x5f, 0x32, 
    0x2f, 0x42, 0x69, 0x61, 0x73, 0x41, 0x64, 0x64, 0x00, 0x00, 0x00, 0x00, 
    0x02, 0x00, 0x00, 0x00, 0x01, 0x00, 0x00, 0x00, 0x04, 0x00, 0x00, 0x00, 
    0xc6, 0xf7, 0xff, 0xff, 0x00, 0x00, 0x00, 0x01, 0x14, 0x00, 0x00, 0x00, 
    0x1c, 0x00, 0x00, 0x00, 0x1c, 0x00, 0x00, 0x00, 0x14, 0x00, 0x00, 0x00, 
    0x6c, 0x00, 0x00, 0x00, 0x02, 0x00, 0x00, 0x00, 0xff, 0xff, 0xff, 0xff, 
    0x08, 0x00, 0x00, 0x00, 0xac, 0xf7, 0xff, 0xff, 0x52, 0x00, 0x00, 0x00, 
    0x73, 0x65, 0x71, 0x75, 0x65, 0x6e, 0x74, 0x69, 0x61, 0x6c, 0x5f, 0x31, 
    0x2f, 0x64, 0x65, 0x6e, 0x73, 0x65, 0x5f, 0x31, 0x2f, 0x4d, 0x61, 0x74, 
    0x4d, 0x75, 0x6c, 0x3b, 0x73, 0x65, 0x71, 0x75, 0x65, 0x6e, 0x74, 0x69, 
    0x61, 0x6c, 0x5f, 0x31, 0x2f, 0x64, 0x65, 0x6e, 0x73, 0x65, 0x5f, 0x31, 
    0x2f, 0x52, 0x65, 0x6c, 0x75, 0x3b, 0x73, 0x65, 0x71, 0x75, 0x65, 0x6e, 
    0x74, 0x69, 0x61, 0x6c, 0x5f, 0x31, 0x2f, 0x64, 0x65, 0x6e, 0x73, 0x65, 
    0x5f, 0x31, 0x2f, 0x42, 0x69, 0x61, 0x73, 0x41, 0x64, 0x64, 0x00, 0x00, 
    0x02, 0x00, 0x00, 0x00, 0x01, 0x00, 0x00, 0x00, 0x08, 0x00, 0x00, 0x00, 
    0x56, 0xf8, 0xff, 0xff, 0x00, 0x00, 0x00, 0x01, 0x14, 0x00, 0x00, 0x00, 
    0x1c, 0x00, 0x00, 0x00, 0x1c, 0x00, 0x00, 0x00, 0x13, 0x00, 0x00, 0x00, 
    0x38, 0x00, 0x00, 0x00, 0x02, 0x00, 0x00, 0x00, 0xff, 0xff, 0xff, 0xff, 
    0x40, 0x00, 0x00, 0x00, 0x3c, 0xf8, 0xff, 0xff, 0x1e, 0x00, 0x00, 0x00, 
    0x73, 0x65, 0x71, 0x75, 0x65, 0x6e, 0x74, 0x69, 0x61, 0x6c, 0x5f, 0x31, 
    0x2f, 0x66, 0x6c, 0x61, 0x74, 0x74, 0x65, 0x6e, 0x5f, 0x31, 0x2f, 0x52, 
    0x65, 0x73, 0x68, 0x61, 0x70, 0x65, 0x00, 0x00, 0x02, 0x00, 0x00, 0x00, 
    0x01, 0x00, 0x00, 0x00, 0x40, 0x00, 0x00, 0x00, 0xae, 0xfa, 0xff, 0xff, 
    0x00, 0x00, 0x00, 0x01, 0x14, 0x00, 0x00, 0x00, 0x14, 0x00, 0x00, 0x00, 
    0x12, 0x00, 0x00, 0x00, 0x00, 0x00, 0x00, 0x02, 0x34, 0x00, 0x00, 0x00, 
    0x8c, 0xf8, 0xff, 0xff, 0x24, 0x00, 0x00, 0x00, 0x73, 0x65, 0x71, 0x75, 
    0x65, 0x6e, 0x74, 0x69, 0x61, 0x6c, 0x5f, 0x31, 0x2f, 0x66, 0x6c, 0x61, 
    0x74, 0x74, 0x65, 0x6e, 0x5f, 0x31, 0x2f, 0x52, 0x65, 0x73, 0x68, 0x61, 
    0x70, 0x65, 0x2f, 0x73, 0x68, 0x61, 0x70, 0x65, 0x00, 0x00, 0x00, 0x00, 
    0x01, 0x00, 0x00, 0x00, 0x02, 0x00, 0x00, 0x00, 0x02, 0xfb, 0xff, 0xff, 
    0x00, 0x00, 0x00, 0x01, 0x14, 0x00, 0x00, 0x00, 0x14, 0x00, 0x00, 0x00, 
    0x11, 0x00, 0x00, 0x00, 0x00, 0x00, 0x00, 0x02, 0x34, 0x00, 0x00, 0x00, 
    0xe0, 0xf8, 0xff, 0xff, 0x24, 0x00, 0x00, 0x00, 0x73, 0x65, 0x71, 0x75, 
    0x65, 0x6e, 0x74, 0x69, 0x61, 0x6c, 0x5f, 0x31, 0x2f, 0x66, 0x6c, 0x61, 
    0x74, 0x74, 0x65, 0x6e, 0x5f, 0x31, 0x2f, 0x73, 0x74, 0x72, 0x69, 0x64, 
    0x65, 0x64, 0x5f, 0x73, 0x6c, 0x69, 0x63, 0x65, 0x00, 0x00, 0x00, 0x00, 
    0x00, 0x00, 0x00, 0x00, 0x52, 0xfb, 0xff, 0xff, 0x00, 0x00, 0x00, 0x01, 
    0x14, 0x00, 0x00, 0x00, 0x14, 0x00, 0x00, 0x00, 0x10, 0x00, 0x00, 0x00, 
    0x00, 0x00, 0x00, 0x02, 0x2c, 0x00, 0x00, 0x00, 0x30, 0xf9, 0xff, 0xff, 
    0x1c, 0x00, 0x00, 0x00, 0x73, 0x65, 0x71, 0x75, 0x65, 0x6e, 0x74, 0x69, 
    0x61, 0x6c, 0x5f, 0x31, 0x2f, 0x66, 0x6c, 0x61, 0x74, 0x74, 0x65, 0x6e, 
    0x5f, 0x31, 0x2f, 0x53, 0x68, 0x61, 0x70, 0x65, 0x00, 0x00, 0x00, 0x00, 
    0x01, 0x00, 0x00, 0x00, 0x03, 0x00, 0x00, 0x00, 0xa2, 0xf9, 0xff, 0xff, 
    0x00, 0x00, 0x00, 0x01, 0x14, 0x00, 0x00, 0x00, 0x20, 0x00, 0x00, 0x00, 
    0x20, 0x00, 0x00, 0x00, 0x0f, 0x00, 0x00, 0x00, 0xa0, 0x00, 0x00, 0x00, 
    0x03, 0x00, 0x00, 0x00, 0xff, 0xff, 0xff, 0xff, 0x08, 0x00, 0x00, 0x00, 
    0x08, 0x00, 0x00, 0x00, 0x8c, 0xf9, 0xff, 0xff, 0x80, 0x00, 0x00, 0x00, 
    0x73, 0x65, 0x71, 0x75, 0x65, 0x6e, 0x74, 0x69, 0x61, 0x6c, 0x5f, 0x31, 
    0x2f, 0x63, 0x6f, 0x6e, 0x76, 0x31, 0x64, 0x5f, 0x31, 0x2f, 0x52, 0x65, 
    0x6c, 0x75, 0x3b, 0x73, 0x65, 0x71, 0x75, 0x65, 0x6e, 0x74, 0x69, 0x61, 
    0x6c, 0x5f, 0x31, 0x2f, 0x63, 0x6f, 0x6e, 0x76, 0x31, 0x64, 0x5f, 0x31, 
    0x2f, 0x42, 0x69, 0x61, 0x73, 0x41, 0x64, 0x64, 0x3b, 0x73, 0x65, 0x71, 
    0x75, 0x65, 0x6e, 0x74, 0x69, 0x61, 0x6c, 0x5f, 0x31, 0x2f, 0x63, 0x6f, 
    0x6e, 0x76, 0x31, 0x64, 0x5f, 0x31, 0x2f, 0x63, 0x6f, 0x6e, 0x76, 0x6f, 
    0x6c, 0x75, 0x74, 0x69, 0x6f, 0x6e, 0x2f, 0x53, 0x71, 0x75, 0x65, 0x65, 
    0x7a, 0x65, 0x3b, 0x73, 0x65, 0x71, 0x75, 0x65, 0x6e, 0x74, 0x69, 0x61, 
    0x6c, 0x5f, 0x31, 0x2f, 0x63, 0x6f, 0x6e, 0x76, 0x31, 0x64, 0x5f, 0x31, 
    0x2f, 0x53, 0x71, 0x75, 0x65, 0x65, 0x7a, 0x65, 0x00, 0x00, 0x00, 0x00, 
    0x03, 0x00, 0x00, 0x00, 0x01, 0x00, 0x00, 0x00, 0x08, 0x00, 0x00, 0x00, 
    0x08, 0x00, 0x00, 0x00, 0x6a, 0xfa, 0xff, 0xff, 0x00, 0x00, 0x00, 0x01, 
    0x14, 0x00, 0x00, 0x00, 0x24, 0x00, 0x00, 0x00, 0x24, 0x00, 0x00, 0x00, 
    0x0e, 0x00, 0x00, 0x00, 0xc4, 0x00, 0x00, 0x00, 0x04, 0x00, 0x00, 0x00, 
    0xff, 0xff, 0xff, 0xff, 0x01, 0x00, 0x00, 0x00, 0x08, 0x00, 0x00, 0x00, 
    0x08, 0x00, 0x00, 0x00, 0x58, 0xfa, 0xff, 0xff, 0xa3, 0x00, 0x00, 0x00, 
    0x73, 0x65, 0x71, 0x75, 0x65, 0x6e, 0x74, 0x69, 0x61, 0x6c, 0x5f, 0x31, 
    0x2f, 0x63, 0x6f, 0x6e, 0x76, 0x31, 0x64, 0x5f, 0x31, 0x2f, 0x52, 0x65, 
    0x6c, 0x75, 0x3b, 0x73, 0x65, 0x71, 0x75, 0x65, 0x6e, 0x74, 0x69, 0x61, 
    0x6c, 0x5f, 0x31, 0x2f, 0x63, 0x6f, 0x6e, 0x76, 0x31, 0x64, 0x5f, 0x31, 
    0x2f, 0x42, 0x69, 0x61, 0x73, 0x41, 0x64, 0x64, 0x3b, 0x73, 0x65, 0x71, 
    0x75, 0x65, 0x6e, 0x74, 0x69, 0x61, 0x6c, 0x5f, 0x31, 0x2f, 0x63, 0x6f, 
    0x6e, 0x76, 0x31, 0x64, 0x5f, 0x31, 0x2f, 0x63, 0x6f, 0x6e, 0x76, 0x6f, 
    0x6c, 0x75, 0x74, 0x69, 0x6f, 0x6e, 0x2f, 0x53, 0x71, 0x75, 0x65, 0x65, 
    0x7a, 0x65, 0x3b, 0x73, 0x65, 0x71, 0x75, 0x65, 0x6e, 0x74, 0x69, 0x61, 
    0x6c, 0x5f, 0x31, 0x2f, 0x63, 0x6f, 0x6e, 0x76, 0x31, 0x64, 0x5f, 0x31, 
    0x2f, 0x53, 0x71, 0x75, 0x65, 0x65, 0x7a, 0x65, 0x3b, 0x73, 0x65, 0x71, 
    0x75, 0x65, 0x6e, 0x74, 0x69, 0x61, 0x6c, 0x5f, 0x31, 0x2f, 0x63, 0x6f, 
    0x6e, 0x76, 0x31, 0x64, 0x5f, 0x31, 0x2f, 0x63, 0x6f, 0x6e, 0x76, 0x6f, 
    0x6c, 0x75, 0x74, 0x69, 0x6f, 0x6e, 0x31, 0x00, 0x04, 0x00, 0x00, 0x00, 
    0x01, 0x00, 0x00, 0x00, 0x01, 0x00, 0x00, 0x00, 0x08, 0x00, 0x00, 0x00, 
    0x08, 0x00, 0x00, 0x00, 0x5a, 0xfb, 0xff, 0xff, 0x00, 0x00, 0x00, 0x01, 
    0x14, 0x00, 0x00, 0x00, 0x24, 0x00, 0x00, 0x00, 0x24, 0x00, 0x00, 0x00, 
    0x0d, 0x00, 0x00, 0x00, 0x50, 0x00, 0x00, 0x00, 0x04, 0x00, 0x00, 0x00, 
    0xff, 0xff, 0xff, 0xff, 0x01, 0x00, 0x00, 0x00, 0x08, 0x00, 0x00, 0x00, 
    0x01, 0x00, 0x00, 0x00, 0x48, 0xfb, 0xff, 0xff, 0x2c, 0x00, 0x00, 0x00, 
    0x73, 0x65, 0x71, 0x75, 0x65, 0x6e, 0x74, 0x69, 0x61, 0x6c, 0x5f, 0x31, 
    0x2f, 0x63, 0x6f, 0x6e, 0x76, 0x31, 0x64, 0x5f, 0x31, 0x2f, 0x63, 0x6f, 
    0x6e, 0x76, 0x6f, 0x6c, 0x75, 0x74, 0x69, 0x6f, 0x6e, 0x2f, 0x45, 0x78, 
    0x70, 0x61, 0x6e, 0x64, 0x44, 0x69, 0x6d, 0x73, 0x00, 0x00, 0x00, 0x00, 
    0x04, 0x00, 0x00, 0x00, 0x01, 0x00, 0x00, 0x00, 0x01, 0x00, 0x00, 0x00, 
    0x08, 0x00, 0x00, 0x00, 0x01, 0x00, 0x00, 0x00, 0xd2, 0xfd, 0xff, 0xff, 
    0x00, 0x00, 0x00, 0x01, 0x14, 0x00, 0x00, 0x00, 0x14, 0x00, 0x00, 0x00, 
    0x0c, 0x00, 0x00, 0x00, 0x00, 0x00, 0x00, 0x02, 0x40, 0x00, 0x00, 0x00, 
    0xb0, 0xfb, 0xff, 0xff, 0x30, 0x00, 0x00, 0x00, 0x73, 0x65, 0x71, 0x75, 
    0x65, 0x6e, 0x74, 0x69, 0x61, 0x6c, 0x5f, 0x31, 0x2f, 0x63, 0x6f, 0x6e, 
    0x76, 0x31, 0x64, 0x5f, 0x31, 0x2f, 0x63, 0x6f, 0x6e, 0x76, 0x6f, 0x6c, 
    0x75, 0x74, 0x69, 0x6f, 0x6e, 0x2f, 0x45, 0x78, 0x70, 0x61, 0x6e, 0x64, 
    0x44, 0x69, 0x6d, 0x73, 0x2f, 0x64, 0x69, 0x6d, 0x00, 0x00, 0x00, 0x00, 
    0x00, 0x00, 0x00, 0x00, 0x2e, 0xfe, 0xff, 0xff, 0x00, 0x00, 0x00, 0x01, 
    0x14, 0x00, 0x00, 0x00, 0x14, 0x00, 0x00, 0x00, 0x0b, 0x00, 0x00, 0x00, 
    0x00, 0x00, 0x00, 0x02, 0x34, 0x00, 0x00, 0x00, 0x0c, 0xfc, 0xff, 0xff, 
    0x26, 0x00, 0x00, 0x00, 0x73, 0x65, 0x71, 0x75, 0x65, 0x6e, 0x74, 0x69, 
    0x61, 0x6c, 0x5f, 0x31, 0x2f, 0x66, 0x6c, 0x61, 0x74, 0x74, 0x65, 0x6e, 
    0x5f, 0x31, 0x2f, 0x52, 0x65, 0x73, 0x68, 0x61, 0x70, 0x65, 0x2f, 0x73, 
    0x68, 0x61, 0x70, 0x65, 0x2f, 0x31, 0x00, 0x00, 0x00, 0x00, 0x00, 0x00, 
    0x7e, 0xfe, 0xff, 0xff, 0x00, 0x00, 0x00, 0x01, 0x14, 0x00, 0x00, 0x00, 
    0x14, 0x00, 0x00, 0x00, 0x0a, 0x00, 0x00, 0x00, 0x00, 0x00, 0x00, 0x02, 
    0x38, 0x00, 0x00, 0x00, 0x5c, 0xfc, 0xff, 0xff, 0x2a, 0x00, 0x00, 0x00, 
    0x73, 0x65, 0x71, 0x75, 0x65, 0x6e, 0x74, 0x69, 0x61, 0x6c, 0x5f, 0x31, 
    0x2f, 0x66, 0x6c, 0x61, 0x74, 0x74, 0x65, 0x6e, 0x5f, 0x31, 0x2f, 0x73, 
    0x74, 0x72, 0x69, 0x64, 0x65, 0x64, 0x5f, 0x73, 0x6c, 0x69, 0x63, 0x65, 
    0x2f, 0x73, 0x74, 0x61, 0x63, 0x6b, 0x00, 0x00, 0x01, 0x00, 0x00, 0x00, 
    0x01, 0x00, 0x00, 0x00, 0xd6, 0xfe, 0xff, 0xff, 0x00, 0x00, 0x00, 0x01, 
    0x14, 0x00, 0x00, 0x00, 0x14, 0x00, 0x00, 0x00, 0x09, 0x00, 0x00, 0x00, 
    0x00, 0x00, 0x00, 0x02, 0x1c, 0x00, 0x00, 0x00, 0xb4, 0xfc, 0xff, 0xff, 
    0x0e, 0x00, 0x00, 0x00, 0x61, 0x72, 0x69, 0x74, 0x68, 0x2e, 0x63, 0x6f, 
    0x6e, 0x73, 0x74, 0x61, 0x6e, 0x74, 0x00, 0x00, 0x01, 0x00, 0x00, 0x00, 
    0x01, 0x00, 0x00, 0x00, 0x8e, 0xfd, 0xff, 0xff, 0x00, 0x00, 0x00, 0x01, 
    0x10, 0x00, 0x00, 0x00, 0x10, 0x00, 0x00, 0x00, 0x08, 0x00, 0x00, 0x00, 
    0x28, 0x00, 0x00, 0x00, 0xec, 0xfc, 0xff, 0xff, 0x1b, 0x00, 0x00, 0x00, 
    0x73, 0x65, 0x71, 0x75, 0x65, 0x6e, 0x74, 0x69, 0x61, 0x6c, 0x5f, 0x31, 
    0x2f, 0x64, 0x65, 0x6e, 0x73, 0x65, 0x5f, 0x31, 0x2f, 0x4d, 0x61, 0x74, 
    0x4d, 0x75, 0x6c, 0x00, 0x02, 0x00, 0x00, 0x00, 0x08, 0x00, 0x00, 0x00, 
    0x40, 0x00, 0x00, 0x00, 0xd6, 0xfd, 0xff, 0xff, 0x00, 0x00, 0x00, 0x01, 
    0x10, 0x00, 0x00, 0x00, 0x10, 0x00, 0x00, 0x00, 0x07, 0x00, 0x00, 0x00, 
    0x2c, 0x00, 0x00, 0x00, 0x34, 0xfd, 0xff, 0xff, 0x1d, 0x00, 0x00, 0x00, 
    0x73, 0x65, 0x71, 0x75, 0x65, 0x6e, 0x74, 0x69, 0x61, 0x6c, 0x5f, 0x31, 
    0x2f, 0x64, 0x65, 0x6e, 0x73, 0x65, 0x5f, 0x31, 0x5f, 0x32, 0x2f, 0x4d, 
    0x61, 0x74, 0x4d, 0x75, 0x6c, 0x00, 0x00, 0x00, 0x02, 0x00, 0x00, 0x00, 
    0x04, 0x00, 0x00, 0x00, 0x08, 0x00, 0x00, 0x00, 0x22, 0xfe, 0xff, 0xff, 
    0x00, 0x00, 0x00, 0x01, 0x10, 0x00, 0x00, 0x00, 0x10, 0x00, 0x00, 0x00, 
    0x06, 0x00, 0x00, 0x00, 0x30, 0x00, 0x00, 0x00, 0x80, 0xfd, 0xff, 0xff, 
    0x21, 0x00, 0x00, 0x00, 0x73, 0x65, 0x71, 0x75, 0x65, 0x6e, 0x74, 0x69, 
    0x61, 0x6c, 0x5f, 0x31, 0x2f, 0x63, 0x6f, 0x6e, 0x76, 0x31, 0x64, 0x5f, 
    0x31, 0x2f, 0x63, 0x6f, 0x6e, 0x76, 0x6f, 0x6c, 0x75, 0x74, 0x69, 0x6f, 
    0x6e, 0x00, 0x00, 0x00, 0x04, 0x00, 0x00, 0x00, 0x08, 0x00, 0x00, 0x00, 
    0x01, 0x00, 0x00, 0x00, 0x02, 0x00, 0x00, 0x00, 0x01, 0x00, 0x00, 0x00, 
    0x00, 0x00, 0x16, 0x00, 0x1c, 0x00, 0x18, 0x00, 0x17, 0x00, 0x10, 0x00, 
    0x0c, 0x00, 0x08, 0x00, 0x00, 0x00, 0x00, 0x00, 0x00, 0x00, 0x07, 0x00, 
    0x16, 0x00, 0x00, 0x00, 0x00, 0x00, 0x00, 0x01, 0x14, 0x00, 0x00, 0x00, 
    0x14, 0x00, 0x00, 0x00, 0x05, 0x00, 0x00, 0x00, 0x00, 0x00, 0x00, 0x02, 
    0x38, 0x00, 0x00, 0x00, 0xf4, 0xfd, 0xff, 0xff, 0x29, 0x00, 0x00, 0x00, 
    0x73, 0x65, 0x71, 0x75, 0x65, 0x6e, 0x74, 0x69, 0x61, 0x6c, 0x5f, 0x31, 
    0x2f, 0x63, 0x6f, 0x6e, 0x76, 0x31, 0x64, 0x5f, 0x31, 0x2f, 0x63, 0x6f, 
    0x6e, 0x76, 0x6f, 0x6c, 0x75, 0x74, 0x69, 0x6f, 0x6e, 0x2f, 0x53, 0x71, 
    0x75, 0x65, 0x65, 0x7a, 0x65, 0x00, 0x00, 0x00, 0x01, 0x00, 0x00, 0x00, 
    0x03, 0x00, 0x00, 0x00, 0xea, 0xfe, 0xff, 0xff, 0x00, 0x00, 0x00, 0x01, 
    0x10, 0x00, 0x00, 0x00, 0x10, 0x00, 0x00, 0x00, 0x04, 0x00, 0x00, 0x00, 
    0x2c, 0x00, 0x00, 0x00, 0x48, 0xfe, 0xff, 0xff, 0x1e, 0x00, 0x00, 0x00, 
    0x73, 0x65, 0x71, 0x75, 0x65, 0x6e, 0x74, 0x69, 0x61, 0x6c, 0x5f, 0x31, 
    0x2f, 0x64, 0x65, 0x6e, 0x73, 0x65, 0x5f, 0x31, 0x5f, 0x32, 0x2f, 0x42, 
    0x69, 0x61, 0x73, 0x41, 0x64, 0x64, 0x00, 0x00, 0x01, 0x00, 0x00, 0x00, 
    0x04, 0x00, 0x00, 0x00, 0x32, 0xff, 0xff, 0xff, 0x00, 0x00, 0x00, 0x01, 
    0x10, 0x00, 0x00, 0x00, 0x10, 0x00, 0x00, 0x00, 0x03, 0x00, 0x00, 0x00, 
    0xb0, 0x00, 0x00, 0x00, 0x90, 0xfe, 0xff, 0xff, 0xa2, 0x00, 0x00, 0x00, 
    0x73, 0x65, 0x71, 0x75, 0x65, 0x6e, 0x74, 0x69, 0x61, 0x6c, 0x5f, 0x31, 
    0x2f, 0x63, 0x6f, 0x6e, 0x76, 0x31, 0x64, 0x5f, 0x31, 0x2f, 0x52, 0x65, 
    0x6c, 0x75, 0x3b, 0x73, 0x65, 0x71, 0x75, 0x65, 0x6e, 0x74, 0x69, 0x61, 
    0x6c, 0x5f, 0x31, 0x2f, 0x63, 0x6f, 0x6e, 0x76, 0x31, 0x64, 0x5f, 0x31, 
    0x2f, 0x42, 0x69, 0x61, 0x73, 0x41, 0x64, 0x64, 0x3b, 0x73, 0x65, 0x71, 
    0x75, 0x65, 0x6e, 0x74, 0x69, 0x61, 0x6c, 0x5f, 0x31, 0x2f, 0x63, 0x6f, 
    0x6e, 0x76, 0x31, 0x64, 0x5f, 0x31, 0x2f, 0x63, 0x6f, 0x6e, 0x76, 0x6f, 
    0x6c, 0x75, 0x74, 0x69, 0x6f, 0x6e, 0x2f, 0x53, 0x71, 0x75, 0x65, 0x65, 
    0x7a, 0x65, 0x3b, 0x73, 0x65, 0x71, 0x75, 0x65, 0x6e, 0x74, 0x69, 0x61, 
    0x6c, 0x5f, 0x31, 0x2f, 0x63, 0x6f, 0x6e, 0x76, 0x31, 0x64, 0x5f, 0x31, 
    0x2f, 0x53, 0x71, 0x75, 0x65, 0x65, 0x7a, 0x65, 0x3b, 0x73, 0x65, 0x71, 
    0x75, 0x65, 0x6e, 0x74, 0x69, 0x61, 0x6c, 0x5f, 0x31, 0x2f, 0x63, 0x6f, 
    0x6e, 0x76, 0x31, 0x64, 0x5f, 0x31, 0x2f, 0x63, 0x6f, 0x6e, 0x76, 0x6f, 
    0x6c, 0x75, 0x74, 0x69, 0x6f, 0x6e, 0x00, 0x00, 0x01, 0x00, 0x00, 0x00, 
    0x08, 0x00, 0x00, 0x00, 0x00, 0x00, 0x16, 0x00, 0x18, 0x00, 0x14, 0x00, 
    0x00, 0x00, 0x10, 0x00, 0x0c, 0x00, 0x08, 0x00, 0x00, 0x00, 0x00, 0x00, 
    0x00, 0x00, 0x07, 0x00, 0x16, 0x00, 0x00, 0x00, 0x00, 0x00, 0x00, 0x01, 
    0x10, 0x00, 0x00, 0x00, 0x10, 0x00, 0x00, 0x00, 0x02, 0x00, 0x00, 0x00, 
    0x44, 0x00, 0x00, 0x00, 0x74, 0xff, 0xff, 0xff, 0x36, 0x00, 0x00, 0x00, 
    0x73, 0x65, 0x71, 0x75, 0x65, 0x6e, 0x74, 0x69, 0x61, 0x6c, 0x5f, 0x31, 
    0x2f, 0x64, 0x65, 0x6e, 0x73, 0x65, 0x5f, 0x31, 0x2f, 0x52, 0x65, 0x6c, 
    0x75, 0x3b, 0x73, 0x65, 0x71, 0x75, 0x65, 0x6e, 0x74, 0x69, 0x61, 0x6c, 
    0x5f, 0x31, 0x2f, 0x64, 0x65, 0x6e, 0x73, 0x65, 0x5f, 0x31, 0x2f, 0x42, 
    0x69, 0x61, 0x73, 0x41, 0x64, 0x64, 0x00, 0x00, 0x01, 0x00, 0x00, 0x00, 
    0x08, 0x00, 0x00, 0x00, 0x00, 0x00, 0x16, 0x00, 0x1c, 0x00, 0x18, 0x00, 
    0x00, 0x00, 0x14, 0x00, 0x10, 0x00, 0x0c, 0x00, 0x00, 0x00, 0x00, 0x00, 
    0x08, 0x00, 0x07, 0x00, 0x16, 0x00, 0x00, 0x00, 0x00, 0x00, 0x00, 0x01, 
    0x14, 0x00, 0x00, 0x00, 0x24, 0x00, 0x00, 0x00, 0x24, 0x00, 0x00, 0x00, 
    0x01, 0x00, 0x00, 0x00, 0x40, 0x00, 0x00, 0x00, 0x03, 0x00, 0x00, 0x00, 
    0xff, 0xff, 0xff, 0xff, 0x08, 0x00, 0x00, 0x00, 0x01, 0x00, 0x00, 0x00, 
    0x04, 0x00, 0x04, 0x00, 0x04, 0x00, 0x00, 0x00, 0x1e, 0x00, 0x00, 0x00, 
    0x73, 0x65, 0x72, 0x76, 0x69, 0x6e, 0x67, 0x5f, 0x64, 0x65, 0x66, 0x61, 
    0x75, 0x6c, 0x74, 0x5f, 0x6b, 0x65, 0x72, 0x61, 0x73, 0x5f, 0x74, 0x65, 
    0x6e, 0x73, 0x6f, 0x72, 0x3a, 0x30, 0x00, 0x00, 0x03, 0x00, 0x00, 0x00, 
    0x01, 0x00, 0x00, 0x00, 0x08, 0x00, 0x00, 0x00, 0x01, 0x00, 0x00, 0x00, 
    0x08, 0x00, 0x00, 0x00, 0x80, 0x00, 0x00, 0x00, 0x64, 0x00, 0x00, 0x00, 
    0x54, 0x00, 0x00, 0x00, 0x44, 0x00, 0x00, 0x00, 0x34, 0x00, 0x00, 0x00, 
    0x24, 0x00, 0x00, 0x00, 0x14, 0x00, 0x00, 0x00, 0x04, 0x00, 0x00, 0x00, 
    0xac, 0xff, 0xff, 0xff, 0x19, 0x00, 0x00, 0x00, 0x00, 0x00, 0x00, 0x19, 
    0xb8, 0xff, 0xff, 0xff, 0x09, 0x00, 0x00, 0x00, 0x00, 0x00, 0x00, 0x09, 
    0xc4, 0xff, 0xff, 0xff, 0x53, 0x00, 0x00, 0x00, 0x00, 0x00, 0x00, 0x53, 
    0xd0, 0xff, 0xff, 0xff, 0x2d, 0x00, 0x00, 0x00, 0x00, 0x00, 0x00, 0x2d, 
    0xdc, 0xff, 0xff, 0xff, 0x4d, 0x00, 0x00, 0x00, 0x00, 0x00, 0x00, 0x4d, 
    0xe8, 0xff, 0xff, 0xff, 0x16, 0x00, 0x00, 0x00, 0x00, 0x00, 0x00, 0x16, 
    0xf4, 0xff, 0xff, 0xff, 0x03, 0x00, 0x00, 0x00, 0x00, 0x00, 0x00, 0x03, 
    0x0c, 0x00, 0x0c, 0x00, 0x0b, 0x00, 0x00, 0x00, 0x00, 0x00, 0x04, 0x00, 
    0x0c, 0x00, 0x00, 0x00, 0x46, 0x00, 0x00, 0x00, 0x00, 0x00, 0x00, 0x46

};

const unsigned int cnn_model_tflite_len = 6456;

#endif
