#ifndef ANN_MODEL_DATA_H
#define ANN_MODEL_DATA_H

const unsigned char ann_model_tflite[] = {
    0x1c, 0x00, 0x00, 0x00, 0x54, 0x46, 0x4c, 0x33, 0x14, 0x00, 0x20, 0x00, 
    0x1c, 0x00, 0x18, 0x00, 0x14, 0x00, 0x10, 0x00, 0x0c, 0x00, 0x00, 0x00, 
    0x08, 0x00, 0x04, 0x00, 0x14, 0x00, 0x00, 0x00, 0x1c, 0x00, 0x00, 0x00, 
    0x98, 0x00, 0x00, 0x00, 0xf0, 0x00, 0x00, 0x00, 0xe0, 0x0f, 0x00, 0x00, 
    0xf0, 0x0f, 0x00, 0x00, 0xfc, 0x15, 0x00, 0x00, 0x03, 0x00, 0x00, 0x00, 
    0x01, 0x00, 0x00, 0x00, 0x10, 0x00, 0x00, 0x00, 0x00, 0x00, 0x0a, 0x00, 
    0x10, 0x00, 0x0c, 0x00, 0x08, 0x00, 0x04, 0x00, 0x0a, 0x00, 0x00, 0x00, 
    0x0c, 0x00, 0x00, 0x00, 0x1c, 0x00, 0x00, 0x00, 0x3c, 0x00, 0x00, 0x00, 
    0x0f, 0x00, 0x00, 0x00, 0x73, 0x65, 0x72, 0x76, 0x69, 0x6e, 0x67, 0x5f, 
    0x64, 0x65, 0x66, 0x61, 0x75, 0x6c, 0x74, 0x00, 0x01, 0x00, 0x00, 0x00, 
    0x04, 0x00, 0x00, 0x00, 0x90, 0xff, 0xff, 0xff, 0x0a, 0x00, 0x00, 0x00, 
    0x04, 0x00, 0x00, 0x00, 0x08, 0x00, 0x00, 0x00, 0x6f, 0x75, 0x74, 0x70, 
    0x75, 0x74, 0x5f, 0x30, 0x00, 0x00, 0x00, 0x00, 0x01, 0x00, 0x00, 0x00, 
    0x04, 0x00, 0x00, 0x00, 0x06, 0xf0, 0xff, 0xff, 0x04, 0x00, 0x00, 0x00, 
    0x0c, 0x00, 0x00, 0x00, 0x6b, 0x65, 0x72, 0x61, 0x73, 0x5f, 0x74, 0x65, 
    0x6e, 0x73, 0x6f, 0x72, 0x00, 0x00, 0x00, 0x00, 0x02, 0x00, 0x00, 0x00, 
    0x34, 0x00, 0x00, 0x00, 0x04, 0x00, 0x00, 0x00, 0xdc, 0xff, 0xff, 0xff, 
    0x0d, 0x00, 0x00, 0x00, 0x04, 0x00, 0x00, 0x00, 0x13, 0x00, 0x00, 0x00, 
    0x43, 0x4f, 0x4e, 0x56, 0x45, 0x52, 0x53, 0x49, 0x4f, 0x4e, 0x5f, 0x4d, 
    0x45, 0x54, 0x41, 0x44, 0x41, 0x54, 0x41, 0x00, 0x08, 0x00, 0x0c, 0x00, 
    0x08, 0x00, 0x04, 0x00, 0x08, 0x00, 0x00, 0x00, 0x0c, 0x00, 0x00, 0x00, 
    0x04, 0x00, 0x00, 0x00, 0x13, 0x00, 0x00, 0x00, 0x6d, 0x69, 0x6e, 0x5f, 
    0x72, 0x75, 0x6e, 0x74, 0x69, 0x6d, 0x65, 0x5f, 0x76, 0x65, 0x72, 0x73, 
    0x69, 0x6f, 0x6e, 0x00, 0x0e, 0x00, 0x00, 0x00, 0xec, 0x0e, 0x00, 0x00, 
    0xe4, 0x0e, 0x00, 0x00, 0x94, 0x0e, 0x00, 0x00, 0x74, 0x0e, 0x00, 0x00, 
    0x64, 0x0d, 0x00, 0x00, 0x54, 0x05, 0x00, 0x00, 0x44, 0x01, 0x00, 0x00, 
    0xb4, 0x00, 0x00, 0x00, 0xac, 0x00, 0x00, 0x00, 0xa4, 0x00, 0x00, 0x00, 
    0x9c, 0x00, 0x00, 0x00, 0x94, 0x00, 0x00, 0x00, 0x74, 0x00, 0x00, 0x00, 
    0x04, 0x00, 0x00, 0x00, 0xba, 0xf0, 0xff, 0xff, 0x04, 0x00, 0x00, 0x00, 
    0x60, 0x00, 0x00, 0x00, 0x10, 0x00, 0x00, 0x00, 0x00, 0x00, 0x00, 0x00, 
    0x08, 0x00, 0x0e, 0x00, 0x08, 0x00, 0x04, 0x00, 0x08, 0x00, 0x00, 0x00, 
    0x10, 0x00, 0x00, 0x00, 0x24, 0x00, 0x00, 0x00, 0x00, 0x00, 0x06, 0x00, 
    0x08, 0x00, 0x04, 0x00, 0x06, 0x00, 0x00, 0x00, 0x04, 0x00, 0x00, 0x00, 
    0x00, 0x00, 0x00, 0x00, 0x0c, 0x00, 0x18, 0x00, 0x14, 0x00, 0x10, 0x00, 
    0x0c, 0x00, 0x04, 0x00, 0x0c, 0x00, 0x00, 0x00, 0x5b, 0x0b, 0xf4, 0x30, 
    0x84, 0x55, 0x79, 0x45, 0x02, 0x00, 0x00, 0x00, 0x02, 0x00, 0x00, 0x00, 
    0x04, 0x00, 0x00, 0x00, 0x06, 0x00, 0x00, 0x00, 0x32, 0x2e, 0x32, 0x31, 
    0x2e, 0x30, 0x00, 0x00, 0x26, 0xf1, 0xff, 0xff, 0x04, 0x00, 0x00, 0x00, 
    0x10, 0x00, 0x00, 0x00, 0x31, 0x2e, 0x35, 0x2e, 0x30, 0x00, 0x00, 0x00, 
    0x00, 0x00, 0x00, 0x00, 0x00, 0x00, 0x00, 0x00, 0xe4, 0xeb, 0xff, 0xff, 
    0xe8, 0xeb, 0xff, 0xff, 0xec, 0xeb, 0xff, 0xff, 0xf0, 0xeb, 0xff, 0xff, 
    0x52, 0xf1, 0xff, 0xff, 0x04, 0x00, 0x00, 0x00, 0x80, 0x00, 0x00, 0x00, 
    0xd3, 0x61, 0x45, 0xbe, 0xdc, 0x96, 0x1a, 0xbd, 0x77, 0x0e, 0xbf, 0xbd, 
    0x74, 0x37, 0x54, 0x3e, 0x60, 0xa1, 0x9c, 0xbe, 0x86, 0x46, 0x86, 0x3e, 
    0xc2, 0x10, 0x0e, 0xbc, 0x2a, 0x59, 0x23, 0xbe, 0x69, 0x69, 0x0d, 0xbf, 
    0x3e, 0x48, 0x21, 0xbc, 0x44, 0x09, 0x10, 0x3f, 0xfc, 0x29, 0x7a, 0xbe, 
    0xf1, 0x3c, 0x69, 0xbd, 0x1e, 0x87, 0xb5, 0xbe, 0x71, 0x6d, 0xbe, 0xbe, 
    0xb5, 0x38, 0xfe, 0x3d, 0x8b, 0x86, 0xae, 0xbe, 0x6d, 0x35, 0xd4, 0x3d, 
    0x90, 0xd9, 0x34, 0xbe, 0xc9, 0x5a, 0x12, 0x3e, 0x45, 0x0d, 0xe1, 0x3e, 
    0x11, 0x42, 0xcd, 0xbe, 0x10, 0x98, 0x00, 0xbf, 0xe3, 0x28, 0x3a, 0x3e, 
    0xaa, 0x23, 0x2a, 0xbe, 0x9f, 0x7c, 0xaa, 0xbd, 0xa7, 0xfc, 0x22, 0xbe, 
    0xf9, 0xe5, 0x0c, 0xbe, 0x34, 0xf4, 0xe7, 0xbd, 0x54, 0x8e, 0xbb, 0xbb, 
    0xfb, 0xee, 0xe4, 0xbd, 0xa7, 0x3a, 0x05, 0xbe, 0xde, 0xf1, 0xff, 0xff, 
    0x04, 0x00, 0x00, 0x00, 0x00, 0x04, 0x00, 0x00, 0x0b, 0x88, 0x0b, 0xbf, 
    0x0e, 0x08, 0x83, 0xbe, 0x5e, 0x55, 0x16, 0xbf, 0xc2, 0x29, 0x3c, 0x3e, 
    0x48, 0x0c, 0x42, 0x3e, 0xc4, 0x9f, 0x4f, 0xbe, 0x97, 0xc9, 0x86, 0x3e, 
    0xab, 0x92, 0xa4, 0x3d, 0x9e, 0xa0, 0x80, 0x3e, 0x69, 0x24, 0x99, 0xbe, 
    0x7c, 0x01, 0x63, 0x3f, 0xa5, 0x38, 0xc1, 0x3d, 0x47, 0x82, 0x96, 0xbd, 
    0x60, 0x3a, 0x69, 0xbe, 0x08, 0xe0, 0x07, 0xbf, 0x6f, 0x19, 0x7c, 0xbe, 
    0x8a, 0x79, 0xb5, 0xbe, 0xcd, 0xb2, 0xf0, 0xbd, 0xfc, 0x12, 0xc0, 0xbe, 
    0x72, 0xc7, 0xac, 0xbb, 0xfc, 0x70, 0xaf, 0x3e, 0x59, 0xb6, 0xa3, 0xbe, 
    0x8f, 0x13, 0xc2, 0x3e, 0x21, 0x52, 0x15, 0xbe, 0x34, 0x9c, 0xda, 0x3d, 
    0xed, 0xaf, 0x15, 0xbf, 0x41, 0x9c, 0x20, 0x3f, 0x18, 0x86, 0xb2, 0x3d, 
    0x78, 0x0d, 0x2d, 0xbf, 0xff, 0xac, 0xf0, 0xbe, 0x46, 0x82, 0xaf, 0xbe, 
    0x32, 0xce, 0xdd, 0xbd, 0xb4, 0x7d, 0xc0, 0x3d, 0x0c, 0x69, 0xc7, 0x3d, 
    0xe2, 0xe5, 0x83, 0xbf, 0xfc, 0xf9, 0xa1, 0xbe, 0x62, 0x9d, 0x28, 0x3e, 
    0xd7, 0xd0, 0x9f, 0xbd, 0xe4, 0x1f, 0x97, 0xbe, 0x70, 0xe1, 0x86, 0x3d, 
    0xe7, 0x5b, 0x81, 0x3e, 0x21, 0x95, 0x0d, 0x3e, 0xd8, 0xc2, 0x53, 0xbf, 
    0xba, 0x04, 0x55, 0xbf, 0x07, 0x86, 0xc1, 0xbe, 0xbe, 0xdb, 0x8e, 0xbc, 
    0x7a, 0xee, 0x10, 0xbe, 0xc1, 0x48, 0x99, 0xbd, 0x87, 0x16, 0xdd, 0x3d, 
    0x9e, 0x22, 0xde, 0x3e, 0xfe, 0x04, 0x71, 0x3f, 0x6f, 0xcb, 0x66, 0xbf, 
    0x91, 0x91, 0x97, 0xbe, 0x8a, 0x0f, 0x3f, 0xbe, 0x8f, 0x5d, 0x86, 0xbe, 
    0x06, 0x33, 0xa9, 0xbe, 0xe5, 0x8b, 0xbf, 0xbe, 0x16, 0xf6, 0xe2, 0x3b, 
    0xdf, 0xe7, 0x29, 0x3e, 0x53, 0x51, 0x28, 0xbc, 0x1a, 0xf3, 0xb9, 0x3e, 
    0xed, 0xd8, 0x05, 0x3e, 0x66, 0x35, 0x91, 0x3e, 0x01, 0x13, 0xf6, 0xbd, 
    0x70, 0xad, 0x2a, 0x3e, 0x22, 0xa6, 0x9e, 0x3e, 0x81, 0x5b, 0x91, 0xbf, 
    0x4a, 0x0c, 0xda, 0x3d, 0x5e, 0x25, 0x15, 0xbe, 0xaa, 0x87, 0xd4, 0xbe, 
    0x02, 0xd0, 0x99, 0xbf, 0x3e, 0x6f, 0x7d, 0xbf, 0xfe, 0x83, 0xb2, 0x3e, 
    0x56, 0xaa, 0x5f, 0xbe, 0x52, 0xcc, 0xf3, 0x3e, 0x9d, 0x73, 0x0d, 0x3e, 
    0x07, 0x53, 0x38, 0xbe, 0x44, 0xc0, 0x86, 0x3e, 0x36, 0x74, 0xd8, 0xbd, 
    0x9a, 0xc7, 0x2f, 0x3e, 0x51, 0x80, 0x00, 0x3e, 0x93, 0xa7, 0xec, 0x3c, 
    0x3c, 0xcc, 0x1e, 0xbf, 0x3c, 0xf5, 0x37, 0xbf, 0xe5, 0xec, 0x1b, 0x3d, 
    0xdb, 0x58, 0x52, 0xbe, 0xbc, 0xca, 0xca, 0xbe, 0xa6, 0x1b, 0x13, 0x3e, 
    0xe8, 0x09, 0xa5, 0x3d, 0x75, 0xa1, 0x6f, 0xbe, 0x8e, 0x9f, 0x38, 0x3f, 
    0xc6, 0x10, 0xde, 0x3d, 0xdf, 0xfc, 0xd6, 0xbe, 0xe3, 0x3c, 0x84, 0x3e, 
    0x45, 0x5f, 0x99, 0xbe, 0x06, 0xd7, 0x72, 0xbe, 0x39, 0xb3, 0x2f, 0x3f, 
    0xbd, 0xa1, 0x75, 0xbe, 0x7f, 0x84, 0x41, 0xbc, 0x30, 0xe7, 0x1a, 0xba, 
    0xf3, 0x8b, 0xa0, 0x3e, 0x81, 0xda, 0xfc, 0xbd, 0x26, 0x3a, 0xbe, 0xbb, 
    0x17, 0x91, 0xa6, 0x3d, 0x7a, 0x4c, 0x5f, 0x3d, 0xb7, 0x66, 0x0e, 0xbd, 
    0x91, 0xb0, 0xbe, 0xbf, 0x29, 0xa2, 0x7a, 0x3c, 0x8d, 0xe9, 0xed, 0xbd, 
    0x3f, 0x21, 0x98, 0x3e, 0xe2, 0xde, 0xf7, 0xbd, 0x09, 0xac, 0x8f, 0xbe, 
    0x33, 0x63, 0xef, 0x3a, 0x1b, 0xf6, 0xb4, 0x3d, 0x5c, 0x10, 0xc8, 0xbf, 
    0x6f, 0x08, 0x8a, 0xbe, 0xa9, 0xc1, 0x9d, 0xbc, 0x60, 0x94, 0xec, 0x3d, 
    0x86, 0xc8, 0xb5, 0xbd, 0x29, 0xa3, 0x2e, 0x3e, 0x84, 0x9d, 0x5f, 0x3d, 
    0x54, 0xd3, 0x96, 0xbe, 0x6c, 0xd5, 0xb4, 0x3e, 0xfb, 0x47, 0xfe, 0xbe, 
    0x7a, 0xd4, 0x5a, 0xbf, 0xdd, 0x8c, 0x86, 0xbf, 0x91, 0xe7, 0x9b, 0xbf, 
    0x56, 0xa8, 0x8b, 0xbf, 0x49, 0x11, 0x60, 0x3f, 0xf7, 0x6a, 0xe9, 0x3c, 
    0x1d, 0xc0, 0x87, 0xbf, 0x3f, 0x26, 0xaf, 0xbc, 0x00, 0xa5, 0x30, 0x3e, 
    0x0f, 0x20, 0x11, 0x3e, 0x63, 0xde, 0xa3, 0xbe, 0x17, 0x57, 0x13, 0xbe, 
    0xfd, 0x4c, 0x02, 0x3b, 0x69, 0xd3, 0x65, 0xbe, 0xeb, 0xe3, 0x5c, 0x3f, 
    0x32, 0xab, 0x5d, 0xbf, 0x81, 0xe7, 0xe4, 0xbd, 0xb3, 0xcd, 0xed, 0xbe, 
    0x5d, 0x1f, 0xcd, 0xbf, 0x2d, 0x9e, 0xae, 0xbe, 0x34, 0x86, 0x05, 0xbf, 
    0x65, 0xcf, 0xa8, 0x3d, 0x8a, 0xe6, 0x15, 0x3e, 0x48, 0xd7, 0xd9, 0xbc, 
    0x9f, 0xe3, 0x60, 0x3e, 0x7e, 0xb0, 0x76, 0xbe, 0x83, 0x89, 0xe2, 0x3e, 
    0x89, 0x13, 0xa5, 0xbe, 0x6e, 0x03, 0x81, 0x3e, 0x58, 0xf1, 0x11, 0xbe, 
    0xc9, 0xd2, 0x35, 0x3f, 0x49, 0x97, 0x0e, 0x3e, 0xb6, 0x5e, 0x77, 0xbd, 
    0xbf, 0x62, 0x96, 0x3e, 0x18, 0xe6, 0x33, 0xbe, 0x66, 0x31, 0xaf, 0x39, 
    0x81, 0xfd, 0x2c, 0xbc, 0x4f, 0x65, 0x55, 0xbf, 0x2f, 0x5c, 0x28, 0xbf, 
    0x23, 0xf8, 0x29, 0xbf, 0xd7, 0xaa, 0x49, 0xbf, 0x6c, 0xf6, 0x57, 0xbe, 
    0xac, 0x38, 0x62, 0xbe, 0x66, 0xea, 0x07, 0xbf, 0xf6, 0x30, 0x26, 0x3e, 
    0x81, 0xcf, 0xff, 0xbd, 0x12, 0x2c, 0x8b, 0xbf, 0xee, 0xe9, 0x0d, 0xbf, 
    0x6d, 0x3e, 0xa5, 0x3d, 0x60, 0xab, 0x50, 0x3e, 0xf3, 0x69, 0x9a, 0xbe, 
    0x75, 0xee, 0x92, 0xbe, 0x52, 0x92, 0x8f, 0x3d, 0xc3, 0x42, 0x82, 0xbe, 
    0xf6, 0x81, 0xbb, 0xbf, 0xbd, 0x71, 0x86, 0xbe, 0xb8, 0xcc, 0x7a, 0xbe, 
    0x46, 0x11, 0x66, 0x3d, 0x5b, 0x5d, 0xb2, 0xbd, 0x38, 0x5c, 0x42, 0xbe, 
    0xa8, 0xcf, 0x26, 0xbd, 0xd4, 0x5b, 0x56, 0x3e, 0x2c, 0x1a, 0x6c, 0x3f, 
    0x49, 0xe1, 0xf0, 0x3c, 0xb8, 0xd8, 0xbc, 0x3e, 0x15, 0xf1, 0xbc, 0xbd, 
    0x33, 0xab, 0xb2, 0x3e, 0x9a, 0x59, 0x55, 0xbe, 0x06, 0x89, 0x28, 0x3f, 
    0x9f, 0x4f, 0x9a, 0xbe, 0xa6, 0x44, 0x46, 0x3d, 0x7f, 0xbd, 0x09, 0xbc, 
    0x18, 0xe4, 0xe6, 0x3e, 0x39, 0x51, 0x8a, 0xbe, 0xcf, 0x19, 0x8c, 0xbd, 
    0xfc, 0x09, 0x8d, 0x3e, 0x65, 0x64, 0x12, 0xbf, 0xa9, 0x5a, 0x13, 0x3e, 
    0x29, 0x83, 0x60, 0x3d, 0xb4, 0x13, 0xc5, 0xbc, 0x1b, 0xb6, 0x56, 0x3e, 
    0x3f, 0x90, 0x5d, 0xbe, 0xff, 0x42, 0xc6, 0x3d, 0xde, 0x0a, 0xae, 0xbc, 
    0x51, 0xb5, 0x60, 0x3f, 0x8e, 0xda, 0x18, 0x3d, 0xb1, 0xfe, 0x34, 0x3d, 
    0xca, 0x4c, 0xa5, 0xbc, 0xd4, 0x6f, 0x85, 0x3e, 0x08, 0xca, 0xc9, 0x3d, 
    0x1a, 0xe7, 0x26, 0xbe, 0xd0, 0x3b, 0x43, 0xbe, 0xfa, 0x32, 0x69, 0x3f, 
    0x69, 0x6a, 0x92, 0xbe, 0x9c, 0x2c, 0xd7, 0xbe, 0xdb, 0x4b, 0xa9, 0x3c, 
    0xea, 0xe4, 0xe1, 0x3e, 0xd5, 0x10, 0xea, 0x3c, 0x2b, 0xb7, 0xad, 0x3d, 
    0x73, 0xb0, 0x1f, 0xbe, 0x31, 0x60, 0xcc, 0xbe, 0x92, 0x5e, 0xa3, 0x3d, 
    0xe9, 0xb8, 0xcc, 0xbd, 0xad, 0x9e, 0x83, 0xbe, 0x7a, 0xb6, 0x8a, 0xbd, 
    0x00, 0x8b, 0x0f, 0x3e, 0x67, 0x04, 0x20, 0xbe, 0x1a, 0xb1, 0xed, 0x3d, 
    0xf4, 0x0f, 0x4f, 0x3e, 0x85, 0xa0, 0x3a, 0x3e, 0x8d, 0x45, 0x5d, 0x3f, 
    0x7f, 0x9f, 0xec, 0x3d, 0x9f, 0x63, 0xd8, 0xbe, 0xe8, 0x9d, 0x16, 0xbf, 
    0x92, 0xa0, 0x33, 0xbf, 0x00, 0x9e, 0x81, 0xbd, 0x9e, 0xb8, 0x0b, 0x3d, 
    0xc5, 0x8a, 0x17, 0xbe, 0xdc, 0x0c, 0x47, 0xbf, 0x4c, 0xb5, 0xb3, 0x3d, 
    0x3e, 0x4f, 0x92, 0xbe, 0x2d, 0x74, 0xa8, 0xbf, 0x7d, 0x61, 0xb6, 0xbf, 
    0x96, 0x22, 0x86, 0xbf, 0xef, 0xe1, 0x23, 0xbf, 0xf0, 0x85, 0x76, 0x3c, 
    0x77, 0x2d, 0x96, 0x3e, 0x9e, 0x65, 0x73, 0x3d, 0x28, 0xf2, 0x30, 0x3e, 
    0xb9, 0x18, 0x33, 0xbd, 0x32, 0x1c, 0x9c, 0x3d, 0xfe, 0x8e, 0x69, 0xbd, 
    0xea, 0xf5, 0xff, 0xff, 0x04, 0x00, 0x00, 0x00, 0x00, 0x08, 0x00, 0x00, 
    0x32, 0x85, 0x8c, 0x3e, 0xf8, 0xeb, 0xa5, 0xbc, 0x2f, 0x76, 0xae, 0x3e, 
    0xa8, 0xca, 0x88, 0x3c, 0x3a, 0x95, 0xb8, 0xbb, 0x1c, 0x60, 0x8a, 0xbd, 
    0xbd, 0x9b, 0x05, 0xbe, 0x58, 0xdf, 0x7f, 0x3e, 0x0d, 0x62, 0xbd, 0xbe, 
    0xea, 0xbc, 0x62, 0x3e, 0x23, 0x4e, 0x10, 0xbe, 0xfe, 0x3b, 0x7f, 0xbe, 
    0x09, 0x03, 0x19, 0x3f, 0x9b, 0x8e, 0x56, 0x3d, 0xcd, 0x85, 0xea, 0x3d, 
    0x8c, 0x6f, 0x0e, 0xbf, 0x74, 0xf5, 0xcd, 0x3e, 0x13, 0xa3, 0xa5, 0xbe, 
    0xa9, 0xd7, 0xbf, 0x3e, 0xe8, 0xb0, 0x66, 0xbd, 0x4e, 0x9e, 0xdd, 0xbd, 
    0x82, 0xcd, 0x95, 0xbd, 0x83, 0x96, 0x63, 0xbe, 0x48, 0x7b, 0x51, 0x3c, 
    0x47, 0xb5, 0xba, 0x3e, 0x08, 0x23, 0x3b, 0x3e, 0x0d, 0x78, 0x09, 0x3f, 
    0xeb, 0x51, 0x6f, 0x3e, 0x9b, 0xe3, 0xb2, 0x3d, 0xb9, 0xab, 0x73, 0x3d, 
    0x3f, 0x25, 0x7c, 0xbe, 0xb7, 0xf5, 0x88, 0x3e, 0x52, 0xd2, 0x36, 0xbd, 
    0x7b, 0x92, 0x08, 0x3c, 0x1c, 0x77, 0xff, 0x3d, 0x53, 0x6c, 0x28, 0xbe, 
    0x4c, 0x59, 0x7c, 0x3d, 0x8c, 0x32, 0xbb, 0xbe, 0x6b, 0x6f, 0xfd, 0x3d, 
    0x3e, 0xb0, 0x9b, 0xbe, 0x5a, 0xc6, 0xc6, 0xbe, 0x97, 0xbd, 0xbc, 0xbe, 
    0x92, 0xa8, 0x59, 0xbe, 0x24, 0xb3, 0x08, 0x3e, 0xd7, 0xa9, 0x81, 0xbe, 
    0x2e, 0x5f, 0x9d, 0xbe, 0x4c, 0xf2, 0x63, 0xbe, 0x14, 0x9b, 0xd1, 0xbe, 
    0xeb, 0x62, 0x0d, 0x3e, 0x79, 0x69, 0x92, 0xbe, 0xcf, 0x6d, 0xb1, 0xbd, 
    0x8e, 0x52, 0x5d, 0xbe, 0x7b, 0x81, 0xb5, 0xbe, 0x9b, 0xb2, 0x73, 0xbd, 
    0x16, 0xa6, 0x32, 0xbe, 0x53, 0x7c, 0xf6, 0x3d, 0xf9, 0xd8, 0x11, 0x3e, 
    0x14, 0xa3, 0x33, 0xbe, 0x9a, 0xa6, 0x0f, 0xbd, 0xa2, 0xa5, 0x1f, 0xbe, 
    0x16, 0xd0, 0xc1, 0xbe, 0x36, 0x41, 0xa1, 0xbe, 0xee, 0x55, 0x46, 0x3e, 
    0x00, 0xac, 0x8f, 0xbc, 0x47, 0x1e, 0xfb, 0x3d, 0x74, 0xf6, 0x2f, 0xbe, 
    0x16, 0xa4, 0xe3, 0xbc, 0x81, 0xc5, 0x48, 0x3d, 0x98, 0x8f, 0x2e, 0xbe, 
    0x59, 0xf6, 0x77, 0x3d, 0x77, 0x70, 0x3e, 0xbe, 0x98, 0x07, 0x46, 0x3e, 
    0xa7, 0x10, 0xf3, 0xbd, 0xbc, 0x89, 0x43, 0xbe, 0xd5, 0xee, 0xab, 0x3e, 
    0x2d, 0x0d, 0x22, 0xbe, 0x64, 0xc3, 0xb0, 0x3e, 0xc1, 0xd8, 0x0e, 0xbe, 
    0x72, 0x74, 0x45, 0xbe, 0x15, 0x47, 0x06, 0xbf, 0xc8, 0x00, 0x24, 0x3f, 
    0x2b, 0xec, 0x92, 0xbe, 0xc3, 0x96, 0x98, 0x3e, 0x68, 0x6d, 0xbe, 0x3d, 
    0x85, 0x4d, 0xd4, 0xbd, 0xff, 0xe3, 0x89, 0x3c, 0xb9, 0x25, 0xbe, 0xbe, 
    0xcc, 0xf6, 0x77, 0x3e, 0x89, 0x31, 0x0f, 0x3f, 0x73, 0x32, 0x5e, 0x3e, 
    0x7e, 0xfe, 0x30, 0x3f, 0x1e, 0x9d, 0x87, 0x3e, 0x71, 0x24, 0x65, 0x3d, 
    0x8f, 0xf5, 0x82, 0xbe, 0x84, 0x6a, 0xd3, 0xbe, 0x4a, 0x54, 0x5e, 0x3e, 
    0x35, 0x47, 0xf9, 0x3d, 0x43, 0x8d, 0xe3, 0x3d, 0x41, 0x16, 0x88, 0x3e, 
    0xd4, 0xb2, 0x35, 0xbe, 0xb0, 0xc1, 0x01, 0x3f, 0x64, 0xc5, 0xa0, 0x3e, 
    0x6e, 0xa5, 0x30, 0x3e, 0xda, 0x73, 0x22, 0x3e, 0x28, 0x49, 0xc8, 0x3e, 
    0x97, 0x58, 0x25, 0x3e, 0x7d, 0x68, 0x04, 0x3e, 0xb5, 0xc0, 0x7b, 0xbd, 
    0xb0, 0x5a, 0xff, 0x3d, 0xbc, 0xb7, 0x82, 0x3e, 0x85, 0x94, 0xb6, 0x3e, 
    0xb0, 0x27, 0xad, 0xbe, 0x8c, 0x47, 0x6d, 0x3f, 0x26, 0x4a, 0x25, 0xbf, 
    0x71, 0xd9, 0x12, 0x3e, 0x2c, 0x64, 0x3b, 0xbd, 0xff, 0x86, 0x49, 0xbd, 
    0xe7, 0x4b, 0x72, 0x3f, 0xf8, 0x36, 0x33, 0x3f, 0xc0, 0xd7, 0x5e, 0xbd, 
    0xb3, 0x38, 0x16, 0x3f, 0xb6, 0xb1, 0x8a, 0x3e, 0x9d, 0xb1, 0x37, 0x3f, 
    0xff, 0x45, 0x4f, 0x3e, 0xe3, 0xe1, 0x87, 0xbd, 0x63, 0xd4, 0x00, 0x3e, 
    0xac, 0x08, 0xdd, 0xbd, 0xe7, 0x06, 0x2d, 0x3e, 0xfa, 0x2f, 0x1c, 0xbc, 
    0x25, 0x05, 0x5c, 0xbe, 0x21, 0x9d, 0xe0, 0x3e, 0x18, 0x53, 0x2f, 0xbe, 
    0x7b, 0xa5, 0xea, 0x3d, 0xb2, 0x4c, 0x5d, 0x3f, 0xd9, 0xdb, 0x5d, 0xbe, 
    0xd2, 0xe8, 0x20, 0xbe, 0x38, 0x06, 0xe4, 0x3e, 0xab, 0x65, 0x14, 0xbf, 
    0x60, 0x19, 0x1f, 0x3f, 0x00, 0x3f, 0xbd, 0xbe, 0xd5, 0xf0, 0x47, 0xbe, 
    0xfa, 0x13, 0xb0, 0xbc, 0xc2, 0x3c, 0x60, 0x3e, 0xb3, 0x80, 0xb4, 0x3e, 
    0x4e, 0xe3, 0x8e, 0xbb, 0x56, 0xc7, 0x13, 0xbe, 0x85, 0x00, 0x4f, 0xbc, 
    0xfd, 0x62, 0xf4, 0xbe, 0x1d, 0x86, 0x37, 0x3f, 0x90, 0x4d, 0x43, 0x3f, 
    0x57, 0x0f, 0x1a, 0x3f, 0xf7, 0x5b, 0xa4, 0xbc, 0x74, 0xe6, 0x69, 0xbe, 
    0x6f, 0x38, 0x91, 0xbd, 0x69, 0x6c, 0x91, 0xbd, 0xbf, 0x32, 0x30, 0x3e, 
    0x3d, 0x71, 0x7a, 0x3e, 0x33, 0x54, 0x8f, 0xbe, 0x30, 0xdc, 0x65, 0x3f, 
    0xe9, 0x02, 0xf0, 0xbd, 0x52, 0xaf, 0xa0, 0x3d, 0x2c, 0x1b, 0x0c, 0xbf, 
    0xf3, 0x47, 0x37, 0xbe, 0x0a, 0xbe, 0x87, 0x3e, 0x28, 0x32, 0x7d, 0xbf, 
    0xe6, 0x11, 0x11, 0x3f, 0x5c, 0x8c, 0xf5, 0xbe, 0xf0, 0x47, 0x5b, 0xbe, 
    0x54, 0xa6, 0x80, 0xbf, 0x05, 0xd1, 0x90, 0xbe, 0x82, 0xcd, 0x9a, 0x3e, 
    0xf9, 0x0c, 0x25, 0xbf, 0x9c, 0xf8, 0x9b, 0xbc, 0x18, 0xb8, 0x68, 0xbf, 
    0x7b, 0x9d, 0x9b, 0xbf, 0x73, 0x95, 0x41, 0x3e, 0x26, 0x99, 0x87, 0xbf, 
    0x92, 0x63, 0x0d, 0x3e, 0x8d, 0x67, 0x63, 0x3d, 0x96, 0x9b, 0xc6, 0xbe, 
    0x7b, 0x2a, 0x44, 0x3f, 0xbe, 0xa2, 0x53, 0xbf, 0xaf, 0x2a, 0x8c, 0xbf, 
    0x2c, 0x31, 0x26, 0xbf, 0x50, 0x54, 0xf1, 0x3c, 0xe2, 0xb0, 0x9f, 0x3b, 
    0x9a, 0x0e, 0xac, 0xbd, 0x9c, 0x3c, 0x8c, 0xbd, 0xdc, 0xd8, 0x1b, 0xbd, 
    0x0c, 0xef, 0xdb, 0xbe, 0xa2, 0xe5, 0x7d, 0x3e, 0x68, 0x12, 0x8b, 0x3d, 
    0xb1, 0x67, 0x25, 0xbe, 0x92, 0xa2, 0x79, 0xbf, 0x87, 0x4a, 0x94, 0xbe, 
    0x68, 0x8a, 0x82, 0x3e, 0x61, 0x6e, 0x5f, 0xbf, 0x6a, 0x00, 0x4e, 0x3e, 
    0x6e, 0x00, 0x24, 0xbf, 0x5c, 0x84, 0xa2, 0x3d, 0x22, 0x2b, 0x6f, 0xbf, 
    0xc4, 0xed, 0x20, 0xbf, 0x54, 0xad, 0xaf, 0x3e, 0xff, 0xb4, 0x3b, 0xbf, 
    0x78, 0x32, 0x54, 0x3e, 0x02, 0xe1, 0x7f, 0xbf, 0x1e, 0xd5, 0x1f, 0xbf, 
    0x01, 0x57, 0xc3, 0x3e, 0xe8, 0x74, 0x0a, 0xbf, 0xac, 0x98, 0xad, 0x3e, 
    0xcc, 0xf6, 0x5a, 0xbd, 0x99, 0xdb, 0x7f, 0xbf, 0x65, 0x7e, 0x42, 0x3e, 
    0x46, 0xc7, 0x39, 0xbf, 0x3a, 0xe4, 0x2a, 0xbf, 0xe0, 0xc7, 0xb4, 0xbe, 
    0xf5, 0x78, 0x09, 0x3f, 0x54, 0xaf, 0x0b, 0x3e, 0x13, 0xa4, 0x1c, 0x3e, 
    0xe9, 0x9f, 0xb6, 0xbe, 0xf5, 0xd1, 0xf0, 0x3c, 0x3d, 0x2d, 0x90, 0xbf, 
    0x42, 0x81, 0xab, 0x3d, 0x65, 0xa6, 0xc8, 0x3d, 0x9b, 0x6b, 0x95, 0x3e, 
    0x6e, 0x89, 0x48, 0xbd, 0xcb, 0x03, 0x18, 0x3e, 0x88, 0x81, 0xc4, 0xbe, 
    0x53, 0x97, 0x1d, 0x3f, 0x21, 0x71, 0x66, 0x3e, 0x86, 0xa4, 0x07, 0x3e, 
    0x6f, 0xbc, 0x88, 0x3e, 0xf6, 0x5d, 0xb9, 0x3e, 0x51, 0x12, 0xbc, 0xbe, 
    0xac, 0xd3, 0x20, 0x3e, 0x76, 0xec, 0x26, 0x3d, 0x6c, 0xc7, 0x3d, 0x3b, 
    0xa8, 0x6b, 0x37, 0x3f, 0x71, 0xf6, 0x30, 0x3f, 0x75, 0x9f, 0x9a, 0xbe, 
    0x2a, 0x36, 0x1a, 0x3f, 0x06, 0xa6, 0xaa, 0xbe, 0x33, 0x99, 0x17, 0x3e, 
    0x31, 0x6b, 0x55, 0xbe, 0xc4, 0xe2, 0x92, 0xbd, 0x48, 0x0a, 0x82, 0x3f, 
    0x97, 0x8d, 0x82, 0x3f, 0x3a, 0xb0, 0x9b, 0x3e, 0x36, 0xf1, 0x36, 0x3f, 
    0x7d, 0x47, 0x17, 0x3d, 0x8a, 0x6c, 0xaa, 0x3e, 0x08, 0x04, 0x75, 0x3e, 
    0x01, 0xde, 0xc6, 0xbd, 0xa1, 0x97, 0x0a, 0xbe, 0x2f, 0x01, 0xa2, 0x3d, 
    0x4b, 0xf3, 0x18, 0x3e, 0xa2, 0x45, 0x87, 0xbe, 0xf8, 0xfd, 0xab, 0x3d, 
    0x8b, 0xf3, 0xfc, 0xbe, 0x88, 0x4e, 0x21, 0x3f, 0x51, 0x2e, 0x11, 0xbf, 
    0xd0, 0xd5, 0x40, 0x3d, 0xf1, 0xbf, 0x1f, 0x3f, 0xad, 0x41, 0xe4, 0xbe, 
    0xd5, 0x51, 0x8c, 0xbd, 0x14, 0x3b, 0xde, 0xbd, 0x1f, 0x6d, 0xe9, 0x3c, 
    0x7e, 0x0b, 0x65, 0x3e, 0xab, 0x72, 0xf9, 0xbd, 0xca, 0xdf, 0x0b, 0xbf, 
    0x88, 0x35, 0x1c, 0xbf, 0xe2, 0x56, 0x6c, 0x3f, 0x68, 0x91, 0x18, 0xbf, 
    0xa3, 0xed, 0x49, 0x3f, 0x28, 0x0a, 0xe4, 0xbe, 0x4b, 0x54, 0x34, 0xbd, 
    0x38, 0xa3, 0x14, 0x3c, 0xbc, 0xe3, 0x04, 0xbf, 0xff, 0x37, 0x08, 0xbf, 
    0x34, 0x71, 0x0a, 0x3e, 0x06, 0x5f, 0x0d, 0xbf, 0x8a, 0x43, 0xba, 0xbe, 
    0x52, 0x38, 0xb2, 0xbe, 0x36, 0x72, 0x06, 0xbf, 0xa3, 0x2c, 0xa9, 0xbe, 
    0x17, 0x35, 0x30, 0x3e, 0x31, 0x00, 0x61, 0xbe, 0xb3, 0x30, 0xa2, 0xbd, 
    0xfe, 0xd1, 0x7d, 0x3d, 0x64, 0x56, 0x69, 0x3c, 0xdc, 0xe8, 0xfe, 0x3e, 
    0xa8, 0x50, 0x6f, 0xbe, 0x15, 0xc4, 0x5c, 0x3d, 0x21, 0x50, 0xf4, 0xbd, 
    0xce, 0x0e, 0x97, 0xbe, 0x5b, 0xe2, 0xdc, 0x3d, 0xae, 0x54, 0x41, 0xbe, 
    0x43, 0xcc, 0xa4, 0x3e, 0x2d, 0xa1, 0x63, 0x3d, 0x54, 0x56, 0x48, 0xbe, 
    0xb6, 0x69, 0xc6, 0x3e, 0xf5, 0xf3, 0x7a, 0xbd, 0xe4, 0xed, 0x07, 0x3c, 
    0x7c, 0x48, 0x5c, 0xbf, 0xd5, 0x27, 0xb9, 0x3e, 0xeb, 0x85, 0x13, 0xbf, 
    0x82, 0x84, 0x0c, 0x3f, 0xe3, 0x36, 0xc3, 0x3c, 0x01, 0xe6, 0x0a, 0xbe, 
    0x97, 0x61, 0x9b, 0xbe, 0x86, 0xbd, 0x32, 0xbe, 0xe3, 0x8c, 0x92, 0x3d, 
    0xd7, 0xba, 0x5a, 0x3f, 0xe9, 0x0a, 0xd8, 0x3e, 0x38, 0x41, 0xe7, 0x3e, 
    0x5c, 0xde, 0x9f, 0x3e, 0xc0, 0xee, 0xdc, 0x3e, 0x68, 0x4d, 0x91, 0x3e, 
    0x3f, 0x6c, 0x02, 0xbf, 0x7e, 0x5a, 0x65, 0x3d, 0xef, 0x66, 0xe4, 0x3d, 
    0x81, 0x4e, 0xb0, 0x3e, 0x22, 0x51, 0xf6, 0x3e, 0x76, 0xac, 0x98, 0x3e, 
    0xbb, 0x74, 0xe7, 0xbd, 0x9e, 0xb0, 0x06, 0xbe, 0x41, 0xf8, 0x81, 0x3f, 
    0xcc, 0xee, 0x07, 0xbd, 0x61, 0x1c, 0x8b, 0x3c, 0x46, 0x8e, 0x30, 0x3c, 
    0x85, 0x0c, 0xa1, 0xbe, 0xea, 0x89, 0xf1, 0x3e, 0x48, 0xd5, 0xc8, 0x3d, 
    0x90, 0x90, 0x8f, 0x3e, 0xa4, 0x37, 0x8d, 0x3d, 0xe3, 0x20, 0xb2, 0x3d, 
    0x70, 0x0d, 0x11, 0x3f, 0x93, 0x6d, 0xa8, 0x3e, 0xf1, 0x1b, 0x95, 0x3d, 
    0x32, 0x5b, 0x76, 0x3e, 0x05, 0x22, 0xaa, 0xbe, 0x58, 0x22, 0x9a, 0xbe, 
    0xd0, 0x10, 0x36, 0xbe, 0x1c, 0x48, 0xd3, 0x3e, 0x20, 0x4a, 0xa7, 0x3e, 
    0xd4, 0x65, 0x28, 0xbd, 0x32, 0xb6, 0x25, 0x3e, 0xb1, 0x1c, 0x85, 0x3e, 
    0x06, 0xab, 0x81, 0x3e, 0xe0, 0x38, 0xab, 0x3d, 0x8f, 0x10, 0x3c, 0xbf, 
    0x76, 0xc3, 0xa2, 0x3d, 0x0a, 0x0a, 0x18, 0x3d, 0x71, 0x5a, 0x98, 0x3e, 
    0x16, 0x7b, 0xbb, 0xbc, 0x3e, 0x53, 0xed, 0xbd, 0x09, 0x4f, 0xaf, 0x3e, 
    0xf1, 0x1a, 0x39, 0xbf, 0xa3, 0x16, 0x02, 0x3f, 0x30, 0x02, 0xda, 0xbe, 
    0xb8, 0x12, 0x51, 0xbe, 0x0a, 0xf7, 0x8a, 0x3e, 0x1a, 0xa3, 0xf9, 0xbd, 
    0x58, 0x05, 0xf5, 0x3e, 0x1b, 0x7c, 0xef, 0xbe, 0xe5, 0x1c, 0x95, 0x3e, 
    0x8a, 0x6c, 0xa8, 0xbd, 0x82, 0x51, 0x06, 0x3f, 0xef, 0x74, 0xbe, 0xbe, 
    0x9d, 0xe0, 0x3b, 0x3f, 0x9c, 0xb3, 0x2e, 0xbe, 0x78, 0x35, 0xa7, 0x3e, 
    0x5b, 0xf7, 0x19, 0xbf, 0x18, 0x7d, 0x71, 0xbe, 0x8f, 0x9f, 0x2e, 0xbe, 
    0x33, 0xcd, 0x0f, 0x3e, 0x0e, 0x50, 0x6f, 0xbe, 0xd4, 0xdd, 0x00, 0xbf, 
    0x12, 0x2c, 0x6c, 0xbd, 0x0a, 0xd4, 0x76, 0xbd, 0xef, 0x6e, 0xcc, 0xbe, 
    0xe3, 0xfb, 0x61, 0x3e, 0x9a, 0xff, 0x52, 0x3d, 0x31, 0xe9, 0x74, 0x3e, 
    0x84, 0xcb, 0x9f, 0x3c, 0x96, 0xb3, 0x99, 0xbe, 0x31, 0x67, 0x7e, 0x3e, 
    0xe8, 0x15, 0xee, 0xbe, 0xd3, 0xb9, 0xac, 0x3e, 0xee, 0x9c, 0xa2, 0x3e, 
    0x5b, 0x26, 0x91, 0xbe, 0xbb, 0x12, 0x90, 0xbe, 0x12, 0x9f, 0x04, 0x3f, 
    0x38, 0xdd, 0xf2, 0xbd, 0xa8, 0xf3, 0xd8, 0x3d, 0x64, 0x47, 0x97, 0x3d, 
    0x3b, 0x97, 0x1c, 0xbf, 0x97, 0x7e, 0x72, 0x3e, 0xd3, 0xae, 0xa6, 0x3e, 
    0x37, 0x25, 0xdb, 0x3d, 0x3f, 0x81, 0xb3, 0x3e, 0x43, 0x69, 0x0a, 0xbf, 
    0xdb, 0x45, 0xc8, 0xbd, 0x76, 0x86, 0xb3, 0xbe, 0x85, 0x52, 0x89, 0x3d, 
    0xd1, 0x2f, 0xc7, 0x3e, 0xca, 0x3e, 0x0d, 0x3e, 0x85, 0x6a, 0xca, 0xbe, 
    0x82, 0x65, 0xda, 0xbd, 0x5c, 0xd2, 0x8c, 0xbe, 0x71, 0x9c, 0x01, 0xbf, 
    0xa2, 0xdc, 0x17, 0x3d, 0x20, 0x34, 0x48, 0xbe, 0x2b, 0x96, 0x2e, 0x3e, 
    0x0b, 0xc6, 0xaa, 0x3e, 0xd5, 0x53, 0xdc, 0xbe, 0xdb, 0x77, 0xa7, 0x3d, 
    0x1d, 0xca, 0x52, 0xbe, 0xf2, 0x68, 0xd3, 0x3b, 0x46, 0xdf, 0x1c, 0xbf, 
    0xf5, 0x7c, 0x05, 0x3f, 0x54, 0x60, 0xc9, 0x3e, 0x8e, 0x75, 0x40, 0x3d, 
    0x23, 0x12, 0x70, 0xbe, 0xfb, 0x9b, 0x14, 0x3f, 0xca, 0xd0, 0xad, 0xbd, 
    0x80, 0xef, 0x77, 0x3e, 0xe7, 0x15, 0xb9, 0xbe, 0x85, 0x15, 0x55, 0xbe, 
    0x48, 0xb2, 0xdc, 0x3e, 0x4f, 0x5c, 0x25, 0x3e, 0xff, 0xd9, 0x5e, 0x3e, 
    0x3d, 0xc0, 0x08, 0x3e, 0xc1, 0x2a, 0x27, 0xbf, 0x8e, 0x99, 0x50, 0xbe, 
    0xf6, 0x28, 0x84, 0x3c, 0xa4, 0x81, 0x3d, 0x3e, 0x4a, 0xb2, 0xc8, 0x3e, 
    0x5d, 0xc7, 0x0b, 0x3f, 0x0d, 0xcd, 0x8f, 0xbe, 0x2a, 0xb5, 0x8c, 0xbd, 
    0x2c, 0xe3, 0xfb, 0xbe, 0x01, 0xaa, 0x3e, 0xbd, 0x61, 0x4b, 0xbd, 0xbe, 
    0x64, 0x97, 0x93, 0xbe, 0x65, 0x6f, 0xbb, 0xbe, 0x5f, 0xf6, 0x57, 0x3e, 
    0xaf, 0xe0, 0x7f, 0xbe, 0xc6, 0x22, 0xf8, 0xbd, 0x77, 0x26, 0x2d, 0xbf, 
    0x9c, 0x07, 0xca, 0x3d, 0x94, 0x06, 0x97, 0xbe, 0x73, 0xb9, 0xb6, 0x3e, 
    0xcf, 0x58, 0x18, 0x3f, 0x27, 0x05, 0x70, 0xbe, 0x49, 0xff, 0x80, 0xbd, 
    0xb0, 0x00, 0x1b, 0x3f, 0x81, 0x95, 0x2c, 0xbf, 0x1a, 0xaf, 0xd4, 0x3e, 
    0xdc, 0x5c, 0x2f, 0xbf, 0xc6, 0xc1, 0x60, 0xbe, 0x0a, 0xf5, 0x79, 0x3e, 
    0x4f, 0x71, 0x2b, 0xbe, 0x79, 0xd1, 0x29, 0x3f, 0xed, 0xb9, 0x85, 0xbc, 
    0x4c, 0x5b, 0x2e, 0xbe, 0x45, 0x30, 0xe2, 0xbe, 0x11, 0x30, 0x19, 0xbf, 
    0x9b, 0xf9, 0x64, 0x3e, 0xd9, 0x07, 0x8c, 0x3e, 0xd7, 0x11, 0x07, 0x3f, 
    0xc7, 0x78, 0x02, 0xbf, 0x92, 0xfc, 0x4f, 0xbc, 0x8b, 0x56, 0xde, 0xbe, 
    0x39, 0xc9, 0xe2, 0xbe, 0xa6, 0xf7, 0x74, 0xbe, 0x2c, 0xfd, 0x76, 0xbe, 
    0xc2, 0xeb, 0xd7, 0xbe, 0xe6, 0xe7, 0x80, 0x3f, 0x4d, 0xed, 0x86, 0xbe, 
    0xf3, 0x1a, 0xd9, 0xbd, 0x71, 0x2f, 0x4b, 0x3e, 0x68, 0x53, 0x2e, 0xbe, 
    0xb9, 0x9c, 0x03, 0x3f, 0x4b, 0x70, 0xd7, 0xbd, 0x28, 0x34, 0x94, 0x3e, 
    0x31, 0xb4, 0x43, 0x3e, 0x67, 0x51, 0x92, 0xbe, 0xc0, 0x61, 0x29, 0xbc, 
    0xa5, 0x99, 0xc6, 0xbe, 0xd9, 0x83, 0x51, 0x3e, 0xad, 0xff, 0x16, 0xbe, 
    0x47, 0x8d, 0x95, 0xbe, 0x21, 0xf8, 0x8a, 0xbe, 0x6b, 0x27, 0x54, 0xbe, 
    0x02, 0x90, 0xb8, 0x3f, 0xf2, 0x94, 0xd4, 0xbe, 0x8f, 0x64, 0x49, 0x3f, 
    0x7a, 0x37, 0x28, 0xbe, 0x53, 0x7b, 0xc0, 0x3c, 0xae, 0x50, 0xe5, 0x3e, 
    0xbf, 0x9a, 0xe1, 0x3d, 0xf7, 0x06, 0xfd, 0xbe, 0x22, 0x42, 0xa9, 0xbe, 
    0xa6, 0x15, 0xb3, 0xbd, 0x86, 0x16, 0x10, 0xbd, 0x50, 0x1f, 0x5d, 0xbe, 
    0x50, 0xfd, 0xaa, 0xbc, 0x6b, 0xbd, 0xdf, 0x3c, 0xe4, 0xf2, 0x29, 0x3e, 
    0x61, 0x3a, 0x1e, 0x3f, 0xbb, 0xa5, 0x94, 0xbd, 0xf6, 0xfd, 0xff, 0xff, 
    0x04, 0x00, 0x00, 0x00, 0x00, 0x01, 0x00, 0x00, 0x27, 0xfc, 0x35, 0x3f, 
    0x52, 0xe4, 0x76, 0xbe, 0xd1, 0xdb, 0xd3, 0x3e, 0x9c, 0xa8, 0xe2, 0x3e, 
    0x74, 0x68, 0x6a, 0x3e, 0xed, 0x0e, 0xa5, 0xbe, 0x3e, 0x06, 0x88, 0x3d, 
    0x3b, 0xcb, 0x12, 0x3f, 0x72, 0x6f, 0x4c, 0xbe, 0xa0, 0x76, 0x00, 0x3f, 
    0xb2, 0x68, 0xd2, 0x3e, 0x6f, 0xd5, 0xcd, 0xbe, 0x1c, 0xfe, 0x81, 0xbe, 
    0xe9, 0xff, 0xa9, 0xbe, 0xed, 0xb1, 0x5b, 0xbf, 0x35, 0x05, 0x15, 0xbf, 
    0x27, 0x0f, 0x16, 0xbe, 0x64, 0xcf, 0xbd, 0x3e, 0x2e, 0x13, 0xec, 0xbe, 
    0xa1, 0xb1, 0xa2, 0x3e, 0x0c, 0xfe, 0x27, 0x3f, 0x5a, 0xfe, 0xe4, 0xbe, 
    0xca, 0xa3, 0x98, 0xbf, 0x96, 0xfe, 0x11, 0x3f, 0x57, 0x22, 0xdb, 0xbf, 
    0x09, 0x6f, 0x50, 0xbe, 0xba, 0xa3, 0x02, 0xbf, 0x45, 0x03, 0x05, 0xbf, 
    0x66, 0x02, 0x68, 0x3f, 0x9c, 0xc2, 0x19, 0x3f, 0xcb, 0x98, 0x75, 0x3e, 
    0xa2, 0x49, 0xe7, 0x3e, 0x9a, 0xf9, 0xa1, 0x3d, 0xdc, 0xea, 0x0c, 0x3e, 
    0xa2, 0x5b, 0x4b, 0xbe, 0xc6, 0x57, 0x91, 0xbf, 0x77, 0x24, 0x00, 0x3f, 
    0xde, 0x44, 0x88, 0x3f, 0xe1, 0xba, 0x7f, 0x3f, 0xcf, 0xc6, 0x2a, 0xbf, 
    0x3c, 0xbf, 0x07, 0x3f, 0xad, 0xa8, 0xe3, 0xbc, 0xef, 0x95, 0x59, 0xbf, 
    0x7f, 0x45, 0x89, 0xbf, 0xb0, 0x89, 0xf5, 0xbf, 0xb4, 0x7c, 0xdf, 0xbe, 
    0x2c, 0xeb, 0x6d, 0x3c, 0xbf, 0xcf, 0x35, 0x3f, 0xba, 0x9a, 0x9b, 0xbe, 
    0x1a, 0x81, 0x9d, 0xbd, 0xbb, 0xf4, 0x2f, 0xbf, 0xcf, 0x9b, 0x26, 0xbf, 
    0xe3, 0x2d, 0x97, 0xbf, 0x3d, 0xe6, 0x86, 0xbf, 0x5e, 0x2b, 0x85, 0xbf, 
    0x9e, 0x5f, 0xd3, 0xbe, 0x0a, 0x5b, 0x82, 0x3f, 0xad, 0xd4, 0x40, 0xbe, 
    0xe1, 0x50, 0x13, 0x3f, 0x97, 0xf0, 0x13, 0x3f, 0x41, 0x17, 0x79, 0xbf, 
    0x91, 0x9c, 0x72, 0xbf, 0x04, 0x13, 0x06, 0xc0, 0x2e, 0xfa, 0x76, 0x3f, 
    0x02, 0xff, 0xff, 0xff, 0x04, 0x00, 0x00, 0x00, 0x10, 0x00, 0x00, 0x00, 
    0x3d, 0x35, 0xc4, 0xbe, 0x1a, 0x94, 0x74, 0xbf, 0x87, 0x9c, 0x33, 0x3f, 
    0xda, 0x90, 0x66, 0x3f, 0x1e, 0xff, 0xff, 0xff, 0x04, 0x00, 0x00, 0x00, 
    0x40, 0x00, 0x00, 0x00, 0x67, 0xe8, 0x47, 0x3d, 0xc3, 0x43, 0x5a, 0xbe, 
    0x08, 0xee, 0x89, 0x3e, 0xa1, 0x2c, 0x4c, 0xbe, 0xde, 0x7c, 0x10, 0x3f, 
    0x62, 0x95, 0x00, 0x3f, 0x92, 0xb6, 0x47, 0x3f, 0x2f, 0xdf, 0x4b, 0xbe, 
    0x65, 0xc7, 0xc1, 0x3e, 0x83, 0x35, 0x2c, 0xbc, 0xcf, 0xac, 0x80, 0xbe, 
    0x20, 0x6b, 0x27, 0xbf, 0x7a, 0xcf, 0x08, 0xbf, 0xca, 0x92, 0x0b, 0xbf, 
    0x94, 0x5d, 0x0b, 0x3f, 0x19, 0xfe, 0x11, 0x3f, 0x0c, 0xfa, 0xff, 0xff, 
    0x10, 0xfa, 0xff, 0xff, 0x0f, 0x00, 0x00, 0x00, 0x4d, 0x4c, 0x49, 0x52, 
    0x20, 0x43, 0x6f, 0x6e, 0x76, 0x65, 0x72, 0x74, 0x65, 0x64, 0x2e, 0x00, 
    0x01, 0x00, 0x00, 0x00, 0x14, 0x00, 0x00, 0x00, 0x00, 0x00, 0x0e, 0x00, 
    0x18, 0x00, 0x14, 0x00, 0x10, 0x00, 0x0c, 0x00, 0x08, 0x00, 0x04, 0x00, 
    0x0e, 0x00, 0x00, 0x00, 0x14, 0x00, 0x00, 0x00, 0x1c, 0x00, 0x00, 0x00, 
    0x34, 0x01, 0x00, 0x00, 0x38, 0x01, 0x00, 0x00, 0x3c, 0x01, 0x00, 0x00, 
    0x04, 0x00, 0x00, 0x00, 0x6d, 0x61, 0x69, 0x6e, 0x00, 0x00, 0x00, 0x00, 
    0x04, 0x00, 0x00, 0x00, 0xdc, 0x00, 0x00, 0x00, 0x94, 0x00, 0x00, 0x00, 
    0x50, 0x00, 0x00, 0x00, 0x14, 0x00, 0x00, 0x00, 0x00, 0x00, 0x0e, 0x00, 
    0x1a, 0x00, 0x14, 0x00, 0x10, 0x00, 0x0c, 0x00, 0x0b, 0x00, 0x04, 0x00, 
    0x0e, 0x00, 0x00, 0x00, 0x1c, 0x00, 0x00, 0x00, 0x00, 0x00, 0x00, 0x09, 
    0x1c, 0x00, 0x00, 0x00, 0x20, 0x00, 0x00, 0x00, 0x01, 0x00, 0x00, 0x00, 
    0x00, 0x00, 0x06, 0x00, 0x08, 0x00, 0x04, 0x00, 0x06, 0x00, 0x00, 0x00, 
    0x00, 0x00, 0x80, 0x3f, 0x01, 0x00, 0x00, 0x00, 0x0a, 0x00, 0x00, 0x00, 
    0x01, 0x00, 0x00, 0x00, 0x09, 0x00, 0x00, 0x00, 0xce, 0xff, 0xff, 0xff, 
    0x10, 0x00, 0x00, 0x00, 0x00, 0x00, 0x00, 0x08, 0x0c, 0x00, 0x00, 0x00, 
    0x10, 0x00, 0x00, 0x00, 0xd4, 0xfa, 0xff, 0xff, 0x01, 0x00, 0x00, 0x00, 
    0x09, 0x00, 0x00, 0x00, 0x03, 0x00, 0x00, 0x00, 0x08, 0x00, 0x00, 0x00, 
    0x03, 0x00, 0x00, 0x00, 0x02, 0x00, 0x00, 0x00, 0x00, 0x00, 0x0e, 0x00, 
    0x14, 0x00, 0x00, 0x00, 0x10, 0x00, 0x0c, 0x00, 0x0b, 0x00, 0x04, 0x00, 
    0x0e, 0x00, 0x00, 0x00, 0x10, 0x00, 0x00, 0x00, 0x00, 0x00, 0x00, 0x08, 
    0x10, 0x00, 0x00, 0x00, 0x14, 0x00, 0x00, 0x00, 0xba, 0xff, 0xff, 0xff, 
    0x00, 0x00, 0x00, 0x01, 0x01, 0x00, 0x00, 0x00, 0x08, 0x00, 0x00, 0x00, 
    0x03, 0x00, 0x00, 0x00, 0x07, 0x00, 0x00, 0x00, 0x04, 0x00, 0x00, 0x00, 
    0x01, 0x00, 0x00, 0x00, 0x00, 0x00, 0x0e, 0x00, 0x16, 0x00, 0x00, 0x00, 
    0x10, 0x00, 0x0c, 0x00, 0x0b, 0x00, 0x04, 0x00, 0x0e, 0x00, 0x00, 0x00, 
    0x18, 0x00, 0x00, 0x00, 0x00, 0x00, 0x00, 0x08, 0x18, 0x00, 0x00, 0x00, 
    0x1c, 0x00, 0x00, 0x00, 0x00, 0x00, 0x06, 0x00, 0x08, 0x00, 0x07, 0x00, 
    0x06, 0x00, 0x00, 0x00, 0x00, 0x00, 0x00, 0x01, 0x01, 0x00, 0x00, 0x00, 
    0x07, 0x00, 0x00, 0x00, 0x03, 0x00, 0x00, 0x00, 0x00, 0x00, 0x00, 0x00, 
    0x05, 0x00, 0x00, 0x00, 0x06, 0x00, 0x00, 0x00, 0x01, 0x00, 0x00, 0x00, 
    0x0a, 0x00, 0x00, 0x00, 0x01, 0x00, 0x00, 0x00, 0x00, 0x00, 0x00, 0x00, 
    0x0b, 0x00, 0x00, 0x00, 0x44, 0x04, 0x00, 0x00, 0xc4, 0x03, 0x00, 0x00, 
    0x60, 0x03, 0x00, 0x00, 0x10, 0x03, 0x00, 0x00, 0xc0, 0x02, 0x00, 0x00, 
    0x74, 0x02, 0x00, 0x00, 0x10, 0x02, 0x00, 0x00, 0x7c, 0x01, 0x00, 0x00, 
    0xe0, 0x00, 0x00, 0x00, 0x60, 0x00, 0x00, 0x00, 0x04, 0x00, 0x00, 0x00, 
    0xfe, 0xfb, 0xff, 0xff, 0x00, 0x00, 0x00, 0x01, 0x14, 0x00, 0x00, 0x00, 
    0x1c, 0x00, 0x00, 0x00, 0x1c, 0x00, 0x00, 0x00, 0x0b, 0x00, 0x00, 0x00, 
    0x34, 0x00, 0x00, 0x00, 0x02, 0x00, 0x00, 0x00, 0xff, 0xff, 0xff, 0xff, 
    0x04, 0x00, 0x00, 0x00, 0xe8, 0xfb, 0xff, 0xff, 0x1b, 0x00, 0x00, 0x00, 
    0x53, 0x74, 0x61, 0x74, 0x65, 0x66, 0x75, 0x6c, 0x50, 0x61, 0x72, 0x74, 
    0x69, 0x74, 0x69, 0x6f, 0x6e, 0x65, 0x64, 0x43, 0x61, 0x6c, 0x6c, 0x5f, 
    0x31, 0x3a, 0x30, 0x00, 0x02, 0x00, 0x00, 0x00, 0x01, 0x00, 0x00, 0x00, 
    0x04, 0x00, 0x00, 0x00, 0x56, 0xfc, 0xff, 0xff, 0x00, 0x00, 0x00, 0x01, 
    0x14, 0x00, 0x00, 0x00, 0x1c, 0x00, 0x00, 0x00, 0x1c, 0x00, 0x00, 0x00, 
    0x0a, 0x00, 0x00, 0x00, 0x58, 0x00, 0x00, 0x00, 0x02, 0x00, 0x00, 0x00, 
    0xff, 0xff, 0xff, 0xff, 0x04, 0x00, 0x00, 0x00, 0x40, 0xfc, 0xff, 0xff, 
    0x3c, 0x00, 0x00, 0x00, 0x73, 0x65, 0x71, 0x75, 0x65, 0x6e, 0x74, 0x69, 
    0x61, 0x6c, 0x5f, 0x31, 0x2f, 0x64, 0x65, 0x6e, 0x73, 0x65, 0x5f, 0x32, 
    0x5f, 0x31, 0x2f, 0x4d, 0x61, 0x74, 0x4d, 0x75, 0x6c, 0x3b, 0x73, 0x65, 
    0x71, 0x75, 0x65, 0x6e, 0x74, 0x69, 0x61, 0x6c, 0x5f, 0x31, 0x2f, 0x64, 
    0x65, 0x6e, 0x73, 0x65, 0x5f, 0x32, 0x5f, 0x31, 0x2f, 0x42, 0x69, 0x61, 
    0x73, 0x41, 0x64, 0x64, 0x00, 0x00, 0x00, 0x00, 0x02, 0x00, 0x00, 0x00, 
    0x01, 0x00, 0x00, 0x00, 0x04, 0x00, 0x00, 0x00, 0xd2, 0xfc, 0xff, 0xff, 
    0x00, 0x00, 0x00, 0x01, 0x14, 0x00, 0x00, 0x00, 0x1c, 0x00, 0x00, 0x00, 
    0x1c, 0x00, 0x00, 0x00, 0x09, 0x00, 0x00, 0x00, 0x74, 0x00, 0x00, 0x00, 
    0x02, 0x00, 0x00, 0x00, 0xff, 0xff, 0xff, 0xff, 0x10, 0x00, 0x00, 0x00, 
    0xbc, 0xfc, 0xff, 0xff, 0x58, 0x00, 0x00, 0x00, 0x73, 0x65, 0x71, 0x75, 
    0x65, 0x6e, 0x74, 0x69, 0x61, 0x6c, 0x5f, 0x31, 0x2f, 0x64, 0x65, 0x6e, 
    0x73, 0x65, 0x5f, 0x31, 0x5f, 0x32, 0x2f, 0x4d, 0x61, 0x74, 0x4d, 0x75, 
    0x6c, 0x3b, 0x73, 0x65, 0x71, 0x75, 0x65, 0x6e, 0x74, 0x69, 0x61, 0x6c, 
    0x5f, 0x31, 0x2f, 0x64, 0x65, 0x6e, 0x73, 0x65, 0x5f, 0x31, 0x5f, 0x32, 
    0x2f, 0x52, 0x65, 0x6c, 0x75, 0x3b, 0x73, 0x65, 0x71, 0x75, 0x65, 0x6e, 
    0x74, 0x69, 0x61, 0x6c, 0x5f, 0x31, 0x2f, 0x64, 0x65, 0x6e, 0x73, 0x65, 
    0x5f, 0x31, 0x5f, 0x32, 0x2f, 0x42, 0x69, 0x61, 0x73, 0x41, 0x64, 0x64, 
    0x00, 0x00, 0x00, 0x00, 0x02, 0x00, 0x00, 0x00, 0x01, 0x00, 0x00, 0x00, 
    0x10, 0x00, 0x00, 0x00, 0x6a, 0xfd, 0xff, 0xff, 0x00, 0x00, 0x00, 0x01, 
    0x14, 0x00, 0x00, 0x00, 0x1c, 0x00, 0x00, 0x00, 0x1c, 0x00, 0x00, 0x00, 
    0x08, 0x00, 0x00, 0x00, 0x6c, 0x00, 0x00, 0x00, 0x02, 0x00, 0x00, 0x00, 
    0xff, 0xff, 0xff, 0xff, 0x20, 0x00, 0x00, 0x00, 0x54, 0xfd, 0xff, 0xff, 
    0x52, 0x00, 0x00, 0x00, 0x73, 0x65, 0x71, 0x75, 0x65, 0x6e, 0x74, 0x69, 
    0x61, 0x6c, 0x5f, 0x31, 0x2f, 0x64, 0x65, 0x6e, 0x73, 0x65, 0x5f, 0x31, 
    0x2f, 0x4d, 0x61, 0x74, 0x4d, 0x75, 0x6c, 0x3b, 0x73, 0x65, 0x71, 0x75, 
    0x65, 0x6e, 0x74, 0x69, 0x61, 0x6c, 0x5f, 0x31, 0x2f, 0x64, 0x65, 0x6e, 
    0x73, 0x65, 0x5f, 0x31, 0x2f, 0x52, 0x65, 0x6c, 0x75, 0x3b, 0x73, 0x65, 
    0x71, 0x75, 0x65, 0x6e, 0x74, 0x69, 0x61, 0x6c, 0x5f, 0x31, 0x2f, 0x64, 
    0x65, 0x6e, 0x73, 0x65, 0x5f, 0x31, 0x2f, 0x42, 0x69, 0x61, 0x73, 0x41, 
    0x64, 0x64, 0x00, 0x00, 0x02, 0x00, 0x00, 0x00, 0x01, 0x00, 0x00, 0x00, 
    0x20, 0x00, 0x00, 0x00, 0x76, 0xfe, 0xff, 0xff, 0x00, 0x00, 0x00, 0x01, 
    0x10, 0x00, 0x00, 0x00, 0x10, 0x00, 0x00, 0x00, 0x07, 0x00, 0x00, 0x00, 
    0x44, 0x00, 0x00, 0x00, 0xd4, 0xfd, 0xff, 0xff, 0x36, 0x00, 0x00, 0x00, 
    0x73, 0x65, 0x71, 0x75, 0x65, 0x6e, 0x74, 0x69, 0x61, 0x6c, 0x5f, 0x31, 
    0x2f, 0x64, 0x65, 0x6e, 0x73, 0x65, 0x5f, 0x31, 0x2f, 0x52, 0x65, 0x6c, 
    0x75, 0x3b, 0x73, 0x65, 0x71, 0x75, 0x65, 0x6e, 0x74, 0x69, 0x61, 0x6c, 
    0x5f, 0x31, 0x2f, 0x64, 0x65, 0x6e, 0x73, 0x65, 0x5f, 0x31, 0x2f, 0x42, 
    0x69, 0x61, 0x73, 0x41, 0x64, 0x64, 0x00, 0x00, 0x01, 0x00, 0x00, 0x00, 
    0x20, 0x00, 0x00, 0x00, 0xd6, 0xfe, 0xff, 0xff, 0x00, 0x00, 0x00, 0x01, 
    0x10, 0x00, 0x00, 0x00, 0x10, 0x00, 0x00, 0x00, 0x06, 0x00, 0x00, 0x00, 
    0x28, 0x00, 0x00, 0x00, 0x34, 0xfe, 0xff, 0xff, 0x1b, 0x00, 0x00, 0x00, 
    0x73, 0x65, 0x71, 0x75, 0x65, 0x6e, 0x74, 0x69, 0x61, 0x6c, 0x5f, 0x31, 
    0x2f, 0x64, 0x65, 0x6e, 0x73, 0x65, 0x5f, 0x31, 0x2f, 0x4d, 0x61, 0x74, 
    0x4d, 0x75, 0x6c, 0x00, 0x02, 0x00, 0x00, 0x00, 0x20, 0x00, 0x00, 0x00, 
    0x08, 0x00, 0x00, 0x00, 0x1e, 0xff, 0xff, 0xff, 0x00, 0x00, 0x00, 0x01, 
    0x10, 0x00, 0x00, 0x00, 0x10, 0x00, 0x00, 0x00, 0x05, 0x00, 0x00, 0x00, 
    0x2c, 0x00, 0x00, 0x00, 0x7c, 0xfe, 0xff, 0xff, 0x1d, 0x00, 0x00, 0x00, 
    0x73, 0x65, 0x71, 0x75, 0x65, 0x6e, 0x74, 0x69, 0x61, 0x6c, 0x5f, 0x31, 
    0x2f, 0x64, 0x65, 0x6e, 0x73, 0x65, 0x5f, 0x31, 0x5f, 0x32, 0x2f, 0x4d, 
    0x61, 0x74, 0x4d, 0x75, 0x6c, 0x00, 0x00, 0x00, 0x02, 0x00, 0x00, 0x00, 
    0x10, 0x00, 0x00, 0x00, 0x20, 0x00, 0x00, 0x00, 0x6a, 0xff, 0xff, 0xff, 
    0x00, 0x00, 0x00, 0x01, 0x10, 0x00, 0x00, 0x00, 0x10, 0x00, 0x00, 0x00, 
    0x04, 0x00, 0x00, 0x00, 0x2c, 0x00, 0x00, 0x00, 0xc8, 0xfe, 0xff, 0xff, 
    0x1d, 0x00, 0x00, 0x00, 0x73, 0x65, 0x71, 0x75, 0x65, 0x6e, 0x74, 0x69, 
    0x61, 0x6c, 0x5f, 0x31, 0x2f, 0x64, 0x65, 0x6e, 0x73, 0x65, 0x5f, 0x32, 
    0x5f, 0x31, 0x2f, 0x4d, 0x61, 0x74, 0x4d, 0x75, 0x6c, 0x00, 0x00, 0x00, 
    0x02, 0x00, 0x00, 0x00, 0x04, 0x00, 0x00, 0x00, 0x10, 0x00, 0x00, 0x00, 
    0xb6, 0xff, 0xff, 0xff, 0x00, 0x00, 0x00, 0x01, 0x10, 0x00, 0x00, 0x00, 
    0x10, 0x00, 0x00, 0x00, 0x03, 0x00, 0x00, 0x00, 0x2c, 0x00, 0x00, 0x00, 
    0x14, 0xff, 0xff, 0xff, 0x1e, 0x00, 0x00, 0x00, 0x73, 0x65, 0x71, 0x75, 
    0x65, 0x6e, 0x74, 0x69, 0x61, 0x6c, 0x5f, 0x31, 0x2f, 0x64, 0x65, 0x6e, 
    0x73, 0x65, 0x5f, 0x32, 0x5f, 0x31, 0x2f, 0x42, 0x69, 0x61, 0x73, 0x41, 
    0x64, 0x64, 0x00, 0x00, 0x01, 0x00, 0x00, 0x00, 0x04, 0x00, 0x00, 0x00, 
    0x00, 0x00, 0x16, 0x00, 0x18, 0x00, 0x14, 0x00, 0x00, 0x00, 0x10, 0x00, 
    0x0c, 0x00, 0x08, 0x00, 0x00, 0x00, 0x00, 0x00, 0x00, 0x00, 0x07, 0x00, 
    0x16, 0x00, 0x00, 0x00, 0x00, 0x00, 0x00, 0x01, 0x10, 0x00, 0x00, 0x00, 
    0x10, 0x00, 0x00, 0x00, 0x02, 0x00, 0x00, 0x00, 0x48, 0x00, 0x00, 0x00, 
    0x74, 0xff, 0xff, 0xff, 0x3a, 0x00, 0x00, 0x00, 0x73, 0x65, 0x71, 0x75, 
    0x65, 0x6e, 0x74, 0x69, 0x61, 0x6c, 0x5f, 0x31, 0x2f, 0x64, 0x65, 0x6e, 
    0x73, 0x65, 0x5f, 0x31, 0x5f, 0x32, 0x2f, 0x52, 0x65, 0x6c, 0x75, 0x3b, 
    0x73, 0x65, 0x71, 0x75, 0x65, 0x6e, 0x74, 0x69, 0x61, 0x6c, 0x5f, 0x31, 
    0x2f, 0x64, 0x65, 0x6e, 0x73, 0x65, 0x5f, 0x31, 0x5f, 0x32, 0x2f, 0x42, 
    0x69, 0x61, 0x73, 0x41, 0x64, 0x64, 0x00, 0x00, 0x01, 0x00, 0x00, 0x00, 
    0x10, 0x00, 0x00, 0x00, 0x00, 0x00, 0x16, 0x00, 0x1c, 0x00, 0x18, 0x00, 
    0x00, 0x00, 0x14, 0x00, 0x10, 0x00, 0x0c, 0x00, 0x00, 0x00, 0x00, 0x00, 
    0x08, 0x00, 0x07, 0x00, 0x16, 0x00, 0x00, 0x00, 0x00, 0x00, 0x00, 0x01, 
    0x14, 0x00, 0x00, 0x00, 0x20, 0x00, 0x00, 0x00, 0x20, 0x00, 0x00, 0x00, 
    0x01, 0x00, 0x00, 0x00, 0x3c, 0x00, 0x00, 0x00, 0x02, 0x00, 0x00, 0x00, 
    0xff, 0xff, 0xff, 0xff, 0x08, 0x00, 0x00, 0x00, 0x04, 0x00, 0x04, 0x00, 
    0x04, 0x00, 0x00, 0x00, 0x1e, 0x00, 0x00, 0x00, 0x73, 0x65, 0x72, 0x76, 
    0x69, 0x6e, 0x67, 0x5f, 0x64, 0x65, 0x66, 0x61, 0x75, 0x6c, 0x74, 0x5f, 
    0x6b, 0x65, 0x72, 0x61, 0x73, 0x5f, 0x74, 0x65, 0x6e, 0x73, 0x6f, 0x72, 
    0x3a, 0x30, 0x00, 0x00, 0x02, 0x00, 0x00, 0x00, 0x01, 0x00, 0x00, 0x00, 
    0x08, 0x00, 0x00, 0x00, 0x02, 0x00, 0x00, 0x00, 0x20, 0x00, 0x00, 0x00, 
    0x04, 0x00, 0x00, 0x00, 0xf4, 0xff, 0xff, 0xff, 0x19, 0x00, 0x00, 0x00, 
    0x00, 0x00, 0x00, 0x19, 0x0c, 0x00, 0x0c, 0x00, 0x0b, 0x00, 0x00, 0x00, 
    0x00, 0x00, 0x04, 0x00, 0x0c, 0x00, 0x00, 0x00, 0x09, 0x00, 0x00, 0x00, 
    0x00, 0x00, 0x00, 0x09
};

const unsigned int ann_model_tflite_len = 5728;

#endif
