#ifndef CNN_MODEL_DATA_H
#define CNN_MODEL_DATA_H

// =========================================================
// Modele CNN TFLite converti en header C pour ESP32
// Genere automatiquement depuis cnn_final_stable_seed42.tflite
// =========================================================

#include <cstdint>

const unsigned char cnn_model_tflite[] = {
  0x1c, 0x00, 0x00, 0x00, 0x54, 0x46, 0x4c, 0x33, 0x14, 0x00, 0x20, 0x00, 
  0x1c, 0x00, 0x18, 0x00, 0x14, 0x00, 0x10, 0x00, 0x0c, 0x00, 0x00, 0x00, 
  0x08, 0x00, 0x04, 0x00, 0x14, 0x00, 0x00, 0x00, 0x1c, 0x00, 0x00, 0x00, 
  0x8c, 0x00, 0x00, 0x00, 0xe4, 0x00, 0x00, 0x00, 0xdc, 0x15, 0x00, 0x00, 
  0xec, 0x15, 0x00, 0x00, 0x70, 0x26, 0x00, 0x00, 0x03, 0x00, 0x00, 0x00, 
  0x01, 0x00, 0x00, 0x00, 0x04, 0x00, 0x00, 0x00, 0xa2, 0xe7, 0xff, 0xff, 
  0x0c, 0x00, 0x00, 0x00, 0x1c, 0x00, 0x00, 0x00, 0x3c, 0x00, 0x00, 0x00, 
  0x0f, 0x00, 0x00, 0x00, 0x73, 0x65, 0x72, 0x76, 0x69, 0x6e, 0x67, 0x5f, 
  0x64, 0x65, 0x66, 0x61, 0x75, 0x6c, 0x74, 0x00, 0x01, 0x00, 0x00, 0x00, 
  0x04, 0x00, 0x00, 0x00, 0x90, 0xff, 0xff, 0xff, 0x1a, 0x00, 0x00, 0x00, 
  0x04, 0x00, 0x00, 0x00, 0x08, 0x00, 0x00, 0x00, 0x6f, 0x75, 0x74, 0x70, 
  0x75, 0x74, 0x5f, 0x30, 0x00, 0x00, 0x00, 0x00, 0x01, 0x00, 0x00, 0x00, 
  0x04, 0x00, 0x00, 0x00, 0x3a, 0xe9, 0xff, 0xff, 0x04, 0x00, 0x00, 0x00, 
  0x0c, 0x00, 0x00, 0x00, 0x6b, 0x65, 0x72, 0x61, 0x73, 0x5f, 0x74, 0x65, 
  0x6e, 0x73, 0x6f, 0x72, 0x00, 0x00, 0x00, 0x00, 0x02, 0x00, 0x00, 0x00, 
  0x34, 0x00, 0x00, 0x00, 0x04, 0x00, 0x00, 0x00, 0xdc, 0xff, 0xff, 0xff, 
  0x1d, 0x00, 0x00, 0x00, 0x04, 0x00, 0x00, 0x00, 0x13, 0x00, 0x00, 0x00, 
  0x43, 0x4f, 0x4e, 0x56, 0x45, 0x52, 0x53, 0x49, 0x4f, 0x4e, 0x5f, 0x4d, 
  0x45, 0x54, 0x41, 0x44, 0x41, 0x54, 0x41, 0x00, 0x08, 0x00, 0x0c, 0x00, 
  0x08, 0x00, 0x04, 0x00, 0x08, 0x00, 0x00, 0x00, 0x1c, 0x00, 0x00, 0x00, 
  0x04, 0x00, 0x00, 0x00, 0x13, 0x00, 0x00, 0x00, 0x6d, 0x69, 0x6e, 0x5f, 
  0x72, 0x75, 0x6e, 0x74, 0x69, 0x6d, 0x65, 0x5f, 0x76, 0x65, 0x72, 0x73, 
  0x69, 0x6f, 0x6e, 0x00, 0x1e, 0x00, 0x00, 0x00, 0xf4, 0x14, 0x00, 0x00, 
  0xec, 0x14, 0x00, 0x00, 0x9c, 0x14, 0x00, 0x00, 0x6c, 0x14, 0x00, 0x00, 
  0x3c, 0x14, 0x00, 0x00, 0x28, 0x14, 0x00, 0x00, 0x0c, 0x14, 0x00, 0x00, 
  0xfc, 0x11, 0x00, 0x00, 0xac, 0x11, 0x00, 0x00, 0x5c, 0x11, 0x00, 0x00, 
  0x4c, 0x01, 0x00, 0x00, 0x38, 0x01, 0x00, 0x00, 0x24, 0x01, 0x00, 0x00, 
  0x10, 0x01, 0x00, 0x00, 0xfc, 0x00, 0x00, 0x00, 0xf4, 0x00, 0x00, 0x00, 
  0xec, 0x00, 0x00, 0x00, 0xe4, 0x00, 0x00, 0x00, 0xdc, 0x00, 0x00, 0x00, 
  0xd4, 0x00, 0x00, 0x00, 0xcc, 0x00, 0x00, 0x00, 0xc4, 0x00, 0x00, 0x00, 
  0xbc, 0x00, 0x00, 0x00, 0xb4, 0x00, 0x00, 0x00, 0xac, 0x00, 0x00, 0x00, 
  0xa4, 0x00, 0x00, 0x00, 0x9c, 0x00, 0x00, 0x00, 0x94, 0x00, 0x00, 0x00, 
  0x74, 0x00, 0x00, 0x00, 0x04, 0x00, 0x00, 0x00, 0x2e, 0xea, 0xff, 0xff, 
  0x04, 0x00, 0x00, 0x00, 0x60, 0x00, 0x00, 0x00, 0x10, 0x00, 0x00, 0x00, 
  0x00, 0x00, 0x00, 0x00, 0x08, 0x00, 0x0e, 0x00, 0x08, 0x00, 0x04, 0x00, 
  0x08, 0x00, 0x00, 0x00, 0x10, 0x00, 0x00, 0x00, 0x24, 0x00, 0x00, 0x00, 
  0x00, 0x00, 0x06, 0x00, 0x08, 0x00, 0x04, 0x00, 0x06, 0x00, 0x00, 0x00, 
  0x04, 0x00, 0x00, 0x00, 0x00, 0x00, 0x00, 0x00, 0x0c, 0x00, 0x18, 0x00, 
  0x14, 0x00, 0x10, 0x00, 0x0c, 0x00, 0x04, 0x00, 0x0c, 0x00, 0x00, 0x00, 
  0x90, 0xda, 0x75, 0x83, 0x0e, 0x2a, 0x90, 0x13, 0x02, 0x00, 0x00, 0x00, 
  0x02, 0x00, 0x00, 0x00, 0x04, 0x00, 0x00, 0x00, 0x06, 0x00, 0x00, 0x00, 
  0x32, 0x2e, 0x32, 0x31, 0x2e, 0x30, 0x00, 0x00, 0x9a, 0xea, 0xff, 0xff, 
  0x04, 0x00, 0x00, 0x00, 0x10, 0x00, 0x00, 0x00, 0x31, 0x2e, 0x31, 0x34, 
  0x2e, 0x30, 0x00, 0x00, 0x00, 0x00, 0x00, 0x00, 0x00, 0x00, 0x00, 0x00, 
  0xa8, 0xdb, 0xff, 0xff, 0xac, 0xdb, 0xff, 0xff, 0xb0, 0xdb, 0xff, 0xff, 
  0xb4, 0xdb, 0xff, 0xff, 0xb8, 0xdb, 0xff, 0xff, 0xbc, 0xdb, 0xff, 0xff, 
  0xc0, 0xdb, 0xff, 0xff, 0xc4, 0xdb, 0xff, 0xff, 0xc8, 0xdb, 0xff, 0xff, 
  0xcc, 0xdb, 0xff, 0xff, 0xd0, 0xdb, 0xff, 0xff, 0xd4, 0xdb, 0xff, 0xff, 
  0xd8, 0xdb, 0xff, 0xff, 0xea, 0xea, 0xff, 0xff, 0x04, 0x00, 0x00, 0x00, 
  0x04, 0x00, 0x00, 0x00, 0xfd, 0xff, 0xff, 0xff, 0xfa, 0xea, 0xff, 0xff, 
  0x04, 0x00, 0x00, 0x00, 0x04, 0x00, 0x00, 0x00, 0x40, 0x00, 0x00, 0x00, 
  0x0a, 0xeb, 0xff, 0xff, 0x04, 0x00, 0x00, 0x00, 0x04, 0x00, 0x00, 0x00, 
  0x00, 0x00, 0x00, 0x00, 0x1a, 0xeb, 0xff, 0xff, 0x04, 0x00, 0x00, 0x00, 
  0x04, 0x00, 0x00, 0x00, 0x01, 0x00, 0x00, 0x00, 0x2a, 0xeb, 0xff, 0xff, 
  0x04, 0x00, 0x00, 0x00, 0x00, 0x10, 0x00, 0x00, 0xb2, 0x33, 0x3d, 0xbe, 
  0xce, 0xfc, 0x7b, 0xbd, 0x08, 0xd6, 0x86, 0xbd, 0x6e, 0x8b, 0x82, 0xbe, 
  0x5b, 0x0d, 0x83, 0x3e, 0x38, 0xd2, 0x2d, 0xbd, 0xc8, 0xc0, 0xf5, 0xbd, 
  0x20, 0xc1, 0x7b, 0xbc, 0xf8, 0x1a, 0x54, 0x3d, 0xf7, 0xa9, 0x34, 0xbd, 
  0xd7, 0xc7, 0x95, 0xbd, 0xa8, 0xa5, 0xd5, 0xbc, 0x00, 0xec, 0xd8, 0x3d, 
  0xf4, 0x1e, 0x05, 0xbd, 0xb5, 0x44, 0x5a, 0x3c, 0xad, 0x31, 0x21, 0xbe, 
  0xcf, 0xab, 0x72, 0xbe, 0xc6, 0x71, 0x00, 0x3e, 0x54, 0x9d, 0x25, 0x3e, 
  0xfb, 0x5f, 0xd4, 0xbd, 0xe2, 0x71, 0x55, 0x3e, 0x36, 0xf9, 0x5d, 0x3e, 
  0x3f, 0xcd, 0x60, 0xbc, 0xb1, 0xba, 0x62, 0xbe, 0x00, 0x5c, 0xef, 0xbb, 
  0x5c, 0xeb, 0x42, 0xbe, 0x96, 0xfa, 0x6e, 0xbe, 0x74, 0xe0, 0xec, 0xbd, 
  0x68, 0x41, 0x3e, 0x3d, 0x6c, 0x83, 0xad, 0xbc, 0x94, 0x82, 0x28, 0xbe, 
  0xcf, 0xb2, 0x66, 0x3e, 0xb4, 0x84, 0x84, 0xbd, 0x53, 0x58, 0x16, 0xbd, 
  0x97, 0x7d, 0x2a, 0xbd, 0x80, 0xd0, 0x3a, 0xbe, 0xb3, 0x93, 0x32, 0xbe, 
  0x58, 0x3f, 0x89, 0x3e, 0xa4, 0x31, 0x2b, 0xbe, 0xc2, 0xf9, 0x63, 0xbe, 
  0x70, 0x75, 0x0d, 0x3d, 0x62, 0x15, 0x7b, 0xbe, 0xa4, 0x7a, 0x1b, 0xbe, 
  0x14, 0x6c, 0x25, 0xbe, 0xc2, 0xa1, 0x14, 0xbe, 0x58, 0x41, 0x3f, 0x3d, 
  0x99, 0x9b, 0x85, 0xbe, 0x85, 0xa3, 0x3e, 0xbe, 0xd2, 0x47, 0x15, 0xbe, 
  0x8f, 0x5d, 0x4d, 0xbe, 0xde, 0xbf, 0x17, 0xbe, 0x62, 0x4d, 0x0e, 0x3e, 
  0x00, 0xb3, 0xd0, 0x3b, 0x98, 0x0a, 0x30, 0xbe, 0x9c, 0x84, 0x33, 0xbe, 
  0xbe, 0x87, 0x35, 0xbe, 0xce, 0x8c, 0xa7, 0xbd, 0xc0, 0x6f, 0x11, 0x3e, 
  0xd0, 0xf2, 0x6d, 0xbe, 0x7c, 0xd3, 0x5b, 0xbd, 0x60, 0xe5, 0x66, 0xbc, 
  0xce, 0x4b, 0x95, 0xbd, 0xa8, 0xb8, 0x77, 0x3e, 0x73, 0x28, 0xbe, 0xbd, 
  0x45, 0x56, 0x9d, 0xbd, 0xaa, 0xa9, 0x63, 0x3f, 0x4d, 0x72, 0x50, 0xbe, 
  0x0b, 0x1d, 0x94, 0x3e, 0xc5, 0x8b, 0x57, 0xbe, 0x8c, 0x8b, 0xb8, 0x3c, 
  0xbe, 0xeb, 0x25, 0x3e, 0xc4, 0xb3, 0xab, 0x3e, 0x3b, 0xf2, 0x8a, 0xbe, 
  0xe6, 0x3f, 0x32, 0x3f, 0x14, 0xd2, 0xbb, 0x3e, 0x74, 0xff, 0x15, 0x3f, 
  0x99, 0xac, 0x92, 0x3e, 0x69, 0x15, 0x59, 0xbe, 0x5d, 0xf9, 0x4d, 0x3e, 
  0x9f, 0x61, 0x95, 0xbe, 0x05, 0xed, 0x8f, 0xbe, 0xc8, 0xc4, 0x28, 0xbe, 
  0x4c, 0xcf, 0x33, 0xbe, 0x68, 0x1e, 0x45, 0xbf, 0xa5, 0x18, 0x87, 0xbe, 
  0x0e, 0x98, 0x82, 0xbf, 0x8c, 0x74, 0x2c, 0x3f, 0x07, 0xc1, 0xe4, 0x3e, 
  0x33, 0x2b, 0xfd, 0x3e, 0x68, 0xc2, 0x74, 0x3e, 0xcb, 0x52, 0xae, 0x3d, 
  0xae, 0xf8, 0x8c, 0xbd, 0x37, 0x54, 0x1b, 0xbe, 0x54, 0xc4, 0x6a, 0xbd, 
  0xa1, 0x06, 0x9c, 0xbf, 0xb8, 0xb1, 0x13, 0x3a, 0x18, 0x19, 0x83, 0xbd, 
  0xbe, 0x33, 0x19, 0x3e, 0x63, 0x93, 0x77, 0x3d, 0xaf, 0xda, 0x84, 0x3d, 
  0xf1, 0x8f, 0x35, 0x3e, 0x2f, 0xe7, 0x86, 0x3d, 0x90, 0x5c, 0x70, 0x3d, 
  0xae, 0x19, 0x65, 0x3e, 0x60, 0x08, 0x94, 0x3e, 0xa0, 0xaa, 0xaf, 0xbe, 
  0x9d, 0x55, 0xd6, 0xbd, 0xe2, 0xff, 0x88, 0xbe, 0xa5, 0xd7, 0x16, 0xbf, 
  0xe1, 0xba, 0x2f, 0x3e, 0x32, 0xb2, 0xb8, 0xbd, 0xae, 0x1e, 0x2f, 0xbd, 
  0xba, 0xaf, 0x04, 0xbd, 0x73, 0x47, 0xbf, 0x3e, 0x23, 0x2d, 0x83, 0x3e, 
  0x18, 0x24, 0xa4, 0xbe, 0xfe, 0x5c, 0x85, 0x3c, 0x8e, 0xc7, 0x4b, 0xbe, 
  0xed, 0xea, 0x6a, 0xbf, 0x05, 0xc6, 0x16, 0xbf, 0x23, 0x4a, 0xe0, 0xbe, 
  0x9d, 0xa7, 0x1a, 0x3c, 0x64, 0x3e, 0xab, 0xbe, 0x2c, 0x23, 0xd0, 0xbe, 
  0x8d, 0x81, 0xc1, 0xbe, 0x63, 0x96, 0xbf, 0xbe, 0x21, 0x5e, 0xaf, 0x3e, 
  0x1b, 0x92, 0x82, 0xbd, 0x8c, 0xd9, 0x87, 0xbd, 0x08, 0x3d, 0x82, 0xbd, 
  0xf3, 0x93, 0x94, 0xbe, 0xc3, 0xf6, 0xad, 0xbd, 0x84, 0x2e, 0x08, 0x3f, 
  0x1e, 0x7a, 0x94, 0x3b, 0x8b, 0xef, 0x35, 0xbd, 0x6c, 0xb9, 0xf6, 0x3e, 
  0x68, 0x0f, 0x36, 0xbe, 0xc1, 0xf4, 0xb9, 0x3e, 0xc2, 0xfe, 0x8e, 0xbd, 
  0xb3, 0xd9, 0xce, 0x3e, 0x87, 0xda, 0xda, 0x3e, 0x05, 0xe4, 0xab, 0x3e, 
  0xb1, 0xc8, 0x13, 0xbe, 0x5e, 0x61, 0xb7, 0xbe, 0x20, 0xc1, 0xbe, 0x3e, 
  0x01, 0x21, 0x13, 0xbe, 0x08, 0xdd, 0x1b, 0xbd, 0xc7, 0xad, 0x83, 0xbe, 
  0xfb, 0x0d, 0xc5, 0xbe, 0x42, 0x05, 0xd9, 0xbd, 0x33, 0xf8, 0x70, 0xbe, 
  0xec, 0x04, 0x24, 0x3e, 0xb0, 0x2f, 0x22, 0x3f, 0x62, 0xfe, 0xb2, 0x3e, 
  0x6e, 0x7a, 0x53, 0xbe, 0x30, 0xfe, 0xd1, 0x3e, 0xac, 0x91, 0xce, 0xbe, 
  0xec, 0x69, 0x27, 0x3e, 0x03, 0x04, 0xd3, 0xbf, 0x0c, 0xfb, 0x91, 0xbd, 
  0x45, 0x04, 0x95, 0x3d, 0xf2, 0x6a, 0x5d, 0xbd, 0x70, 0xa4, 0x9f, 0x3e, 
  0x5e, 0x6e, 0x4a, 0x3e, 0xa3, 0xce, 0xbe, 0x3e, 0xde, 0x98, 0x5b, 0xbf, 
  0xbd, 0x23, 0xd1, 0xbe, 0xf1, 0x37, 0xe9, 0x3e, 0x42, 0xb5, 0xfd, 0xbe, 
  0x87, 0x0c, 0x08, 0xbf, 0x67, 0x98, 0xdc, 0x3d, 0x91, 0x07, 0xe3, 0xbd, 
  0xbb, 0x57, 0x2e, 0xc0, 0x00, 0x84, 0x67, 0xbe, 0xcc, 0xc3, 0x0f, 0xbd, 
  0x4a, 0xcb, 0xbc, 0xbd, 0x0f, 0xb0, 0xd2, 0xbe, 0x31, 0xa6, 0xbb, 0xbe, 
  0x3f, 0x13, 0xf3, 0x3e, 0x13, 0xd1, 0x2e, 0xbe, 0x06, 0x0e, 0x19, 0xbe, 
  0xff, 0xe0, 0xeb, 0xbe, 0x1d, 0x2b, 0xc3, 0xbe, 0x86, 0xb8, 0x68, 0xbe, 
  0x6f, 0xcd, 0xf0, 0x3d, 0xe5, 0xaa, 0x04, 0x3d, 0xca, 0xd4, 0xd6, 0x3e, 
  0x75, 0xe7, 0xc9, 0x3e, 0xfa, 0x80, 0x3c, 0x3e, 0xe6, 0x17, 0xcb, 0x3e, 
  0x22, 0x5a, 0x72, 0x3c, 0x89, 0x53, 0xcc, 0x3c, 0xc2, 0xb0, 0x2f, 0xbf, 
  0xa9, 0xab, 0xd9, 0xbe, 0x60, 0xaa, 0x1a, 0xbe, 0xd8, 0x3b, 0x9a, 0xbe, 
  0xbf, 0x5d, 0x75, 0xbf, 0x25, 0x34, 0x88, 0xbf, 0xcd, 0x37, 0x6b, 0x3e, 
  0x58, 0x72, 0x8a, 0xbf, 0xf4, 0x17, 0xab, 0xbf, 0x90, 0xb8, 0xc3, 0xbd, 
  0x5d, 0x13, 0x5d, 0xbe, 0xa3, 0x05, 0xa1, 0xbf, 0xf2, 0x5a, 0xa1, 0xbf, 
  0xa6, 0x18, 0xa2, 0x3f, 0x71, 0xa5, 0x52, 0xbc, 0x14, 0xe3, 0x1d, 0xbf, 
  0xd4, 0xdc, 0x67, 0xbf, 0xf7, 0xd0, 0x10, 0x3f, 0x1c, 0x2c, 0x92, 0xbe, 
  0x25, 0x12, 0x33, 0x3f, 0x1e, 0xe0, 0x56, 0xbe, 0xa6, 0x15, 0x43, 0x3f, 
  0x55, 0x88, 0x4c, 0x3f, 0xe0, 0x8d, 0x01, 0xbe, 0x92, 0x23, 0xd6, 0xbf, 
  0x52, 0x36, 0x9e, 0x3e, 0xf6, 0xac, 0xa1, 0xbe, 0x9f, 0xf0, 0x47, 0x3e, 
  0x1e, 0x28, 0x7d, 0xbe, 0x93, 0xf9, 0x98, 0xbe, 0xfb, 0xeb, 0xcc, 0x3f, 
  0xed, 0x01, 0x95, 0xbf, 0x91, 0x8a, 0xf7, 0xbc, 0x5d, 0x3f, 0x00, 0xbf, 
  0xaf, 0xcc, 0xed, 0xbe, 0xd0, 0x9f, 0x0f, 0xbd, 0x0a, 0x43, 0x3a, 0x3f, 
  0xf9, 0x07, 0xec, 0x3d, 0xea, 0x7c, 0x16, 0x3f, 0x79, 0x97, 0x31, 0x3e, 
  0x85, 0x4a, 0x36, 0x3f, 0xf6, 0xc2, 0x09, 0xbe, 0x88, 0xfa, 0x12, 0xbd, 
  0xea, 0x5b, 0x6e, 0x3e, 0x08, 0x15, 0x03, 0xbe, 0xcf, 0x3a, 0x1b, 0xbe, 
  0xf0, 0xce, 0x92, 0xbe, 0x24, 0x79, 0x58, 0xbd, 0x68, 0xd8, 0xaa, 0x3e, 
  0xed, 0x05, 0xc9, 0x3b, 0x53, 0xa6, 0x8b, 0x3f, 0xb4, 0x5d, 0x68, 0x3e, 
  0x4f, 0x5a, 0x89, 0xbe, 0xcb, 0xcc, 0x7c, 0x3d, 0x7b, 0x70, 0x16, 0xbf, 
  0x6f, 0x45, 0x0d, 0x3e, 0x07, 0x2e, 0xdc, 0x3e, 0xf5, 0x8c, 0x21, 0x3f, 
  0x58, 0xee, 0x82, 0x3e, 0x93, 0xbc, 0x1c, 0x3f, 0x00, 0xc8, 0x19, 0x3e, 
  0xa4, 0x34, 0xc5, 0x3e, 0xde, 0x4b, 0x10, 0xbf, 0xc2, 0xed, 0x91, 0x3e, 
  0xb7, 0x9a, 0x7a, 0xbe, 0x1e, 0x2b, 0x6c, 0xbe, 0x3a, 0x6a, 0x50, 0x3f, 
  0x98, 0x79, 0x67, 0xbd, 0xdc, 0xc4, 0x01, 0x3f, 0xda, 0xf8, 0x3a, 0xbd, 
  0x1f, 0x47, 0xd0, 0xbd, 0x06, 0xae, 0x5b, 0x3f, 0xda, 0xc8, 0xbd, 0x3e, 
  0x23, 0xfb, 0xe9, 0xbe, 0xb5, 0xbd, 0x43, 0xbe, 0x85, 0x3a, 0x77, 0x3f, 
  0x25, 0x05, 0x52, 0x3e, 0xf9, 0x51, 0x1f, 0xbf, 0x3d, 0x3f, 0x11, 0xbe, 
  0x01, 0x37, 0xd8, 0xbe, 0xdb, 0xe3, 0x2a, 0x3d, 0xd1, 0x4e, 0x14, 0xbf, 
  0x72, 0x38, 0x60, 0xbe, 0xa9, 0x3d, 0x67, 0xbf, 0xb2, 0x97, 0x8d, 0xbe, 
  0xec, 0x4e, 0x07, 0xbf, 0x63, 0xe5, 0x9d, 0xbf, 0xf0, 0x5f, 0x3b, 0x3e, 
  0xa5, 0x7e, 0xc4, 0x3e, 0xe7, 0x9a, 0x67, 0x3e, 0xfb, 0x37, 0xbf, 0x3d, 
  0x41, 0x44, 0x27, 0xbe, 0xd0, 0xa5, 0xb2, 0x3e, 0xc4, 0xf9, 0x35, 0xbd, 
  0x4f, 0x3e, 0xd0, 0xbf, 0xa0, 0xa3, 0x3b, 0xbe, 0x07, 0xc4, 0xe6, 0x3d, 
  0xd0, 0x39, 0x3a, 0x3e, 0x4f, 0x47, 0xae, 0xbd, 0x71, 0xa5, 0xe7, 0x3e, 
  0x0c, 0xbc, 0x20, 0xbe, 0x44, 0xe4, 0x02, 0x3f, 0xf3, 0xb4, 0x92, 0x3e, 
  0x33, 0x0a, 0xb0, 0x3e, 0x9e, 0x22, 0xcc, 0xbe, 0x5e, 0x6c, 0x5b, 0xbe, 
  0xf2, 0x6c, 0x82, 0xbd, 0x22, 0xfc, 0x3c, 0xbf, 0x89, 0x46, 0x0a, 0xbf, 
  0x67, 0xbc, 0x19, 0xbe, 0xbf, 0xa7, 0x4c, 0x3e, 0x62, 0xe7, 0x1a, 0x3f, 
  0x92, 0x11, 0x46, 0x3e, 0x3b, 0xdc, 0xdf, 0x3e, 0x0e, 0x47, 0x8a, 0xbf, 
  0x52, 0xb5, 0x14, 0x3e, 0x70, 0x6e, 0xc3, 0x3e, 0x6f, 0x7e, 0x31, 0xbe, 
  0xa5, 0x42, 0x85, 0x3e, 0xfd, 0xa2, 0x36, 0x3d, 0xe3, 0x34, 0x0b, 0xbd, 
  0xbf, 0x28, 0xe6, 0x3d, 0xda, 0xe6, 0x3a, 0x3e, 0x8a, 0x7a, 0x6b, 0x3e, 
  0x37, 0x61, 0x46, 0xbe, 0xf3, 0x9d, 0x42, 0x3d, 0x04, 0x5b, 0x77, 0x3f, 
  0xfb, 0x01, 0x46, 0x3e, 0x66, 0x3f, 0xdf, 0x3e, 0x7a, 0xbb, 0xe2, 0xbd, 
  0x9b, 0x77, 0x53, 0x3f, 0x78, 0x1c, 0x5e, 0x3d, 0x4b, 0x5b, 0x92, 0x3e, 
  0xab, 0x08, 0xb4, 0x3d, 0x2f, 0xe3, 0xb9, 0x3e, 0xbf, 0xf1, 0x46, 0x3f, 
  0xf1, 0x5d, 0x32, 0x3e, 0xb2, 0xa7, 0xa4, 0xbe, 0x5a, 0x5f, 0x62, 0xbe, 
  0x42, 0xee, 0x2d, 0x3f, 0x2e, 0xe3, 0x3c, 0x3f, 0x9b, 0xa0, 0x67, 0xbf, 
  0xc8, 0x02, 0xde, 0x3d, 0x49, 0xc2, 0x1c, 0xbe, 0xe0, 0x1f, 0x96, 0xbe, 
  0x33, 0xbc, 0xe2, 0xbe, 0x57, 0x9f, 0x26, 0x3d, 0xb7, 0xc7, 0x10, 0xbf, 
  0xbc, 0x8b, 0xb5, 0xbe, 0x92, 0x05, 0xa0, 0xbe, 0xf8, 0xde, 0x99, 0xbf, 
  0x31, 0x14, 0xc3, 0x3d, 0xf6, 0x95, 0xa8, 0x3d, 0x82, 0xc8, 0xb4, 0xbd, 
  0x75, 0x9a, 0xee, 0x3d, 0xd0, 0xdc, 0x5b, 0xbe, 0x2e, 0xd0, 0x36, 0x3f, 
  0x87, 0x83, 0x27, 0xbe, 0x63, 0x35, 0xf3, 0xbf, 0x36, 0x11, 0xfa, 0x3b, 
  0x1a, 0xd7, 0x1c, 0xbe, 0xe8, 0xa8, 0x27, 0x3e, 0x6f, 0x05, 0x5b, 0xbe, 
  0x3b, 0xfb, 0x42, 0xbc, 0xbd, 0xe0, 0xb6, 0xbd, 0xee, 0x23, 0x0e, 0x3f, 
  0x2c, 0x14, 0x83, 0x3e, 0x59, 0x2c, 0x20, 0x3e, 0x68, 0x27, 0xb6, 0xbe, 
  0xdb, 0x9c, 0xcd, 0x3d, 0x32, 0xba, 0x46, 0xbe, 0x86, 0xb4, 0x4d, 0xbf, 
  0x59, 0xa2, 0xd4, 0xbd, 0x39, 0x50, 0x2e, 0x3d, 0xd0, 0x21, 0xf8, 0x3d, 
  0x11, 0xac, 0x2c, 0x3f, 0x2d, 0x8a, 0x5c, 0x3e, 0xb1, 0x28, 0xb1, 0x3e, 
  0x6d, 0x44, 0x89, 0xbf, 0x07, 0xda, 0x7b, 0xbd, 0x25, 0x89, 0x3f, 0xbe, 
  0xeb, 0xae, 0x74, 0x3e, 0x5e, 0x91, 0x03, 0x3f, 0x05, 0xc2, 0x8c, 0xbe, 
  0x44, 0x2d, 0x09, 0x3c, 0x56, 0xc7, 0x74, 0x3e, 0x24, 0xd2, 0x38, 0xbe, 
  0x8b, 0x61, 0x92, 0xbd, 0x93, 0x5f, 0x12, 0x3e, 0xac, 0x81, 0x96, 0x3e, 
  0xb2, 0xc1, 0x8b, 0x3f, 0x41, 0xd8, 0x0c, 0xbe, 0xed, 0x94, 0x83, 0x3e, 
  0xd2, 0xb9, 0xbe, 0xbc, 0x46, 0x40, 0x30, 0x3f, 0xef, 0x06, 0x07, 0x3e, 
  0x4a, 0x0a, 0x46, 0x3f, 0x94, 0x17, 0xa7, 0x3e, 0xc8, 0x04, 0x2a, 0x3e, 
  0x60, 0x0b, 0x80, 0x3f, 0xcc, 0x59, 0x4d, 0xbd, 0x2f, 0x70, 0xd8, 0xbe, 
  0x08, 0xec, 0x32, 0xbd, 0xb5, 0x2a, 0x56, 0x3f, 0xec, 0xb8, 0x66, 0x3f, 
  0xe4, 0x0d, 0x43, 0xbf, 0x8a, 0xa7, 0xc8, 0x3e, 0x25, 0xa8, 0x04, 0xbf, 
  0x55, 0xe4, 0x8b, 0x3e, 0x9c, 0xdf, 0x73, 0xbf, 0xf3, 0x7a, 0xfa, 0x3d, 
  0xcd, 0x05, 0x36, 0xbf, 0x22, 0x17, 0x16, 0xbf, 0x2e, 0xd9, 0x3f, 0xbe, 
  0xb3, 0xef, 0x77, 0xbf, 0x2d, 0xa0, 0x1a, 0x3d, 0xb7, 0x02, 0x45, 0x3e, 
  0xd8, 0xf8, 0xe9, 0x3d, 0xde, 0x19, 0x21, 0xbe, 0x9a, 0xc4, 0xc7, 0x3e, 
  0x48, 0xea, 0x3a, 0x3f, 0xa6, 0xae, 0x66, 0x3e, 0x7a, 0x79, 0xe6, 0xbf, 
  0x35, 0x77, 0x05, 0x3e, 0xe9, 0xe8, 0x3d, 0x3d, 0xd6, 0x2f, 0x6c, 0xbe, 
  0x33, 0x7f, 0x24, 0x3e, 0xf1, 0xab, 0xa2, 0x3d, 0x81, 0xd5, 0x4e, 0xbd, 
  0x07, 0x30, 0xa7, 0x3e, 0xf6, 0x38, 0xdd, 0xbb, 0xf2, 0x3e, 0x55, 0xbd, 
  0x10, 0x52, 0x35, 0xbe, 0xcf, 0x0f, 0x24, 0xbe, 0xaf, 0x0a, 0xa3, 0x3e, 
  0xbc, 0x14, 0xf2, 0xbe, 0xfd, 0xcf, 0xa4, 0xbe, 0xce, 0xbc, 0x83, 0x3d, 
  0x8a, 0x6e, 0x16, 0x3e, 0x83, 0x33, 0x22, 0x3f, 0xe7, 0xff, 0x26, 0xbe, 
  0x43, 0xdf, 0x90, 0x3e, 0x1f, 0x96, 0xb5, 0xbf, 0x50, 0xd5, 0x8c, 0xbe, 
  0xb5, 0x4a, 0xdb, 0xbd, 0x4a, 0x96, 0xe7, 0x3c, 0xd9, 0xb7, 0xe4, 0x3d, 
  0xa3, 0x9c, 0x80, 0x3d, 0xe1, 0x9f, 0xa3, 0xbd, 0xf1, 0xcb, 0x6f, 0xbd, 
  0x70, 0x8f, 0x92, 0xbe, 0x71, 0xba, 0x08, 0xbe, 0x73, 0x5e, 0x84, 0xbe, 
  0xaa, 0x2e, 0x04, 0x3e, 0xe5, 0x3e, 0x6f, 0x3f, 0xa2, 0x8d, 0xb7, 0xbd, 
  0x57, 0x24, 0x9f, 0xbe, 0x9b, 0xd2, 0xa7, 0x3e, 0x89, 0x71, 0x24, 0xbe, 
  0xa7, 0xf0, 0xe6, 0x3c, 0x37, 0x20, 0x20, 0x3f, 0xcb, 0x9b, 0xad, 0xb9, 
  0x16, 0xe6, 0x3b, 0xbf, 0xd6, 0x12, 0x4c, 0x3f, 0x7e, 0x71, 0x8a, 0xbd, 
  0xbf, 0x5e, 0x17, 0x3d, 0xa0, 0x26, 0xde, 0xbd, 0x49, 0xe8, 0xb2, 0x3e, 
  0x75, 0xbc, 0x53, 0x3f, 0x11, 0xdb, 0xf3, 0xbc, 0xb1, 0xbd, 0x10, 0xbf, 
  0x5c, 0x47, 0xd0, 0xbe, 0xce, 0x61, 0x23, 0x3c, 0x14, 0x2c, 0x3b, 0x3e, 
  0x81, 0xe4, 0x21, 0xbc, 0x55, 0x31, 0xed, 0x3c, 0xb5, 0x57, 0x25, 0xbe, 
  0x2c, 0xfc, 0x67, 0x3d, 0x65, 0x11, 0x30, 0xbf, 0x6f, 0x29, 0xda, 0x3e, 
  0x62, 0xd3, 0x09, 0x3f, 0x95, 0x76, 0x87, 0x3e, 0xf2, 0x23, 0x36, 0xbe, 
  0xe7, 0x3d, 0x3c, 0xbd, 0x7e, 0xcd, 0x9d, 0xbe, 0xdf, 0x12, 0x58, 0x3b, 
  0xf4, 0xec, 0x69, 0xbe, 0x69, 0xa3, 0xa3, 0x3c, 0x0f, 0x17, 0x44, 0xbe, 
  0x97, 0xe7, 0x53, 0x3e, 0x8b, 0x36, 0x07, 0x3e, 0x23, 0x83, 0x7f, 0xbd, 
  0x53, 0x71, 0x72, 0x3e, 0x92, 0x88, 0x9d, 0xbf, 0xbe, 0x38, 0x62, 0xbf, 
  0x01, 0x04, 0xbb, 0x3e, 0x5f, 0xe8, 0x4f, 0xbf, 0x4e, 0xf7, 0xbb, 0xbd, 
  0x63, 0xa7, 0x16, 0xbd, 0x45, 0x14, 0xa4, 0xbe, 0x5e, 0x76, 0xd4, 0xbf, 
  0x71, 0xc2, 0x4e, 0x3e, 0xc7, 0x27, 0x42, 0x3d, 0xef, 0xb5, 0x8e, 0x3d, 
  0xb9, 0xf4, 0xd6, 0x3c, 0xaa, 0x9f, 0xc3, 0xbc, 0x56, 0xfe, 0x78, 0x3e, 
  0x7d, 0x44, 0xac, 0x3a, 0x2d, 0xb3, 0xce, 0x3c, 0x59, 0x39, 0x8d, 0xbe, 
  0xa9, 0xd9, 0x28, 0x3e, 0x59, 0x11, 0x1d, 0xbd, 0x6c, 0xac, 0x1e, 0x3d, 
  0xfc, 0x1c, 0xb9, 0xbb, 0xeb, 0xea, 0x00, 0x3e, 0x66, 0x34, 0xdd, 0x3d, 
  0xba, 0x68, 0xb6, 0xbe, 0x7e, 0x91, 0xac, 0xbe, 0xb4, 0xf4, 0xf0, 0xbe, 
  0xf1, 0x8e, 0x9a, 0xbe, 0x2a, 0xd5, 0x60, 0xbe, 0x46, 0x4e, 0xb4, 0x3f, 
  0x6d, 0x2c, 0x2d, 0x3e, 0xb5, 0x6d, 0x35, 0x3f, 0xae, 0x1a, 0x1c, 0x3f, 
  0x68, 0x1b, 0x02, 0xbf, 0x5c, 0x14, 0x99, 0xbe, 0x65, 0x11, 0x96, 0x3e, 
  0x5d, 0xc9, 0x3a, 0xbe, 0x79, 0x02, 0xc6, 0x3c, 0x90, 0xc5, 0xea, 0x3d, 
  0xb7, 0x36, 0xbe, 0xbb, 0x16, 0x2a, 0xdb, 0x3e, 0x97, 0xc9, 0x11, 0x3e, 
  0xa7, 0xef, 0xcf, 0xbd, 0x30, 0xb7, 0x5d, 0x3e, 0x17, 0xe8, 0xd3, 0x3d, 
  0x5c, 0x35, 0x98, 0x3e, 0xa3, 0x5b, 0x72, 0xbf, 0x05, 0xa1, 0x1b, 0xbf, 
  0x0f, 0x4b, 0xab, 0x3d, 0x05, 0x18, 0xca, 0xbe, 0xbc, 0xf9, 0x02, 0x3f, 
  0xa7, 0x17, 0x96, 0x3e, 0x0b, 0x02, 0x3f, 0xbd, 0x45, 0x9a, 0xbe, 0xbd, 
  0x7b, 0x36, 0x40, 0x3e, 0x40, 0x6e, 0x15, 0xbe, 0xf7, 0x60, 0x1f, 0x3e, 
  0xf9, 0x98, 0x69, 0x3d, 0x1e, 0x22, 0x2d, 0xbf, 0x8a, 0xd1, 0xfc, 0xbc, 
  0xbe, 0x49, 0xc3, 0xbd, 0x0c, 0x46, 0x32, 0xbe, 0x00, 0x16, 0xb2, 0x3d, 
  0xc1, 0x3b, 0x92, 0x3b, 0xdb, 0xfa, 0x0a, 0xbd, 0x9d, 0x12, 0x37, 0x3d, 
  0x42, 0x74, 0x68, 0x3e, 0x32, 0x32, 0xbe, 0x3c, 0x92, 0xea, 0xd8, 0x3d, 
  0x50, 0x73, 0x22, 0xbe, 0xb6, 0x55, 0xac, 0x3c, 0x11, 0x64, 0x6f, 0xbe, 
  0xdf, 0x3b, 0xb1, 0xbe, 0xae, 0xcd, 0x95, 0x3e, 0x4a, 0x55, 0x1e, 0xbe, 
  0x6b, 0x30, 0x11, 0x3f, 0x49, 0xce, 0x4a, 0x3e, 0x65, 0x22, 0xb5, 0x3e, 
  0x78, 0x0b, 0x16, 0x3e, 0x9a, 0x5c, 0x84, 0xbe, 0x6c, 0x1e, 0x67, 0xbe, 
  0x68, 0xd2, 0x34, 0xbf, 0xbb, 0x8c, 0x28, 0xbf, 0xd6, 0xf6, 0x85, 0xbe, 
  0x4f, 0x95, 0xab, 0xbe, 0xc2, 0x83, 0x75, 0xbe, 0xd8, 0xa2, 0xc3, 0xbe, 
  0x01, 0xb5, 0x93, 0xbe, 0x90, 0x63, 0x7d, 0xbe, 0x20, 0xe6, 0xd2, 0xbd, 
  0x47, 0x83, 0x0a, 0x3f, 0x00, 0x26, 0xeb, 0xbd, 0xe9, 0xca, 0x5a, 0x3e, 
  0x96, 0x13, 0x2a, 0x3d, 0x18, 0x1f, 0x23, 0x3f, 0xca, 0x6f, 0xc7, 0x3d, 
  0xba, 0xc8, 0x1b, 0x3f, 0xc4, 0xa4, 0x1c, 0x3f, 0x5b, 0x22, 0xd8, 0x3e, 
  0xa5, 0x81, 0xab, 0x3f, 0xff, 0x5f, 0xac, 0x3e, 0x58, 0x48, 0x0b, 0xbf, 
  0x1d, 0x58, 0x46, 0xbe, 0xca, 0x08, 0x34, 0x3f, 0xc3, 0x9d, 0x06, 0x3f, 
  0x01, 0xf9, 0x84, 0xbf, 0xaa, 0x8d, 0x15, 0x3e, 0x10, 0xf6, 0x20, 0xbf, 
  0xa4, 0xe2, 0x2f, 0xbd, 0xed, 0xdb, 0x40, 0xbf, 0x80, 0x01, 0x4e, 0xbd, 
  0xf7, 0x77, 0x44, 0xbe, 0xf4, 0x34, 0xd8, 0xbd, 0x72, 0x39, 0x09, 0xbe, 
  0x4a, 0xab, 0x49, 0xbf, 0x99, 0x1b, 0x7c, 0x3e, 0xde, 0x23, 0x82, 0x3c, 
  0x28, 0xdc, 0xb5, 0x3a, 0x26, 0x20, 0xfa, 0xbd, 0x4d, 0x24, 0x03, 0x3e, 
  0xcb, 0x27, 0x33, 0x3e, 0x4f, 0xc8, 0xcf, 0x3c, 0x61, 0x80, 0x04, 0xc0, 
  0x7e, 0xe3, 0xbd, 0x3d, 0x60, 0x4b, 0x5a, 0x3e, 0x6b, 0x1b, 0x2b, 0xbd, 
  0xb8, 0xd7, 0x78, 0xbd, 0xf5, 0xcb, 0xa3, 0x3e, 0xe1, 0xc4, 0x93, 0x3d, 
  0x27, 0x49, 0xd8, 0x3e, 0x85, 0x65, 0x09, 0x3e, 0x4e, 0x4e, 0x37, 0x3e, 
  0x51, 0xf6, 0xb4, 0xbe, 0xc6, 0x7f, 0x07, 0xbd, 0xbf, 0x6b, 0x88, 0xbd, 
  0x00, 0x51, 0xed, 0xbe, 0x95, 0x67, 0xc6, 0xbe, 0x53, 0x1b, 0x15, 0x3d, 
  0x29, 0xc9, 0xa3, 0xbd, 0x23, 0x7c, 0xac, 0x3e, 0x64, 0x39, 0xec, 0x3b, 
  0x92, 0xa5, 0x0a, 0x3f, 0x87, 0x5b, 0xae, 0xbf, 0x76, 0x2d, 0x8f, 0x3e, 
  0xe1, 0x6b, 0x01, 0xbe, 0x3a, 0x9f, 0x33, 0x3e, 0xca, 0x3c, 0x02, 0x3e, 
  0x8a, 0xfc, 0x2d, 0xbe, 0xb4, 0xc0, 0x00, 0x3e, 0x81, 0xe3, 0x86, 0xbe, 
  0xc8, 0x20, 0xa3, 0xbd, 0xd3, 0x42, 0xc6, 0xbc, 0xde, 0x8a, 0x22, 0x3e, 
  0x9a, 0x60, 0xe2, 0x3d, 0xbb, 0x3c, 0x51, 0x3f, 0x59, 0x46, 0xfc, 0xbc, 
  0x94, 0x2c, 0x4c, 0xbc, 0xfd, 0x2a, 0x5e, 0x3f, 0xe5, 0xe2, 0xd6, 0x3e, 
  0xd9, 0x2c, 0xf2, 0x3e, 0xd4, 0xb4, 0xb6, 0xbd, 0x78, 0x88, 0x00, 0x3e, 
  0xaa, 0x2f, 0x56, 0x3e, 0x78, 0x09, 0xc4, 0xbd, 0xf4, 0x60, 0x4d, 0xbd, 
  0x6b, 0x67, 0xcd, 0x3e, 0x42, 0x44, 0x98, 0x3e, 0x05, 0xff, 0x84, 0xbe, 
  0x1d, 0x33, 0x2f, 0x3e, 0xd0, 0x45, 0x40, 0xbd, 0x83, 0x33, 0xa9, 0x3d, 
  0x12, 0x62, 0xb5, 0xbe, 0x2e, 0x9f, 0x0a, 0x3e, 0x25, 0xd2, 0x6e, 0xbe, 
  0xc6, 0x3c, 0x35, 0xbf, 0x98, 0x69, 0x2f, 0xbf, 0xe2, 0xd1, 0x6c, 0x3c, 
  0xf8, 0xe8, 0x58, 0xbf, 0xb2, 0xa8, 0x73, 0x3e, 0xfc, 0xe8, 0x1a, 0x3f, 
  0x84, 0x3e, 0x70, 0x3e, 0xe1, 0xa2, 0xd2, 0xbe, 0x05, 0xe4, 0x31, 0xbe, 
  0x63, 0x46, 0x31, 0x3d, 0x4b, 0x32, 0x75, 0x3c, 0x43, 0x19, 0x3b, 0xbe, 
  0x2d, 0x7c, 0x5c, 0xbf, 0x0a, 0xc3, 0x75, 0xbd, 0xc6, 0xb8, 0x91, 0xbe, 
  0x07, 0x03, 0x8f, 0xbd, 0x1f, 0xbb, 0xeb, 0x3d, 0x39, 0xff, 0xfe, 0xbd, 
  0x0d, 0xe9, 0x7a, 0x3e, 0x02, 0x28, 0x53, 0x3e, 0xfc, 0xa4, 0x18, 0xbe, 
  0xbb, 0xcc, 0xf6, 0x3d, 0xb3, 0x8a, 0xd2, 0x3e, 0xb8, 0x8d, 0x99, 0xbe, 
  0xab, 0xae, 0xff, 0x3d, 0x02, 0xe7, 0xe6, 0x3d, 0xb3, 0x17, 0x69, 0xbf, 
  0x25, 0x9c, 0xe0, 0x3e, 0xc3, 0xd5, 0xc9, 0xbe, 0x25, 0xe7, 0x53, 0x3e, 
  0xe2, 0xbf, 0xa9, 0x3e, 0x1e, 0x92, 0x29, 0x3f, 0xef, 0xa9, 0x60, 0x3d, 
  0x5c, 0xfa, 0xc0, 0xbe, 0xd2, 0x2f, 0x0b, 0xbe, 0x91, 0x13, 0x68, 0xbf, 
  0x10, 0x91, 0xfb, 0xbd, 0x6b, 0xfe, 0x96, 0xbe, 0x1f, 0xaa, 0x0d, 0xbf, 
  0x60, 0x85, 0xe0, 0xbe, 0x46, 0x44, 0x42, 0xbd, 0xdb, 0x88, 0xa6, 0xbe, 
  0xc8, 0xc7, 0xc2, 0xbe, 0x65, 0x6b, 0x86, 0xbe, 0xdb, 0x8e, 0xf4, 0x3e, 
  0x48, 0x09, 0xb3, 0xbd, 0x8e, 0xa6, 0x37, 0x3e, 0xa8, 0x3b, 0x7a, 0xba, 
  0x58, 0x7f, 0xe9, 0xbe, 0x9f, 0xe7, 0xab, 0x3c, 0x43, 0xd1, 0x06, 0x3d, 
  0x92, 0x07, 0xb3, 0xbc, 0x32, 0x1e, 0x93, 0xbe, 0xec, 0x56, 0x59, 0xbf, 
  0x76, 0x75, 0xb6, 0x3d, 0x77, 0x27, 0x53, 0x3d, 0x6e, 0x66, 0xae, 0xbd, 
  0xf9, 0xed, 0xde, 0xbe, 0xa6, 0xdb, 0x65, 0xbe, 0xf3, 0x1b, 0xbd, 0x3f, 
  0xd0, 0x58, 0xe9, 0x3e, 0xe8, 0xae, 0x54, 0x3f, 0x98, 0x20, 0x52, 0x3e, 
  0xff, 0x4a, 0x7b, 0x3f, 0xcf, 0x59, 0x1f, 0xbe, 0xb0, 0x7f, 0x27, 0x3f, 
  0x1a, 0x50, 0xf0, 0x3e, 0x04, 0xed, 0x6a, 0x3f, 0xc6, 0x16, 0x6a, 0xbf, 
  0xfc, 0x50, 0xd1, 0xbe, 0x3e, 0x95, 0x3b, 0xbd, 0x26, 0x5b, 0xf9, 0xbe, 
  0x01, 0x02, 0x12, 0xbe, 0xb8, 0xbd, 0xcf, 0xbd, 0xa1, 0xd6, 0xc0, 0xbe, 
  0x11, 0xc8, 0x76, 0x3e, 0x57, 0x19, 0xfb, 0xbd, 0x2b, 0x41, 0x24, 0xbd, 
  0x95, 0x94, 0x7a, 0xbe, 0x56, 0x08, 0x58, 0x3e, 0xdc, 0x40, 0x8b, 0xbe, 
  0xcd, 0xdc, 0x0e, 0xbe, 0x57, 0xc6, 0xd1, 0x3d, 0x08, 0xbd, 0x31, 0xbd, 
  0x2e, 0x35, 0x25, 0xbd, 0xd2, 0xd8, 0x1c, 0xbf, 0xc1, 0xdd, 0x51, 0xbf, 
  0x3e, 0x09, 0x5a, 0x3e, 0xd2, 0x9a, 0x5e, 0x3e, 0x25, 0x59, 0x69, 0x3f, 
  0xae, 0xc5, 0xbc, 0xbe, 0x6c, 0xb1, 0xd6, 0xbd, 0x99, 0x62, 0x48, 0x3e, 
  0x46, 0x61, 0x3f, 0xbf, 0xd8, 0xfa, 0x69, 0xbb, 0xc2, 0x37, 0x56, 0xbf, 
  0xb3, 0xac, 0x11, 0x3f, 0xab, 0x3a, 0x5a, 0xbf, 0x04, 0x70, 0x18, 0xbf, 
  0x8c, 0x8f, 0x87, 0xbe, 0x33, 0x56, 0x40, 0x3c, 0x65, 0x6b, 0xda, 0x3e, 
  0xdd, 0xa6, 0xd0, 0x3c, 0xd2, 0xc0, 0xd1, 0xbd, 0x26, 0x47, 0x9a, 0xbe, 
  0xb7, 0x54, 0x41, 0xbe, 0xe3, 0xf4, 0x6a, 0x3e, 0xc1, 0xea, 0x3c, 0xbe, 
  0xc9, 0x97, 0xfb, 0xbe, 0x69, 0xf3, 0x0e, 0xbe, 0x0e, 0x9c, 0x7f, 0x3d, 
  0x34, 0x0f, 0x32, 0x3f, 0x48, 0x01, 0x02, 0x3f, 0xea, 0xae, 0x9b, 0x3e, 
  0x3b, 0xe2, 0x44, 0x3e, 0x7f, 0x8b, 0x3f, 0xbd, 0x9a, 0x15, 0x82, 0x3e, 
  0x71, 0x6e, 0x98, 0x3e, 0xa9, 0x9d, 0x30, 0xbe, 0x04, 0x19, 0xfd, 0x3d, 
  0x09, 0x02, 0x07, 0x3e, 0xa2, 0x9a, 0x50, 0x3d, 0x0e, 0x0e, 0x0f, 0x3f, 
  0xfd, 0xf2, 0x3f, 0x3e, 0x27, 0x12, 0x9a, 0x3d, 0xb6, 0xa8, 0x06, 0xbe, 
  0xe7, 0x2b, 0xc7, 0x3d, 0x18, 0xc2, 0xc1, 0xbe, 0x35, 0xe9, 0x17, 0xbf, 
  0x46, 0xd5, 0x3d, 0xbf, 0x01, 0xfc, 0x8a, 0xbd, 0xd6, 0x3c, 0x40, 0xbf, 
  0x06, 0x4d, 0x7f, 0x3e, 0xb2, 0x56, 0x0e, 0x3f, 0xb3, 0xc2, 0x2b, 0xbe, 
  0xa0, 0xa5, 0x4f, 0xbd, 0xbd, 0x04, 0xa0, 0xbd, 0x21, 0xfb, 0x36, 0x3d, 
  0xb5, 0x72, 0x87, 0xbc, 0x44, 0x9b, 0xbc, 0x3d, 0x9a, 0x7c, 0xca, 0xbf, 
  0x76, 0xec, 0xac, 0xbd, 0x72, 0xa5, 0x8e, 0xbe, 0x04, 0xbf, 0xb2, 0xbe, 
  0x04, 0x09, 0x84, 0x3e, 0x50, 0x4c, 0x84, 0x3c, 0x9b, 0x8b, 0x4f, 0x3d, 
  0x13, 0x30, 0x1e, 0x3f, 0xed, 0x32, 0xa4, 0xbe, 0xe9, 0x1e, 0x95, 0xbd, 
  0xc6, 0x40, 0x14, 0x3e, 0xf8, 0xfb, 0x01, 0xbf, 0x50, 0x88, 0x43, 0xbe, 
  0xfe, 0x4f, 0x45, 0x3c, 0x1e, 0xda, 0x16, 0xbf, 0x05, 0xc3, 0x09, 0x3f, 
  0x4c, 0xe6, 0x0a, 0x3b, 0x45, 0x01, 0xf6, 0x3d, 0xfd, 0xbe, 0xa4, 0x3e, 
  0x23, 0x7b, 0x39, 0x3f, 0x1b, 0x1c, 0xfa, 0xbd, 0xc6, 0x05, 0x53, 0xbf, 
  0xef, 0x32, 0x01, 0xbd, 0xab, 0x38, 0x4f, 0xbf, 0x75, 0x1e, 0x0a, 0x3e, 
  0x13, 0xe3, 0xa0, 0xbd, 0x8a, 0x7b, 0xd6, 0xbe, 0x7a, 0x44, 0xe1, 0xbd, 
  0x4b, 0xb4, 0xa1, 0xbd, 0x41, 0xec, 0xa7, 0x3c, 0x55, 0x9d, 0x89, 0xbe, 
  0x6f, 0xbb, 0xa8, 0xbe, 0x77, 0x02, 0xca, 0x3e, 0x5b, 0x0a, 0x0b, 0xbe, 
  0x3c, 0x5f, 0x98, 0x3d, 0xd1, 0xee, 0x45, 0x3e, 0xdd, 0xed, 0x43, 0x3f, 
  0x79, 0x62, 0x9f, 0x3d, 0x3e, 0xb1, 0xf1, 0x3c, 0x06, 0x6c, 0x30, 0xbe, 
  0x7f, 0x70, 0xde, 0x3d, 0x9c, 0x77, 0x08, 0x3f, 0x48, 0x62, 0xb5, 0xbe, 
  0x8c, 0x2a, 0xd2, 0xbe, 0x6c, 0xb3, 0x9c, 0x3d, 0xd9, 0x8c, 0x99, 0x3e, 
  0x7f, 0x5c, 0xb2, 0x3e, 0x9f, 0x69, 0x83, 0xbf, 0x41, 0x74, 0x61, 0x3e, 
  0x7b, 0x40, 0x88, 0x3b, 0xe0, 0x9e, 0x8c, 0xbe, 0x28, 0x78, 0x3e, 0xbf, 
  0x62, 0xc0, 0x6a, 0x3e, 0xec, 0x65, 0x3d, 0xbf, 0x72, 0x66, 0x15, 0x3d, 
  0x6b, 0xc3, 0xc8, 0xbe, 0x12, 0xdc, 0xac, 0xbf, 0xb0, 0x09, 0xcb, 0xbd, 
  0x1b, 0xa2, 0x28, 0x3f, 0x31, 0xdb, 0x11, 0xbe, 0x83, 0x2e, 0x87, 0xbd, 
  0xf1, 0xe8, 0x3a, 0x3d, 0x06, 0x21, 0x03, 0x3f, 0xc6, 0x84, 0xb8, 0xbd, 
  0x15, 0x4b, 0xcf, 0xbf, 0x8e, 0x65, 0x1c, 0x3e, 0xa7, 0x1f, 0xcd, 0xbe, 
  0xa0, 0x18, 0x95, 0xbe, 0xdc, 0xd3, 0xf9, 0xbb, 0xeb, 0x79, 0xa9, 0x3e, 
  0xdb, 0x3f, 0x11, 0xbf, 0x08, 0xf9, 0xdd, 0x3e, 0x1e, 0x96, 0x8e, 0x3c, 
  0xe0, 0xf1, 0xe9, 0x3d, 0x88, 0x30, 0x2f, 0xbe, 0x1d, 0xd9, 0x04, 0x3d, 
  0x7c, 0xcf, 0x3e, 0x3e, 0x04, 0xe4, 0x84, 0xbe, 0x39, 0x99, 0xa0, 0xbe, 
  0xfd, 0x8f, 0x36, 0x3e, 0x9f, 0xde, 0x69, 0x3e, 0xf4, 0x76, 0x21, 0x3f, 
  0x64, 0x74, 0xe3, 0x3e, 0xff, 0x88, 0x52, 0x3e, 0x39, 0x20, 0xc2, 0xbf, 
  0x4b, 0xbd, 0xc8, 0xbe, 0x8c, 0x0b, 0x1a, 0xbe, 0x56, 0xcd, 0xbf, 0xbe, 
  0xe8, 0x4a, 0x22, 0x3f, 0x2a, 0xf9, 0xf6, 0x3d, 0x88, 0x23, 0x1e, 0xbd, 
  0xb7, 0x89, 0x26, 0xbe, 0x05, 0x72, 0x8f, 0xbe, 0x80, 0x91, 0x90, 0x3d, 
  0x6b, 0x7d, 0x9a, 0xbe, 0x01, 0x46, 0x1e, 0x3e, 0xdd, 0xd3, 0x4d, 0x3f, 
  0xff, 0xd2, 0xfc, 0x3d, 0xef, 0x34, 0xdf, 0xbe, 0x9d, 0xb1, 0x14, 0xbf, 
  0x13, 0x45, 0x3e, 0xbe, 0xfb, 0x40, 0x25, 0xbf, 0x44, 0xa6, 0xab, 0xbe, 
  0x54, 0xe4, 0x04, 0xbf, 0xc4, 0x9f, 0x07, 0x3f, 0x34, 0x00, 0xab, 0xbf, 
  0x77, 0xc9, 0x3b, 0xbf, 0xb9, 0x09, 0x9d, 0xbf, 0xf2, 0x97, 0x28, 0xbf, 
  0xec, 0xc6, 0x78, 0xbf, 0x91, 0x47, 0xad, 0xbf, 0xea, 0xaf, 0x95, 0xbe, 
  0x42, 0x22, 0x59, 0x3e, 0x4a, 0xad, 0x53, 0xbe, 0x34, 0x5c, 0xdb, 0xbe, 
  0x31, 0xc0, 0xa0, 0xbe, 0x84, 0xd6, 0x92, 0x3e, 0x3b, 0x44, 0x4b, 0x3f, 
  0xca, 0x90, 0x6f, 0xbe, 0xbc, 0xd8, 0x2a, 0x3f, 0xb6, 0x9f, 0xad, 0x3e, 
  0xd9, 0x82, 0x00, 0xbf, 0x01, 0x90, 0x1e, 0xbf, 0xf3, 0x03, 0x8b, 0x3d, 
  0xf7, 0x30, 0x76, 0xbd, 0x6f, 0x94, 0x7c, 0x3d, 0x5f, 0xd3, 0x15, 0x3e, 
  0x05, 0xa2, 0x84, 0xbd, 0xad, 0x87, 0x19, 0x3f, 0x9a, 0xa8, 0xaf, 0xbe, 
  0x70, 0x8e, 0x9a, 0x3d, 0x8b, 0xd3, 0xfd, 0xbe, 0xf4, 0x8e, 0x27, 0x3e, 
  0x03, 0x2f, 0x52, 0xbe, 0xf6, 0x1a, 0x8e, 0x3e, 0xd0, 0x22, 0x7d, 0x3e, 
  0xc7, 0x26, 0x8f, 0x3e, 0xbb, 0xa0, 0x0a, 0xbe, 0x40, 0x75, 0x72, 0xbe, 
  0x56, 0x29, 0x9f, 0xbe, 0xa9, 0x54, 0x56, 0xbc, 0x61, 0x57, 0x18, 0xbd, 
  0x95, 0xab, 0xd1, 0x3e, 0x17, 0x3e, 0x5f, 0xbe, 0xcd, 0xa7, 0x12, 0x3e, 
  0x1d, 0xd2, 0x09, 0xbe, 0x0a, 0x2f, 0xd4, 0x3c, 0x30, 0x3a, 0xcb, 0xbe, 
  0x1d, 0x0f, 0x41, 0x3f, 0x5e, 0x97, 0x12, 0x3f, 0xb0, 0x37, 0xd5, 0x3e, 
  0x12, 0x98, 0x82, 0x3f, 0xd5, 0xea, 0x33, 0x3e, 0xa7, 0xbd, 0x0e, 0xbe, 
  0x51, 0xe8, 0xb4, 0x3e, 0x6a, 0x26, 0x1d, 0x3f, 0x8e, 0xfc, 0x2a, 0x3e, 
  0x64, 0x8b, 0x1a, 0x3f, 0x46, 0x6f, 0xa8, 0x3e, 0xc5, 0xb6, 0x81, 0x3e, 
  0xce, 0xb1, 0x80, 0x3e, 0x27, 0x67, 0x51, 0x3e, 0x99, 0x6a, 0x01, 0xbf, 
  0x11, 0xf5, 0x85, 0xbe, 0x75, 0xc7, 0x58, 0xbe, 0xcf, 0xf0, 0xbe, 0xbd, 
  0xf8, 0x8c, 0x94, 0xbf, 0x01, 0x00, 0x8d, 0xbf, 0xbb, 0xe8, 0x44, 0x3e, 
  0xdd, 0x0f, 0x92, 0xbf, 0x0a, 0xce, 0xb2, 0xbf, 0xc7, 0xaa, 0x22, 0xbe, 
  0x39, 0xcb, 0x25, 0xbe, 0xed, 0xf6, 0x8e, 0xbf, 0x54, 0x89, 0x96, 0xbf, 
  0xfa, 0x7f, 0xbd, 0x3f, 0xb0, 0x69, 0x77, 0x3e, 0x88, 0xfa, 0x33, 0xbf, 
  0x67, 0x98, 0x9c, 0xbf, 0x8c, 0xc1, 0x15, 0x3f, 0x36, 0x0d, 0x71, 0xbe, 
  0xe3, 0xea, 0x53, 0x3f, 0x58, 0x34, 0x95, 0xbe, 0xa5, 0x54, 0x1c, 0x3f, 
  0x10, 0x11, 0x64, 0x3f, 0xdf, 0x85, 0xbc, 0xbe, 0x57, 0xae, 0xdd, 0xbf, 
  0x9d, 0x4c, 0xe0, 0x3d, 0x97, 0x88, 0xe2, 0xbe, 0x7a, 0x69, 0x92, 0x3e, 
  0x2f, 0x86, 0x7f, 0xbc, 0xbd, 0x80, 0xbe, 0xbe, 0x97, 0x8d, 0xe9, 0x3f, 
  0xdd, 0x80, 0x8c, 0xbf, 0x68, 0x8c, 0xbb, 0x3e, 0xe8, 0x93, 0xdc, 0xbe, 
  0x6a, 0xe6, 0xcc, 0xbe, 0xd6, 0xf2, 0x54, 0xbd, 0x2d, 0x4a, 0x1c, 0x3f, 
  0xca, 0xe9, 0x04, 0x3d, 0x1f, 0x29, 0xe1, 0x3e, 0xd9, 0xa0, 0x13, 0x3e, 
  0xe9, 0xa4, 0xdf, 0x3e, 0x13, 0x10, 0x78, 0xbe, 0x5c, 0x92, 0x3c, 0x3e, 
  0x8c, 0xd8, 0x02, 0x3f, 0xe0, 0x7a, 0x2a, 0xbd, 0xb5, 0xba, 0x32, 0xbc, 
  0xc6, 0x05, 0x1e, 0xbe, 0x4e, 0x2f, 0x76, 0xbd, 0xae, 0x5b, 0xe1, 0x3e, 
  0x94, 0x82, 0x23, 0xbe, 0x13, 0x5d, 0x2c, 0x3f, 0x80, 0x55, 0xeb, 0x3d, 
  0x79, 0xa8, 0x97, 0xbe, 0x93, 0xb7, 0xc8, 0x3d, 0x06, 0xfe, 0x5d, 0xbf, 
  0xff, 0xf1, 0x09, 0x3e, 0xd7, 0x30, 0x07, 0x3f, 0xb5, 0xf4, 0x67, 0x3e, 
  0x7c, 0x26, 0x23, 0x3f, 0xf9, 0x55, 0x1e, 0x3f, 0x45, 0x04, 0x2c, 0x3f, 
  0x4e, 0x4b, 0xc4, 0x3e, 0xcf, 0xb4, 0x25, 0xbf, 0xf8, 0x6a, 0xb8, 0x3e, 
  0x36, 0xfb, 0xff, 0xff, 0x04, 0x00, 0x00, 0x00, 0x40, 0x00, 0x00, 0x00, 
  0xe4, 0x9b, 0xd8, 0x3d, 0xb8, 0x8a, 0xb3, 0xbf, 0x3a, 0x73, 0xc0, 0xbf, 
  0xdf, 0xe9, 0x08, 0x40, 0xda, 0x08, 0xa4, 0xbf, 0x6c, 0x87, 0xc9, 0xbf, 
  0x42, 0xed, 0x9a, 0xbf, 0xf5, 0x7e, 0xb0, 0xbf, 0x54, 0x60, 0x26, 0xc0, 
  0x01, 0xf7, 0xc2, 0xbf, 0x0d, 0x12, 0x4d, 0xc0, 0x5d, 0xdd, 0x8e, 0x3f, 
  0x2f, 0xd1, 0x39, 0xc0, 0x97, 0x12, 0x3d, 0xbf, 0x91, 0xc1, 0x6d, 0x40, 
  0x83, 0x6b, 0x0d, 0x40, 0x82, 0xfb, 0xff, 0xff, 0x04, 0x00, 0x00, 0x00, 
  0x40, 0x00, 0x00, 0x00, 0xc3, 0x84, 0xa1, 0x3f, 0x7f, 0xe5, 0x9f, 0x3d, 
  0x35, 0xfa, 0xc6, 0xbf, 0xad, 0x45, 0xc6, 0xbe, 0x34, 0x14, 0xb9, 0x3f, 
  0x03, 0xe1, 0xef, 0x3d, 0xc2, 0x24, 0xb0, 0x3f, 0x8c, 0x4b, 0x70, 0x3f, 
  0x67, 0xbc, 0x7b, 0xbf, 0xa7, 0x64, 0x32, 0x3f, 0xe5, 0x59, 0x67, 0xbf, 
  0xe4, 0x78, 0x01, 0xbe, 0x11, 0x9b, 0x25, 0xbf, 0x2c, 0xcb, 0x0d, 0x3f, 
  0x7a, 0x37, 0x3d, 0xbe, 0x92, 0x12, 0xbd, 0x3f, 0xce, 0xfb, 0xff, 0xff, 
  0x04, 0x00, 0x00, 0x00, 0x00, 0x02, 0x00, 0x00, 0xe7, 0x60, 0xc7, 0x3e, 
  0xfb, 0xe0, 0x8b, 0xbf, 0x19, 0x51, 0xdc, 0x3e, 0x0c, 0x76, 0x26, 0x3e, 
  0x46, 0x5d, 0x82, 0xbe, 0x7c, 0x45, 0x01, 0x3f, 0x6a, 0x4a, 0x8c, 0x3a, 
  0xc7, 0x89, 0x98, 0x3e, 0xc8, 0x25, 0x38, 0xbe, 0xa3, 0xeb, 0x34, 0xbf, 
  0x00, 0xcb, 0x25, 0x3e, 0xb2, 0xb3, 0x37, 0xbe, 0xc0, 0x1a, 0xcd, 0xbd, 
  0x50, 0x4a, 0x73, 0xbe, 0x11, 0x0d, 0xa8, 0xbf, 0xbc, 0x11, 0x1d, 0x3f, 
  0x14, 0x71, 0xd2, 0x3f, 0x0c, 0x17, 0x87, 0x3e, 0x24, 0x03, 0x17, 0x3c, 
  0xca, 0x36, 0x1f, 0x3f, 0xad, 0xd4, 0x70, 0xbf, 0x6a, 0x6a, 0x61, 0x3d, 
  0x44, 0x69, 0x4a, 0xbf, 0x3f, 0xbf, 0x20, 0x3e, 0x37, 0x3e, 0x82, 0x3e, 
  0xf8, 0x5f, 0xbd, 0x3e, 0xf4, 0x2a, 0x9f, 0xbe, 0x3b, 0xc4, 0x04, 0x3e, 
  0x2e, 0xf8, 0x36, 0x3e, 0xc0, 0xf9, 0x54, 0x3f, 0xa5, 0xea, 0xaa, 0xbe, 
  0xd8, 0xe7, 0xb4, 0x3d, 0xa1, 0xa6, 0xda, 0x3e, 0x33, 0xf5, 0x35, 0x3d, 
  0xa3, 0x82, 0x79, 0x3e, 0xf4, 0x30, 0x23, 0x3e, 0x16, 0x6e, 0x9f, 0xbe, 
  0x37, 0x63, 0xd2, 0xbe, 0x75, 0x72, 0xce, 0xbe, 0xee, 0x24, 0x28, 0x3f, 
  0xe1, 0xec, 0x31, 0x3f, 0x9b, 0xf6, 0x78, 0xbe, 0xda, 0x6b, 0x4d, 0x3e, 
  0x73, 0xf9, 0x5d, 0x3f, 0xee, 0xe3, 0x04, 0x3f, 0x17, 0xff, 0x1e, 0x3e, 
  0xa3, 0xfa, 0x4b, 0xbe, 0xb2, 0x62, 0x7d, 0x3e, 0x5e, 0x91, 0x7a, 0x3f, 
  0x21, 0xfd, 0xad, 0x3d, 0x71, 0xb4, 0xfb, 0xbd, 0x55, 0x78, 0x39, 0xbe, 
  0x8f, 0xb9, 0x33, 0xbf, 0x98, 0x84, 0x7d, 0xbe, 0x4a, 0x89, 0xa6, 0xbe, 
  0x07, 0x41, 0xd4, 0x3e, 0x86, 0x52, 0x57, 0xbe, 0xde, 0x8f, 0x85, 0x3d, 
  0x31, 0x3d, 0xfe, 0x3d, 0x87, 0x26, 0xee, 0x3d, 0x8b, 0x73, 0x05, 0xbf, 
  0xc1, 0x34, 0x05, 0x3e, 0x09, 0xa5, 0x2b, 0x3d, 0xd2, 0x2a, 0x27, 0x3d, 
  0x51, 0xad, 0xc1, 0x3e, 0x45, 0xa6, 0xb0, 0xbe, 0x4b, 0xd2, 0xfb, 0x3c, 
  0x96, 0x13, 0x0b, 0x3d, 0x80, 0x67, 0x94, 0xbe, 0x84, 0x5d, 0xc4, 0xbf, 
  0x2f, 0xb6, 0x87, 0xbd, 0xed, 0x64, 0xf7, 0xbb, 0x46, 0x44, 0xc3, 0x3e, 
  0xd9, 0x3e, 0xe5, 0xbe, 0x25, 0xac, 0xa9, 0xbe, 0x2d, 0xa3, 0xbf, 0xbe, 
  0xb2, 0xba, 0x8b, 0x3e, 0x76, 0x4c, 0x63, 0xbe, 0x19, 0x36, 0x61, 0xbe, 
  0xa8, 0x86, 0x1a, 0x3f, 0x9a, 0x7a, 0x0b, 0xbd, 0xf5, 0x7c, 0x34, 0xbf, 
  0xe0, 0x5d, 0x20, 0xbf, 0x39, 0xf0, 0xa9, 0xbe, 0x9f, 0x11, 0x1a, 0xbe, 
  0x44, 0x05, 0x9d, 0xbf, 0x84, 0x7f, 0x31, 0x3e, 0x2e, 0x46, 0x62, 0x3f, 
  0x39, 0x83, 0x12, 0x3f, 0xdb, 0xfc, 0xd2, 0x3d, 0x15, 0xc1, 0x94, 0xbd, 
  0x5c, 0x4b, 0xff, 0x3e, 0x30, 0x40, 0xf6, 0xbe, 0xa3, 0x07, 0x12, 0xbe, 
  0x68, 0x55, 0x1f, 0xbe, 0x27, 0x24, 0x8b, 0xbe, 0x8e, 0x8c, 0xd3, 0x3e, 
  0x60, 0xec, 0x15, 0x3f, 0xd8, 0xaf, 0x20, 0xbf, 0x28, 0x0a, 0x69, 0xbf, 
  0x7f, 0xc2, 0xa0, 0xbe, 0xe2, 0x8b, 0xd7, 0xbd, 0x68, 0x46, 0xe8, 0x3e, 
  0xa4, 0x3d, 0xcb, 0xbe, 0x98, 0x86, 0x6e, 0xbe, 0x05, 0x72, 0x0b, 0x3f, 
  0x71, 0x58, 0xe7, 0xbf, 0xef, 0x8d, 0x10, 0xbf, 0xc3, 0xe5, 0x18, 0xbf, 
  0x5e, 0x54, 0x37, 0xbf, 0xb8, 0x4e, 0x22, 0x3f, 0x3f, 0x72, 0xcf, 0xbf, 
  0xee, 0x96, 0xcb, 0xbe, 0x3d, 0x22, 0x14, 0x3e, 0x51, 0x2b, 0x17, 0x3e, 
  0xe3, 0x52, 0x40, 0x3e, 0x91, 0x58, 0x12, 0x3f, 0x53, 0x85, 0x4d, 0x3e, 
  0x01, 0xbd, 0x29, 0x3f, 0x55, 0xe0, 0x26, 0x3f, 0x69, 0x54, 0xe2, 0x3e, 
  0x78, 0xef, 0x16, 0xbf, 0x08, 0x8d, 0xc8, 0x3e, 0x4f, 0xd9, 0x26, 0xbe, 
  0xf1, 0x98, 0xa9, 0xbe, 0x27, 0x34, 0x11, 0xc0, 0xed, 0xc3, 0x81, 0xbe, 
  0x07, 0x6d, 0x39, 0xbd, 0xda, 0xfd, 0xff, 0xff, 0x04, 0x00, 0x00, 0x00, 
  0x0c, 0x00, 0x00, 0x00, 0xff, 0xff, 0xff, 0xff, 0x08, 0x00, 0x00, 0x00, 
  0x08, 0x00, 0x00, 0x00, 0xf2, 0xfd, 0xff, 0xff, 0x04, 0x00, 0x00, 0x00, 
  0x04, 0x00, 0x00, 0x00, 0x53, 0xd2, 0x6a, 0x3f, 0x02, 0xfe, 0xff, 0xff, 
  0x04, 0x00, 0x00, 0x00, 0x20, 0x00, 0x00, 0x00, 0x0b, 0x6d, 0x37, 0x3f, 
  0x51, 0x08, 0x62, 0xbc, 0xcf, 0x61, 0x48, 0x3e, 0x2e, 0xe6, 0x10, 0x3f, 
  0xf4, 0xa9, 0xa8, 0x3c, 0xe3, 0x2a, 0xe7, 0xbe, 0x97, 0x9f, 0xbd, 0x3e, 
  0xd5, 0xab, 0x2c, 0x3f, 0x2e, 0xfe, 0xff, 0xff, 0x04, 0x00, 0x00, 0x00, 
  0x20, 0x00, 0x00, 0x00, 0xd1, 0x10, 0xb0, 0x3e, 0x72, 0xff, 0x66, 0xbe, 
  0x0d, 0xe2, 0xe4, 0x3e, 0x26, 0x4e, 0x0e, 0x3f, 0x88, 0xc8, 0x5e, 0x3f, 
  0x3e, 0x0e, 0xda, 0x3e, 0x98, 0xff, 0x8f, 0x3e, 0xf9, 0xd6, 0x4a, 0x3e, 
  0x5a, 0xfe, 0xff, 0xff, 0x04, 0x00, 0x00, 0x00, 0x40, 0x00, 0x00, 0x00, 
  0x8a, 0x64, 0x2f, 0xbb, 0xc0, 0x42, 0x94, 0xbd, 0x5c, 0x48, 0x99, 0x3e, 
  0xb3, 0x24, 0x82, 0x3e, 0x1f, 0xcc, 0x15, 0x3e, 0x11, 0x34, 0x7a, 0x3d, 
  0xfb, 0x92, 0x9a, 0x3d, 0x3c, 0x7c, 0xf1, 0xbb, 0x4a, 0x83, 0x42, 0xbe, 
  0x7e, 0xda, 0xee, 0x3c, 0x9c, 0x4a, 0xf3, 0xbd, 0x1a, 0x50, 0x25, 0xbe, 
  0x5d, 0x85, 0x18, 0xbd, 0xe9, 0x92, 0x1f, 0x3d, 0x74, 0x8c, 0x95, 0x3e, 
  0x68, 0x07, 0x81, 0x3e, 0x98, 0xef, 0xff, 0xff, 0x9c, 0xef, 0xff, 0xff, 
  0x0f, 0x00, 0x00, 0x00, 0x4d, 0x4c, 0x49, 0x52, 0x20, 0x43, 0x6f, 0x6e, 
  0x76, 0x65, 0x72, 0x74, 0x65, 0x64, 0x2e, 0x00, 0x01, 0x00, 0x00, 0x00, 
  0x14, 0x00, 0x00, 0x00, 0x00, 0x00, 0x0e, 0x00, 0x18, 0x00, 0x14, 0x00, 
  0x10, 0x00, 0x0c, 0x00, 0x08, 0x00, 0x04, 0x00, 0x0e, 0x00, 0x00, 0x00, 
  0x14, 0x00, 0x00, 0x00, 0x1c, 0x00, 0x00, 0x00, 0x28, 0x03, 0x00, 0x00, 
  0x2c, 0x03, 0x00, 0x00, 0x30, 0x03, 0x00, 0x00, 0x04, 0x00, 0x00, 0x00, 
  0x6d, 0x61, 0x69, 0x6e, 0x00, 0x00, 0x00, 0x00, 0x0d, 0x00, 0x00, 0x00, 
  0xe0, 0x02, 0x00, 0x00, 0x80, 0x02, 0x00, 0x00, 0x48, 0x02, 0x00, 0x00, 
  0x0c, 0x02, 0x00, 0x00, 0xc8, 0x01, 0x00, 0x00, 0xa0, 0x01, 0x00, 0x00, 
  0x64, 0x01, 0x00, 0x00, 0x04, 0x01, 0x00, 0x00, 0xc4, 0x00, 0x00, 0x00, 
  0x9c, 0x00, 0x00, 0x00, 0x60, 0x00, 0x00, 0x00, 0x28, 0x00, 0x00, 0x00, 
  0x04, 0x00, 0x00, 0x00, 0xee, 0xfd, 0xff, 0xff, 0x0c, 0x00, 0x00, 0x00, 
  0x10, 0x00, 0x00, 0x00, 0x07, 0x00, 0x00, 0x00, 0x01, 0x00, 0x00, 0x00, 
  0x1a, 0x00, 0x00, 0x00, 0x01, 0x00, 0x00, 0x00, 0x19, 0x00, 0x00, 0x00, 
  0xde, 0xfd, 0xff, 0xff, 0x14, 0x00, 0x00, 0x00, 0x00, 0x00, 0x00, 0x08, 
  0x10, 0x00, 0x00, 0x00, 0x14, 0x00, 0x00, 0x00, 0x06, 0x00, 0x00, 0x00, 
  0x60, 0xf0, 0xff, 0xff, 0x01, 0x00, 0x00, 0x00, 0x19, 0x00, 0x00, 0x00, 
  0x03, 0x00, 0x00, 0x00, 0x18, 0x00, 0x00, 0x00, 0x08, 0x00, 0x00, 0x00, 
  0x04, 0x00, 0x00, 0x00, 0x12, 0xfe, 0xff, 0xff, 0x14, 0x00, 0x00, 0x00, 
  0x00, 0x00, 0x00, 0x08, 0x14, 0x00, 0x00, 0x00, 0x18, 0x00, 0x00, 0x00, 
  0x06, 0x00, 0x00, 0x00, 0x0a, 0xff, 0xff, 0xff, 0x00, 0x00, 0x00, 0x01, 
  0x01, 0x00, 0x00, 0x00, 0x18, 0x00, 0x00, 0x00, 0x03, 0x00, 0x00, 0x00, 
  0x17, 0x00, 0x00, 0x00, 0x09, 0x00, 0x00, 0x00, 0x01, 0x00, 0x00, 0x00, 
  0x7a, 0xfe, 0xff, 0xff, 0x0c, 0x00, 0x00, 0x00, 0x10, 0x00, 0x00, 0x00, 
  0x02, 0x00, 0x00, 0x00, 0x01, 0x00, 0x00, 0x00, 0x17, 0x00, 0x00, 0x00, 
  0x02, 0x00, 0x00, 0x00, 0x12, 0x00, 0x00, 0x00, 0x16, 0x00, 0x00, 0x00, 
  0x76, 0xff, 0xff, 0xff, 0x1c, 0x00, 0x00, 0x00, 0x00, 0x00, 0x00, 0x3b, 
  0x1c, 0x00, 0x00, 0x00, 0x20, 0x00, 0x00, 0x00, 0x05, 0x00, 0x00, 0x00, 
  0x00, 0x00, 0x06, 0x00, 0x08, 0x00, 0x04, 0x00, 0x06, 0x00, 0x00, 0x00, 
  0x02, 0x00, 0x00, 0x00, 0x01, 0x00, 0x00, 0x00, 0x16, 0x00, 0x00, 0x00, 
  0x02, 0x00, 0x00, 0x00, 0x15, 0x00, 0x00, 0x00, 0x0c, 0x00, 0x00, 0x00, 
  0xb2, 0xff, 0xff, 0xff, 0x24, 0x00, 0x00, 0x00, 0x00, 0x00, 0x00, 0x20, 
  0x24, 0x00, 0x00, 0x00, 0x28, 0x00, 0x00, 0x00, 0x04, 0x00, 0x00, 0x00, 
  0x00, 0x00, 0x0e, 0x00, 0x08, 0x00, 0x00, 0x00, 0x00, 0x00, 0x00, 0x00, 
  0x00, 0x00, 0x04, 0x00, 0x0e, 0x00, 0x00, 0x00, 0x01, 0x00, 0x00, 0x00, 
  0x01, 0x00, 0x00, 0x00, 0x15, 0x00, 0x00, 0x00, 0x04, 0x00, 0x00, 0x00, 
  0x14, 0x00, 0x00, 0x00, 0x0b, 0x00, 0x00, 0x00, 0x0a, 0x00, 0x00, 0x00, 
  0x0a, 0x00, 0x00, 0x00, 0x00, 0x00, 0x0e, 0x00, 0x1a, 0x00, 0x14, 0x00, 
  0x10, 0x00, 0x0c, 0x00, 0x0b, 0x00, 0x04, 0x00, 0x0e, 0x00, 0x00, 0x00, 
  0x1c, 0x00, 0x00, 0x00, 0x00, 0x00, 0x00, 0x37, 0x1c, 0x00, 0x00, 0x00, 
  0x20, 0x00, 0x00, 0x00, 0x03, 0x00, 0x00, 0x00, 0x00, 0x00, 0x06, 0x00, 
  0x08, 0x00, 0x07, 0x00, 0x06, 0x00, 0x00, 0x00, 0x00, 0x00, 0x00, 0x02, 
  0x01, 0x00, 0x00, 0x00, 0x14, 0x00, 0x00, 0x00, 0x01, 0x00, 0x00, 0x00, 
  0x13, 0x00, 0x00, 0x00, 0x6e, 0xff, 0xff, 0xff, 0x0c, 0x00, 0x00, 0x00, 
  0x10, 0x00, 0x00, 0x00, 0x02, 0x00, 0x00, 0x00, 0x01, 0x00, 0x00, 0x00, 
  0x13, 0x00, 0x00, 0x00, 0x02, 0x00, 0x00, 0x00, 0x12, 0x00, 0x00, 0x00, 
  0x05, 0x00, 0x00, 0x00, 0x62, 0xff, 0xff, 0xff, 0x14, 0x00, 0x00, 0x00, 
  0x00, 0x00, 0x00, 0x01, 0x1c, 0x00, 0x00, 0x00, 0x20, 0x00, 0x00, 0x00, 
  0x01, 0x00, 0x00, 0x00, 0x54, 0xff, 0xff, 0xff, 0x00, 0x00, 0x00, 0x01, 
  0x01, 0x00, 0x00, 0x00, 0x01, 0x00, 0x00, 0x00, 0x01, 0x00, 0x00, 0x00, 
  0x12, 0x00, 0x00, 0x00, 0x03, 0x00, 0x00, 0x00, 0x11, 0x00, 0x00, 0x00, 
  0x06, 0x00, 0x00, 0x00, 0x02, 0x00, 0x00, 0x00, 0x46, 0xff, 0xff, 0xff, 
  0x10, 0x00, 0x00, 0x00, 0x00, 0x00, 0x00, 0x34, 0x0c, 0x00, 0x00, 0x00, 
  0x10, 0x00, 0x00, 0x00, 0x20, 0xf2, 0xff, 0xff, 0x01, 0x00, 0x00, 0x00, 
  0x11, 0x00, 0x00, 0x00, 0x02, 0x00, 0x00, 0x00, 0x10, 0x00, 0x00, 0x00, 
  0x0d, 0x00, 0x00, 0x00, 0x00, 0x00, 0x0a, 0x00, 0x10, 0x00, 0x0c, 0x00, 
  0x08, 0x00, 0x04, 0x00, 0x0a, 0x00, 0x00, 0x00, 0x0c, 0x00, 0x00, 0x00, 
  0x10, 0x00, 0x00, 0x00, 0x02, 0x00, 0x00, 0x00, 0x01, 0x00, 0x00, 0x00, 
  0x10, 0x00, 0x00, 0x00, 0x02, 0x00, 0x00, 0x00, 0x0f, 0x00, 0x00, 0x00, 
  0x05, 0x00, 0x00, 0x00, 0x00, 0x00, 0x0e, 0x00, 0x18, 0x00, 0x14, 0x00, 
  0x10, 0x00, 0x0c, 0x00, 0x0b, 0x00, 0x04, 0x00, 0x0e, 0x00, 0x00, 0x00, 
  0x20, 0x00, 0x00, 0x00, 0x00, 0x00, 0x00, 0x01, 0x28, 0x00, 0x00, 0x00, 
  0x2c, 0x00, 0x00, 0x00, 0x01, 0x00, 0x00, 0x00, 0x0c, 0x00, 0x10, 0x00, 
  0x00, 0x00, 0x0c, 0x00, 0x08, 0x00, 0x07, 0x00, 0x0c, 0x00, 0x00, 0x00, 
  0x00, 0x00, 0x00, 0x01, 0x01, 0x00, 0x00, 0x00, 0x01, 0x00, 0x00, 0x00, 
  0x01, 0x00, 0x00, 0x00, 0x0f, 0x00, 0x00, 0x00, 0x03, 0x00, 0x00, 0x00, 
  0x0e, 0x00, 0x00, 0x00, 0x07, 0x00, 0x00, 0x00, 0x03, 0x00, 0x00, 0x00, 
  0x00, 0x00, 0x0e, 0x00, 0x14, 0x00, 0x00, 0x00, 0x10, 0x00, 0x0c, 0x00, 
  0x0b, 0x00, 0x04, 0x00, 0x0e, 0x00, 0x00, 0x00, 0x10, 0x00, 0x00, 0x00, 
  0x00, 0x00, 0x00, 0x34, 0x0c, 0x00, 0x00, 0x00, 0x10, 0x00, 0x00, 0x00, 
  0xe8, 0xf2, 0xff, 0xff, 0x01, 0x00, 0x00, 0x00, 0x0e, 0x00, 0x00, 0x00, 
  0x02, 0x00, 0x00, 0x00, 0x00, 0x00, 0x00, 0x00, 0x0d, 0x00, 0x00, 0x00, 
  0x01, 0x00, 0x00, 0x00, 0x1a, 0x00, 0x00, 0x00, 0x01, 0x00, 0x00, 0x00, 
  0x00, 0x00, 0x00, 0x00, 0x1b, 0x00, 0x00, 0x00, 0xc0, 0x0c, 0x00, 0x00, 
  0x44, 0x0c, 0x00, 0x00, 0x50, 0x0b, 0x00, 0x00, 0x80, 0x0a, 0x00, 0x00, 
  0x38, 0x0a, 0x00, 0x00, 0xf8, 0x09, 0x00, 0x00, 0x84, 0x09, 0x00, 0x00, 
  0x28, 0x09, 0x00, 0x00, 0xd8, 0x08, 0x00, 0x00, 0x8c, 0x08, 0x00, 0x00, 
  0x4c, 0x08, 0x00, 0x00, 0xf0, 0x07, 0x00, 0x00, 0x9c, 0x07, 0x00, 0x00, 
  0x60, 0x07, 0x00, 0x00, 0xe0, 0x06, 0x00, 0x00, 0xec, 0x05, 0x00, 0x00, 
  0x20, 0x05, 0x00, 0x00, 0xa0, 0x04, 0x00, 0x00, 0xa0, 0x03, 0x00, 0x00, 
  0xcc, 0x02, 0x00, 0x00, 0x7c, 0x02, 0x00, 0x00, 0x28, 0x02, 0x00, 0x00, 
  0xd0, 0x01, 0x00, 0x00, 0x70, 0x01, 0x00, 0x00, 0xdc, 0x00, 0x00, 0x00, 
  0x60, 0x00, 0x00, 0x00, 0x04, 0x00, 0x00, 0x00, 0xc2, 0xf3, 0xff, 0xff, 
  0x00, 0x00, 0x00, 0x01, 0x14, 0x00, 0x00, 0x00, 0x1c, 0x00, 0x00, 0x00, 
  0x1c, 0x00, 0x00, 0x00, 0x1b, 0x00, 0x00, 0x00, 0x34, 0x00, 0x00, 0x00, 
  0x02, 0x00, 0x00, 0x00, 0xff, 0xff, 0xff, 0xff, 0x01, 0x00, 0x00, 0x00, 
  0xa8, 0xf3, 0xff, 0xff, 0x1b, 0x00, 0x00, 0x00, 0x53, 0x74, 0x61, 0x74, 
  0x65, 0x66, 0x75, 0x6c, 0x50, 0x61, 0x72, 0x74, 0x69, 0x74, 0x69, 0x6f, 
  0x6e, 0x65, 0x64, 0x43, 0x61, 0x6c, 0x6c, 0x5f, 0x31, 0x3a, 0x30, 0x00, 
  0x02, 0x00, 0x00, 0x00, 0x01, 0x00, 0x00, 0x00, 0x01, 0x00, 0x00, 0x00, 
  0x1a, 0xf4, 0xff, 0xff, 0x00, 0x00, 0x00, 0x01, 0x14, 0x00, 0x00, 0x00, 
  0x1c, 0x00, 0x00, 0x00, 0x1c, 0x00, 0x00, 0x00, 0x1a, 0x00, 0x00, 0x00, 
  0x54, 0x00, 0x00, 0x00, 0x02, 0x00, 0x00, 0x00, 0xff, 0xff, 0xff, 0xff, 
  0x01, 0x00, 0x00, 0x00, 0x00, 0xf4, 0xff, 0xff, 0x38, 0x00, 0x00, 0x00, 
  0x73, 0x65, 0x71, 0x75, 0x65, 0x6e, 0x74, 0x69, 0x61, 0x6c, 0x5f, 0x31, 
  0x2f, 0x64, 0x65, 0x6e, 0x73, 0x65, 0x5f, 0x31, 0x5f, 0x32, 0x2f, 0x4d, 
  0x61, 0x74, 0x4d, 0x75, 0x6c, 0x3b, 0x73, 0x65, 0x71, 0x75, 0x65, 0x6e, 
  0x74, 0x69, 0x61, 0x6c, 0x5f, 0x31, 0x2f, 0x64, 0x65, 0x6e, 0x73, 0x65, 
  0x5f, 0x31, 0x5f, 0x32, 0x2f, 0x41, 0x64, 0x64, 0x00, 0x00, 0x00, 0x00, 
  0x02, 0x00, 0x00, 0x00, 0x01, 0x00, 0x00, 0x00, 0x01, 0x00, 0x00, 0x00, 
  0x92, 0xf4, 0xff, 0xff, 0x00, 0x00, 0x00, 0x01, 0x14, 0x00, 0x00, 0x00, 
  0x1c, 0x00, 0x00, 0x00, 0x1c, 0x00, 0x00, 0x00, 0x19, 0x00, 0x00, 0x00, 
  0x6c, 0x00, 0x00, 0x00, 0x02, 0x00, 0x00, 0x00, 0xff, 0xff, 0xff, 0xff, 
  0x10, 0x00, 0x00, 0x00, 0x78, 0xf4, 0xff, 0xff, 0x52, 0x00, 0x00, 0x00, 
  0x73, 0x65, 0x71, 0x75, 0x65, 0x6e, 0x74, 0x69, 0x61, 0x6c, 0x5f, 0x31, 
  0x2f, 0x64, 0x65, 0x6e, 0x73, 0x65, 0x5f, 0x31, 0x2f, 0x4d, 0x61, 0x74, 
  0x4d, 0x75, 0x6c, 0x3b, 0x73, 0x65, 0x71, 0x75, 0x65, 0x6e, 0x74, 0x69, 
  0x61, 0x6c, 0x5f, 0x31, 0x2f, 0x64, 0x65, 0x6e, 0x73, 0x65, 0x5f, 0x31, 
  0x2f, 0x52, 0x65, 0x6c, 0x75, 0x3b, 0x73, 0x65, 0x71, 0x75, 0x65, 0x6e, 
  0x74, 0x69, 0x61, 0x6c, 0x5f, 0x31, 0x2f, 0x64, 0x65, 0x6e, 0x73, 0x65, 
  0x5f, 0x31, 0x2f, 0x42, 0x69, 0x61, 0x73, 0x41, 0x64, 0x64, 0x00, 0x00, 
  0x02, 0x00, 0x00, 0x00, 0x01, 0x00, 0x00, 0x00, 0x10, 0x00, 0x00, 0x00, 
  0x22, 0xf5, 0xff, 0xff, 0x00, 0x00, 0x00, 0x01, 0x14, 0x00, 0x00, 0x00, 
  0x1c, 0x00, 0x00, 0x00, 0x1c, 0x00, 0x00, 0x00, 0x18, 0x00, 0x00, 0x00, 
  0x38, 0x00, 0x00, 0x00, 0x02, 0x00, 0x00, 0x00, 0xff, 0xff, 0xff, 0xff, 
  0x40, 0x00, 0x00, 0x00, 0x08, 0xf5, 0xff, 0xff, 0x1e, 0x00, 0x00, 0x00, 
  0x73, 0x65, 0x71, 0x75, 0x65, 0x6e, 0x74, 0x69, 0x61, 0x6c, 0x5f, 0x31, 
  0x2f, 0x66, 0x6c, 0x61, 0x74, 0x74, 0x65, 0x6e, 0x5f, 0x31, 0x2f, 0x52, 
  0x65, 0x73, 0x68, 0x61, 0x70, 0x65, 0x00, 0x00, 0x02, 0x00, 0x00, 0x00, 
  0x01, 0x00, 0x00, 0x00, 0x40, 0x00, 0x00, 0x00, 0x32, 0xf8, 0xff, 0xff, 
  0x00, 0x00, 0x00, 0x01, 0x14, 0x00, 0x00, 0x00, 0x14, 0x00, 0x00, 0x00, 
  0x17, 0x00, 0x00, 0x00, 0x00, 0x00, 0x00, 0x02, 0x34, 0x00, 0x00, 0x00, 
  0x58, 0xf5, 0xff, 0xff, 0x24, 0x00, 0x00, 0x00, 0x73, 0x65, 0x71, 0x75, 
  0x65, 0x6e, 0x74, 0x69, 0x61, 0x6c, 0x5f, 0x31, 0x2f, 0x66, 0x6c, 0x61, 
  0x74, 0x74, 0x65, 0x6e, 0x5f, 0x31, 0x2f, 0x52, 0x65, 0x73, 0x68, 0x61, 
  0x70, 0x65, 0x2f, 0x73, 0x68, 0x61, 0x70, 0x65, 0x00, 0x00, 0x00, 0x00, 
  0x01, 0x00, 0x00, 0x00, 0x02, 0x00, 0x00, 0x00, 0x86, 0xf8, 0xff, 0xff, 
  0x00, 0x00, 0x00, 0x01, 0x14, 0x00, 0x00, 0x00, 0x14, 0x00, 0x00, 0x00, 
  0x16, 0x00, 0x00, 0x00, 0x00, 0x00, 0x00, 0x02, 0x34, 0x00, 0x00, 0x00, 
  0xac, 0xf5, 0xff, 0xff, 0x24, 0x00, 0x00, 0x00, 0x73, 0x65, 0x71, 0x75, 
  0x65, 0x6e, 0x74, 0x69, 0x61, 0x6c, 0x5f, 0x31, 0x2f, 0x66, 0x6c, 0x61, 
  0x74, 0x74, 0x65, 0x6e, 0x5f, 0x31, 0x2f, 0x73, 0x74, 0x72, 0x69, 0x64, 
  0x65, 0x64, 0x5f, 0x73, 0x6c, 0x69, 0x63, 0x65, 0x00, 0x00, 0x00, 0x00, 
  0x00, 0x00, 0x00, 0x00, 0xd6, 0xf8, 0xff, 0xff, 0x00, 0x00, 0x00, 0x01, 
  0x14, 0x00, 0x00, 0x00, 0x14, 0x00, 0x00, 0x00, 0x15, 0x00, 0x00, 0x00, 
  0x00, 0x00, 0x00, 0x02, 0x2c, 0x00, 0x00, 0x00, 0xfc, 0xf5, 0xff, 0xff, 
  0x1c, 0x00, 0x00, 0x00, 0x73, 0x65, 0x71, 0x75, 0x65, 0x6e, 0x74, 0x69, 
  0x61, 0x6c, 0x5f, 0x31, 0x2f, 0x66, 0x6c, 0x61, 0x74, 0x74, 0x65, 0x6e, 
  0x5f, 0x31, 0x2f, 0x53, 0x68, 0x61, 0x70, 0x65, 0x00, 0x00, 0x00, 0x00, 
  0x01, 0x00, 0x00, 0x00, 0x03, 0x00, 0x00, 0x00, 0x6e, 0xf6, 0xff, 0xff, 
  0x00, 0x00, 0x00, 0x01, 0x14, 0x00, 0x00, 0x00, 0x20, 0x00, 0x00, 0x00, 
  0x20, 0x00, 0x00, 0x00, 0x14, 0x00, 0x00, 0x00, 0xa8, 0x00, 0x00, 0x00, 
  0x03, 0x00, 0x00, 0x00, 0xff, 0xff, 0xff, 0xff, 0x08, 0x00, 0x00, 0x00, 
  0x08, 0x00, 0x00, 0x00, 0x58, 0xf6, 0xff, 0xff, 0x88, 0x00, 0x00, 0x00, 
  0x73, 0x65, 0x71, 0x75, 0x65, 0x6e, 0x74, 0x69, 0x61, 0x6c, 0x5f, 0x31, 
  0x2f, 0x63, 0x6f, 0x6e, 0x76, 0x31, 0x64, 0x5f, 0x31, 0x5f, 0x32, 0x2f, 
  0x52, 0x65, 0x6c, 0x75, 0x3b, 0x73, 0x65, 0x71, 0x75, 0x65, 0x6e, 0x74, 
  0x69, 0x61, 0x6c, 0x5f, 0x31, 0x2f, 0x63, 0x6f, 0x6e, 0x76, 0x31, 0x64, 
  0x5f, 0x31, 0x5f, 0x32, 0x2f, 0x42, 0x69, 0x61, 0x73, 0x41, 0x64, 0x64, 
  0x3b, 0x73, 0x65, 0x71, 0x75, 0x65, 0x6e, 0x74, 0x69, 0x61, 0x6c, 0x5f, 
  0x31, 0x2f, 0x63, 0x6f, 0x6e, 0x76, 0x31, 0x64, 0x5f, 0x31, 0x5f, 0x32, 
  0x2f, 0x63, 0x6f, 0x6e, 0x76, 0x6f, 0x6c, 0x75, 0x74, 0x69, 0x6f, 0x6e, 
  0x2f, 0x53, 0x71, 0x75, 0x65, 0x65, 0x7a, 0x65, 0x3b, 0x73, 0x65, 0x71, 
  0x75, 0x65, 0x6e, 0x74, 0x69, 0x61, 0x6c, 0x5f, 0x31, 0x2f, 0x63, 0x6f, 
  0x6e, 0x76, 0x31, 0x64, 0x5f, 0x31, 0x5f, 0x32, 0x2f, 0x53, 0x71, 0x75, 
  0x65, 0x65, 0x7a, 0x65, 0x00, 0x00, 0x00, 0x00, 0x03, 0x00, 0x00, 0x00, 
  0x01, 0x00, 0x00, 0x00, 0x08, 0x00, 0x00, 0x00, 0x08, 0x00, 0x00, 0x00, 
  0x3e, 0xf7, 0xff, 0xff, 0x00, 0x00, 0x00, 0x01, 0x14, 0x00, 0x00, 0x00, 
  0x24, 0x00, 0x00, 0x00, 0x24, 0x00, 0x00, 0x00, 0x13, 0x00, 0x00, 0x00, 
  0xd0, 0x00, 0x00, 0x00, 0x04, 0x00, 0x00, 0x00, 0xff, 0xff, 0xff, 0xff, 
  0x01, 0x00, 0x00, 0x00, 0x08, 0x00, 0x00, 0x00, 0x08, 0x00, 0x00, 0x00, 
  0x2c, 0xf7, 0xff, 0xff, 0xad, 0x00, 0x00, 0x00, 0x73, 0x65, 0x71, 0x75, 
  0x65, 0x6e, 0x74, 0x69, 0x61, 0x6c, 0x5f, 0x31, 0x2f, 0x63, 0x6f, 0x6e, 
  0x76, 0x31, 0x64, 0x5f, 0x31, 0x5f, 0x32, 0x2f, 0x52, 0x65, 0x6c, 0x75, 
  0x3b, 0x73, 0x65, 0x71, 0x75, 0x65, 0x6e, 0x74, 0x69, 0x61, 0x6c, 0x5f, 
  0x31, 0x2f, 0x63, 0x6f, 0x6e, 0x76, 0x31, 0x64, 0x5f, 0x31, 0x5f, 0x32, 
  0x2f, 0x42, 0x69, 0x61, 0x73, 0x41, 0x64, 0x64, 0x3b, 0x73, 0x65, 0x71, 
  0x75, 0x65, 0x6e, 0x74, 0x69, 0x61, 0x6c, 0x5f, 0x31, 0x2f, 0x63, 0x6f, 
  0x6e, 0x76, 0x31, 0x64, 0x5f, 0x31, 0x5f, 0x32, 0x2f, 0x63, 0x6f, 0x6e, 
  0x76, 0x6f, 0x6c, 0x75, 0x74, 0x69, 0x6f, 0x6e, 0x2f, 0x53, 0x71, 0x75, 
  0x65, 0x65, 0x7a, 0x65, 0x3b, 0x73, 0x65, 0x71, 0x75, 0x65, 0x6e, 0x74, 
  0x69, 0x61, 0x6c, 0x5f, 0x31, 0x2f, 0x63, 0x6f, 0x6e, 0x76, 0x31, 0x64, 
  0x5f, 0x31, 0x5f, 0x32, 0x2f, 0x53, 0x71, 0x75, 0x65, 0x65, 0x7a, 0x65, 
  0x3b, 0x73, 0x65, 0x71, 0x75, 0x65, 0x6e, 0x74, 0x69, 0x61, 0x6c, 0x5f, 
  0x31, 0x2f, 0x63, 0x6f, 0x6e, 0x76, 0x31, 0x64, 0x5f, 0x31, 0x5f, 0x32, 
  0x2f, 0x63, 0x6f, 0x6e, 0x76, 0x6f, 0x6c, 0x75, 0x74, 0x69, 0x6f, 0x6e, 
  0x31, 0x00, 0x00, 0x00, 0x04, 0x00, 0x00, 0x00, 0x01, 0x00, 0x00, 0x00, 
  0x01, 0x00, 0x00, 0x00, 0x08, 0x00, 0x00, 0x00, 0x08, 0x00, 0x00, 0x00, 
  0x3a, 0xf8, 0xff, 0xff, 0x00, 0x00, 0x00, 0x01, 0x14, 0x00, 0x00, 0x00, 
  0x24, 0x00, 0x00, 0x00, 0x24, 0x00, 0x00, 0x00, 0x12, 0x00, 0x00, 0x00, 
  0x50, 0x00, 0x00, 0x00, 0x04, 0x00, 0x00, 0x00, 0xff, 0xff, 0xff, 0xff, 
  0x01, 0x00, 0x00, 0x00, 0x08, 0x00, 0x00, 0x00, 0x08, 0x00, 0x00, 0x00, 
  0x28, 0xf8, 0xff, 0xff, 0x2e, 0x00, 0x00, 0x00, 0x73, 0x65, 0x71, 0x75, 
  0x65, 0x6e, 0x74, 0x69, 0x61, 0x6c, 0x5f, 0x31, 0x2f, 0x63, 0x6f, 0x6e, 
  0x76, 0x31, 0x64, 0x5f, 0x31, 0x5f, 0x32, 0x2f, 0x63, 0x6f, 0x6e, 0x76, 
  0x6f, 0x6c, 0x75, 0x74, 0x69, 0x6f, 0x6e, 0x2f, 0x45, 0x78, 0x70, 0x61, 
  0x6e, 0x64, 0x44, 0x69, 0x6d, 0x73, 0x00, 0x00, 0x04, 0x00, 0x00, 0x00, 
  0x01, 0x00, 0x00, 0x00, 0x01, 0x00, 0x00, 0x00, 0x08, 0x00, 0x00, 0x00, 
  0x08, 0x00, 0x00, 0x00, 0xb6, 0xf8, 0xff, 0xff, 0x00, 0x00, 0x00, 0x01, 
  0x14, 0x00, 0x00, 0x00, 0x20, 0x00, 0x00, 0x00, 0x20, 0x00, 0x00, 0x00, 
  0x11, 0x00, 0x00, 0x00, 0xa0, 0x00, 0x00, 0x00, 0x03, 0x00, 0x00, 0x00, 
  0xff, 0xff, 0xff, 0xff, 0x08, 0x00, 0x00, 0x00, 0x08, 0x00, 0x00, 0x00, 
  0xa0, 0xf8, 0xff, 0xff, 0x80, 0x00, 0x00, 0x00, 0x73, 0x65, 0x71, 0x75, 
  0x65, 0x6e, 0x74, 0x69, 0x61, 0x6c, 0x5f, 0x31, 0x2f, 0x63, 0x6f, 0x6e, 
  0x76, 0x31, 0x64, 0x5f, 0x31, 0x2f, 0x52, 0x65, 0x6c, 0x75, 0x3b, 0x73, 
  0x65, 0x71, 0x75, 0x65, 0x6e, 0x74, 0x69, 0x61, 0x6c, 0x5f, 0x31, 0x2f, 
  0x63, 0x6f, 0x6e, 0x76, 0x31, 0x64, 0x5f, 0x31, 0x2f, 0x42, 0x69, 0x61, 
  0x73, 0x41, 0x64, 0x64, 0x3b, 0x73, 0x65, 0x71, 0x75, 0x65, 0x6e, 0x74, 
  0x69, 0x61, 0x6c, 0x5f, 0x31, 0x2f, 0x63, 0x6f, 0x6e, 0x76, 0x31, 0x64, 
  0x5f, 0x31, 0x2f, 0x63, 0x6f, 0x6e, 0x76, 0x6f, 0x6c, 0x75, 0x74, 0x69, 
  0x6f, 0x6e, 0x2f, 0x53, 0x71, 0x75, 0x65, 0x65, 0x7a, 0x65, 0x3b, 0x73, 
  0x65, 0x71, 0x75, 0x65, 0x6e, 0x74, 0x69, 0x61, 0x6c, 0x5f, 0x31, 0x2f, 
  0x63, 0x6f, 0x6e, 0x76, 0x31, 0x64, 0x5f, 0x31, 0x2f, 0x53, 0x71, 0x75, 
  0x65, 0x65, 0x7a, 0x65, 0x00, 0x00, 0x00, 0x00, 0x03, 0x00, 0x00, 0x00, 
  0x01, 0x00, 0x00, 0x00, 0x08, 0x00, 0x00, 0x00, 0x08, 0x00, 0x00, 0x00, 
  0x7e, 0xf9, 0xff, 0xff, 0x00, 0x00, 0x00, 0x01, 0x14, 0x00, 0x00, 0x00, 
  0x24, 0x00, 0x00, 0x00, 0x24, 0x00, 0x00, 0x00, 0x10, 0x00, 0x00, 0x00, 
  0xc4, 0x00, 0x00, 0x00, 0x04, 0x00, 0x00, 0x00, 0xff, 0xff, 0xff, 0xff, 
  0x01, 0x00, 0x00, 0x00, 0x08, 0x00, 0x00, 0x00, 0x08, 0x00, 0x00, 0x00, 
  0x6c, 0xf9, 0xff, 0xff, 0xa3, 0x00, 0x00, 0x00, 0x73, 0x65, 0x71, 0x75, 
  0x65, 0x6e, 0x74, 0x69, 0x61, 0x6c, 0x5f, 0x31, 0x2f, 0x63, 0x6f, 0x6e, 
  0x76, 0x31, 0x64, 0x5f, 0x31, 0x2f, 0x52, 0x65, 0x6c, 0x75, 0x3b, 0x73, 
  0x65, 0x71, 0x75, 0x65, 0x6e, 0x74, 0x69, 0x61, 0x6c, 0x5f, 0x31, 0x2f, 
  0x63, 0x6f, 0x6e, 0x76, 0x31, 0x64, 0x5f, 0x31, 0x2f, 0x42, 0x69, 0x61, 
  0x73, 0x41, 0x64, 0x64, 0x3b, 0x73, 0x65, 0x71, 0x75, 0x65, 0x6e, 0x74, 
  0x69, 0x61, 0x6c, 0x5f, 0x31, 0x2f, 0x63, 0x6f, 0x6e, 0x76, 0x31, 0x64, 
  0x5f, 0x31, 0x2f, 0x63, 0x6f, 0x6e, 0x76, 0x6f, 0x6c, 0x75, 0x74, 0x69, 
  0x6f, 0x6e, 0x2f, 0x53, 0x71, 0x75, 0x65, 0x65, 0x7a, 0x65, 0x3b, 0x73, 
  0x65, 0x71, 0x75, 0x65, 0x6e, 0x74, 0x69, 0x61, 0x6c, 0x5f, 0x31, 0x2f, 
  0x63, 0x6f, 0x6e, 0x76, 0x31, 0x64, 0x5f, 0x31, 0x2f, 0x53, 0x71, 0x75, 
  0x65, 0x65, 0x7a, 0x65, 0x3b, 0x73, 0x65, 0x71, 0x75, 0x65, 0x6e, 0x74, 
  0x69, 0x61, 0x6c, 0x5f, 0x31, 0x2f, 0x63, 0x6f, 0x6e, 0x76, 0x31, 0x64, 
  0x5f, 0x31, 0x2f, 0x63, 0x6f, 0x6e, 0x76, 0x6f, 0x6c, 0x75, 0x74, 0x69, 
  0x6f, 0x6e, 0x31, 0x00, 0x04, 0x00, 0x00, 0x00, 0x01, 0x00, 0x00, 0x00, 
  0x01, 0x00, 0x00, 0x00, 0x08, 0x00, 0x00, 0x00, 0x08, 0x00, 0x00, 0x00, 
  0x6e, 0xfa, 0xff, 0xff, 0x00, 0x00, 0x00, 0x01, 0x14, 0x00, 0x00, 0x00, 
  0x24, 0x00, 0x00, 0x00, 0x24, 0x00, 0x00, 0x00, 0x0f, 0x00, 0x00, 0x00, 
  0x50, 0x00, 0x00, 0x00, 0x04, 0x00, 0x00, 0x00, 0xff, 0xff, 0xff, 0xff, 
  0x01, 0x00, 0x00, 0x00, 0x08, 0x00, 0x00, 0x00, 0x01, 0x00, 0x00, 0x00, 
  0x5c, 0xfa, 0xff, 0xff, 0x2c, 0x00, 0x00, 0x00, 0x73, 0x65, 0x71, 0x75, 
  0x65, 0x6e, 0x74, 0x69, 0x61, 0x6c, 0x5f, 0x31, 0x2f, 0x63, 0x6f, 0x6e, 
  0x76, 0x31, 0x64, 0x5f, 0x31, 0x2f, 0x63, 0x6f, 0x6e, 0x76, 0x6f, 0x6c, 
  0x75, 0x74, 0x69, 0x6f, 0x6e, 0x2f, 0x45, 0x78, 0x70, 0x61, 0x6e, 0x64, 
  0x44, 0x69, 0x6d, 0x73, 0x00, 0x00, 0x00, 0x00, 0x04, 0x00, 0x00, 0x00, 
  0x01, 0x00, 0x00, 0x00, 0x01, 0x00, 0x00, 0x00, 0x08, 0x00, 0x00, 0x00, 
  0x01, 0x00, 0x00, 0x00, 0x9e, 0xfd, 0xff, 0xff, 0x00, 0x00, 0x00, 0x01, 
  0x14, 0x00, 0x00, 0x00, 0x14, 0x00, 0x00, 0x00, 0x0e, 0x00, 0x00, 0x00, 
  0x00, 0x00, 0x00, 0x02, 0x1c, 0x00, 0x00, 0x00, 0xc4, 0xfa, 0xff, 0xff, 
  0x0f, 0x00, 0x00, 0x00, 0x61, 0x72, 0x69, 0x74, 0x68, 0x2e, 0x63, 0x6f, 
  0x6e, 0x73, 0x74, 0x61, 0x6e, 0x74, 0x32, 0x00, 0x00, 0x00, 0x00, 0x00, 
  0xd6, 0xfd, 0xff, 0xff, 0x00, 0x00, 0x00, 0x01, 0x14, 0x00, 0x00, 0x00, 
  0x14, 0x00, 0x00, 0x00, 0x0d, 0x00, 0x00, 0x00, 0x00, 0x00, 0x00, 0x02, 
  0x34, 0x00, 0x00, 0x00, 0xfc, 0xfa, 0xff, 0xff, 0x26, 0x00, 0x00, 0x00, 
  0x73, 0x65, 0x71, 0x75, 0x65, 0x6e, 0x74, 0x69, 0x61, 0x6c, 0x5f, 0x31, 
  0x2f, 0x66, 0x6c, 0x61, 0x74, 0x74, 0x65, 0x6e, 0x5f, 0x31, 0x2f, 0x52, 
  0x65, 0x73, 0x68, 0x61, 0x70, 0x65, 0x2f, 0x73, 0x68, 0x61, 0x70, 0x65, 
  0x2f, 0x31, 0x00, 0x00, 0x00, 0x00, 0x00, 0x00, 0x26, 0xfe, 0xff, 0xff, 
  0x00, 0x00, 0x00, 0x01, 0x14, 0x00, 0x00, 0x00, 0x14, 0x00, 0x00, 0x00, 
  0x0c, 0x00, 0x00, 0x00, 0x00, 0x00, 0x00, 0x02, 0x38, 0x00, 0x00, 0x00, 
  0x4c, 0xfb, 0xff, 0xff, 0x2a, 0x00, 0x00, 0x00, 0x73, 0x65, 0x71, 0x75, 
  0x65, 0x6e, 0x74, 0x69, 0x61, 0x6c, 0x5f, 0x31, 0x2f, 0x66, 0x6c, 0x61, 
  0x74, 0x74, 0x65, 0x6e, 0x5f, 0x31, 0x2f, 0x73, 0x74, 0x72, 0x69, 0x64, 
  0x65, 0x64, 0x5f, 0x73, 0x6c, 0x69, 0x63, 0x65, 0x2f, 0x73, 0x74, 0x61, 
  0x63, 0x6b, 0x00, 0x00, 0x01, 0x00, 0x00, 0x00, 0x01, 0x00, 0x00, 0x00, 
  0x7e, 0xfe, 0xff, 0xff, 0x00, 0x00, 0x00, 0x01, 0x14, 0x00, 0x00, 0x00, 
  0x14, 0x00, 0x00, 0x00, 0x0b, 0x00, 0x00, 0x00, 0x00, 0x00, 0x00, 0x02, 
  0x1c, 0x00, 0x00, 0x00, 0xa4, 0xfb, 0xff, 0xff, 0x0f, 0x00, 0x00, 0x00, 
  0x61, 0x72, 0x69, 0x74, 0x68, 0x2e, 0x63, 0x6f, 0x6e, 0x73, 0x74, 0x61, 
  0x6e, 0x74, 0x31, 0x00, 0x01, 0x00, 0x00, 0x00, 0x01, 0x00, 0x00, 0x00, 
  0x7e, 0xfc, 0xff, 0xff, 0x00, 0x00, 0x00, 0x01, 0x10, 0x00, 0x00, 0x00, 
  0x10, 0x00, 0x00, 0x00, 0x0a, 0x00, 0x00, 0x00, 0x28, 0x00, 0x00, 0x00, 
  0xdc, 0xfb, 0xff, 0xff, 0x1b, 0x00, 0x00, 0x00, 0x73, 0x65, 0x71, 0x75, 
  0x65, 0x6e, 0x74, 0x69, 0x61, 0x6c, 0x5f, 0x31, 0x2f, 0x64, 0x65, 0x6e, 
  0x73, 0x65, 0x5f, 0x31, 0x2f, 0x4d, 0x61, 0x74, 0x4d, 0x75, 0x6c, 0x00, 
  0x02, 0x00, 0x00, 0x00, 0x10, 0x00, 0x00, 0x00, 0x40, 0x00, 0x00, 0x00, 
  0xc6, 0xfc, 0xff, 0xff, 0x00, 0x00, 0x00, 0x01, 0x10, 0x00, 0x00, 0x00, 
  0x10, 0x00, 0x00, 0x00, 0x09, 0x00, 0x00, 0x00, 0x2c, 0x00, 0x00, 0x00, 
  0x24, 0xfc, 0xff, 0xff, 0x1d, 0x00, 0x00, 0x00, 0x73, 0x65, 0x71, 0x75, 
  0x65, 0x6e, 0x74, 0x69, 0x61, 0x6c, 0x5f, 0x31, 0x2f, 0x64, 0x65, 0x6e, 
  0x73, 0x65, 0x5f, 0x31, 0x5f, 0x32, 0x2f, 0x4d, 0x61, 0x74, 0x4d, 0x75, 
  0x6c, 0x00, 0x00, 0x00, 0x02, 0x00, 0x00, 0x00, 0x01, 0x00, 0x00, 0x00, 
  0x10, 0x00, 0x00, 0x00, 0x12, 0xfd, 0xff, 0xff, 0x00, 0x00, 0x00, 0x01, 
  0x10, 0x00, 0x00, 0x00, 0x10, 0x00, 0x00, 0x00, 0x08, 0x00, 0x00, 0x00, 
  0x30, 0x00, 0x00, 0x00, 0x70, 0xfc, 0xff, 0xff, 0x21, 0x00, 0x00, 0x00, 
  0x73, 0x65, 0x71, 0x75, 0x65, 0x6e, 0x74, 0x69, 0x61, 0x6c, 0x5f, 0x31, 
  0x2f, 0x63, 0x6f, 0x6e, 0x76, 0x31, 0x64, 0x5f, 0x31, 0x2f, 0x63, 0x6f, 
  0x6e, 0x76, 0x6f, 0x6c, 0x75, 0x74, 0x69, 0x6f, 0x6e, 0x00, 0x00, 0x00, 
  0x04, 0x00, 0x00, 0x00, 0x08, 0x00, 0x00, 0x00, 0x01, 0x00, 0x00, 0x00, 
  0x02, 0x00, 0x00, 0x00, 0x01, 0x00, 0x00, 0x00, 0x6a, 0xfd, 0xff, 0xff, 
  0x00, 0x00, 0x00, 0x01, 0x10, 0x00, 0x00, 0x00, 0x10, 0x00, 0x00, 0x00, 
  0x07, 0x00, 0x00, 0x00, 0x30, 0x00, 0x00, 0x00, 0xc8, 0xfc, 0xff, 0xff, 
  0x23, 0x00, 0x00, 0x00, 0x73, 0x65, 0x71, 0x75, 0x65, 0x6e, 0x74, 0x69, 
  0x61, 0x6c, 0x5f, 0x31, 0x2f, 0x63, 0x6f, 0x6e, 0x76, 0x31, 0x64, 0x5f, 
  0x31, 0x5f, 0x32, 0x2f, 0x63, 0x6f, 0x6e, 0x76, 0x6f, 0x6c, 0x75, 0x74, 
  0x69, 0x6f, 0x6e, 0x00, 0x04, 0x00, 0x00, 0x00, 0x08, 0x00, 0x00, 0x00, 
  0x01, 0x00, 0x00, 0x00, 0x02, 0x00, 0x00, 0x00, 0x08, 0x00, 0x00, 0x00, 
  0x00, 0x00, 0x16, 0x00, 0x1c, 0x00, 0x18, 0x00, 0x17, 0x00, 0x10, 0x00, 
  0x0c, 0x00, 0x08, 0x00, 0x00, 0x00, 0x00, 0x00, 0x00, 0x00, 0x07, 0x00, 
  0x16, 0x00, 0x00, 0x00, 0x00, 0x00, 0x00, 0x01, 0x14, 0x00, 0x00, 0x00, 
  0x14, 0x00, 0x00, 0x00, 0x06, 0x00, 0x00, 0x00, 0x00, 0x00, 0x00, 0x02, 
  0x1c, 0x00, 0x00, 0x00, 0x3c, 0xfd, 0xff, 0xff, 0x0e, 0x00, 0x00, 0x00, 
  0x61, 0x72, 0x69, 0x74, 0x68, 0x2e, 0x63, 0x6f, 0x6e, 0x73, 0x74, 0x61, 
  0x6e, 0x74, 0x00, 0x00, 0x01, 0x00, 0x00, 0x00, 0x03, 0x00, 0x00, 0x00, 
  0x16, 0xfe, 0xff, 0xff, 0x00, 0x00, 0x00, 0x01, 0x10, 0x00, 0x00, 0x00, 
  0x10, 0x00, 0x00, 0x00, 0x05, 0x00, 0x00, 0x00, 0x28, 0x00, 0x00, 0x00, 
  0x74, 0xfd, 0xff, 0xff, 0x1a, 0x00, 0x00, 0x00, 0x73, 0x65, 0x71, 0x75, 
  0x65, 0x6e, 0x74, 0x69, 0x61, 0x6c, 0x5f, 0x31, 0x2f, 0x64, 0x65, 0x6e, 
  0x73, 0x65, 0x5f, 0x31, 0x5f, 0x32, 0x2f, 0x41, 0x64, 0x64, 0x00, 0x00, 
  0x01, 0x00, 0x00, 0x00, 0x01, 0x00, 0x00, 0x00, 0x5a, 0xfe, 0xff, 0xff, 
  0x00, 0x00, 0x00, 0x01, 0x10, 0x00, 0x00, 0x00, 0x10, 0x00, 0x00, 0x00, 
  0x04, 0x00, 0x00, 0x00, 0xb0, 0x00, 0x00, 0x00, 0xb8, 0xfd, 0xff, 0xff, 
  0xa2, 0x00, 0x00, 0x00, 0x73, 0x65, 0x71, 0x75, 0x65, 0x6e, 0x74, 0x69, 
  0x61, 0x6c, 0x5f, 0x31, 0x2f, 0x63, 0x6f, 0x6e, 0x76, 0x31, 0x64, 0x5f, 
  0x31, 0x2f, 0x52, 0x65, 0x6c, 0x75, 0x3b, 0x73, 0x65, 0x71, 0x75, 0x65, 
  0x6e, 0x74, 0x69, 0x61, 0x6c, 0x5f, 0x31, 0x2f, 0x63, 0x6f, 0x6e, 0x76, 
  0x31, 0x64, 0x5f, 0x31, 0x2f, 0x42, 0x69, 0x61, 0x73, 0x41, 0x64, 0x64, 
  0x3b, 0x73, 0x65, 0x71, 0x75, 0x65, 0x6e, 0x74, 0x69, 0x61, 0x6c, 0x5f, 
  0x31, 0x2f, 0x63, 0x6f, 0x6e, 0x76, 0x31, 0x64, 0x5f, 0x31, 0x2f, 0x63, 
  0x6f, 0x6e, 0x76, 0x6f, 0x6c, 0x75, 0x74, 0x69, 0x6f, 0x6e, 0x2f, 0x53, 
  0x71, 0x75, 0x65, 0x65, 0x7a, 0x65, 0x3b, 0x73, 0x65, 0x71, 0x75, 0x65, 
  0x6e, 0x74, 0x69, 0x61, 0x6c, 0x5f, 0x31, 0x2f, 0x63, 0x6f, 0x6e, 0x76, 
  0x31, 0x64, 0x5f, 0x31, 0x2f, 0x53, 0x71, 0x75, 0x65, 0x65, 0x7a, 0x65, 
  0x3b, 0x73, 0x65, 0x71, 0x75, 0x65, 0x6e, 0x74, 0x69, 0x61, 0x6c, 0x5f, 
  0x31, 0x2f, 0x63, 0x6f, 0x6e, 0x76, 0x31, 0x64, 0x5f, 0x31, 0x2f, 0x63, 
  0x6f, 0x6e, 0x76, 0x6f, 0x6c, 0x75, 0x74, 0x69, 0x6f, 0x6e, 0x00, 0x00, 
  0x01, 0x00, 0x00, 0x00, 0x08, 0x00, 0x00, 0x00, 0x26, 0xff, 0xff, 0xff, 
  0x00, 0x00, 0x00, 0x01, 0x10, 0x00, 0x00, 0x00, 0x10, 0x00, 0x00, 0x00, 
  0x03, 0x00, 0x00, 0x00, 0xbc, 0x00, 0x00, 0x00, 0x84, 0xfe, 0xff, 0xff, 
  0xac, 0x00, 0x00, 0x00, 0x73, 0x65, 0x71, 0x75, 0x65, 0x6e, 0x74, 0x69, 
  0x61, 0x6c, 0x5f, 0x31, 0x2f, 0x63, 0x6f, 0x6e, 0x76, 0x31, 0x64, 0x5f, 
  0x31, 0x5f, 0x32, 0x2f, 0x52, 0x65, 0x6c, 0x75, 0x3b, 0x73, 0x65, 0x71, 
  0x75, 0x65, 0x6e, 0x74, 0x69, 0x61, 0x6c, 0x5f, 0x31, 0x2f, 0x63, 0x6f, 
  0x6e, 0x76, 0x31, 0x64, 0x5f, 0x31, 0x5f, 0x32, 0x2f, 0x42, 0x69, 0x61, 
  0x73, 0x41, 0x64, 0x64, 0x3b, 0x73, 0x65, 0x71, 0x75, 0x65, 0x6e, 0x74, 
  0x69, 0x61, 0x6c, 0x5f, 0x31, 0x2f, 0x63, 0x6f, 0x6e, 0x76, 0x31, 0x64, 
  0x5f, 0x31, 0x5f, 0x32, 0x2f, 0x63, 0x6f, 0x6e, 0x76, 0x6f, 0x6c, 0x75, 
  0x74, 0x69, 0x6f, 0x6e, 0x2f, 0x53, 0x71, 0x75, 0x65, 0x65, 0x7a, 0x65, 
  0x3b, 0x73, 0x65, 0x71, 0x75, 0x65, 0x6e, 0x74, 0x69, 0x61, 0x6c, 0x5f, 
  0x31, 0x2f, 0x63, 0x6f, 0x6e, 0x76, 0x31, 0x64, 0x5f, 0x31, 0x5f, 0x32, 
  0x2f, 0x53, 0x71, 0x75, 0x65, 0x65, 0x7a, 0x65, 0x3b, 0x73, 0x65, 0x71, 
  0x75, 0x65, 0x6e, 0x74, 0x69, 0x61, 0x6c, 0x5f, 0x31, 0x2f, 0x63, 0x6f, 
  0x6e, 0x76, 0x31, 0x64, 0x5f, 0x31, 0x5f, 0x32, 0x2f, 0x63, 0x6f, 0x6e, 
  0x76, 0x6f, 0x6c, 0x75, 0x74, 0x69, 0x6f, 0x6e, 0x00, 0x00, 0x00, 0x00, 
  0x01, 0x00, 0x00, 0x00, 0x08, 0x00, 0x00, 0x00, 0x00, 0x00, 0x16, 0x00, 
  0x18, 0x00, 0x14, 0x00, 0x00, 0x00, 0x10, 0x00, 0x0c, 0x00, 0x08, 0x00, 
  0x00, 0x00, 0x00, 0x00, 0x00, 0x00, 0x07, 0x00, 0x16, 0x00, 0x00, 0x00, 
  0x00, 0x00, 0x00, 0x01, 0x10, 0x00, 0x00, 0x00, 0x10, 0x00, 0x00, 0x00, 
  0x02, 0x00, 0x00, 0x00, 0x44, 0x00, 0x00, 0x00, 0x74, 0xff, 0xff, 0xff, 
  0x36, 0x00, 0x00, 0x00, 0x73, 0x65, 0x71, 0x75, 0x65, 0x6e, 0x74, 0x69, 
  0x61, 0x6c, 0x5f, 0x31, 0x2f, 0x64, 0x65, 0x6e, 0x73, 0x65, 0x5f, 0x31, 
  0x2f, 0x52, 0x65, 0x6c, 0x75, 0x3b, 0x73, 0x65, 0x71, 0x75, 0x65, 0x6e, 
  0x74, 0x69, 0x61, 0x6c, 0x5f, 0x31, 0x2f, 0x64, 0x65, 0x6e, 0x73, 0x65, 
  0x5f, 0x31, 0x2f, 0x42, 0x69, 0x61, 0x73, 0x41, 0x64, 0x64, 0x00, 0x00, 
  0x01, 0x00, 0x00, 0x00, 0x10, 0x00, 0x00, 0x00, 0x00, 0x00, 0x16, 0x00, 
  0x1c, 0x00, 0x18, 0x00, 0x00, 0x00, 0x14, 0x00, 0x10, 0x00, 0x0c, 0x00, 
  0x00, 0x00, 0x00, 0x00, 0x08, 0x00, 0x07, 0x00, 0x16, 0x00, 0x00, 0x00, 
  0x00, 0x00, 0x00, 0x01, 0x14, 0x00, 0x00, 0x00, 0x24, 0x00, 0x00, 0x00, 
  0x24, 0x00, 0x00, 0x00, 0x01, 0x00, 0x00, 0x00, 0x40, 0x00, 0x00, 0x00, 
  0x03, 0x00, 0x00, 0x00, 0xff, 0xff, 0xff, 0xff, 0x08, 0x00, 0x00, 0x00, 
  0x01, 0x00, 0x00, 0x00, 0x04, 0x00, 0x04, 0x00, 0x04, 0x00, 0x00, 0x00, 
  0x1e, 0x00, 0x00, 0x00, 0x73, 0x65, 0x72, 0x76, 0x69, 0x6e, 0x67, 0x5f, 
  0x64, 0x65, 0x66, 0x61, 0x75, 0x6c, 0x74, 0x5f, 0x6b, 0x65, 0x72, 0x61, 
  0x73, 0x5f, 0x74, 0x65, 0x6e, 0x73, 0x6f, 0x72, 0x3a, 0x30, 0x00, 0x00, 
  0x03, 0x00, 0x00, 0x00, 0x01, 0x00, 0x00, 0x00, 0x08, 0x00, 0x00, 0x00, 
  0x01, 0x00, 0x00, 0x00, 0x08, 0x00, 0x00, 0x00, 0x80, 0x00, 0x00, 0x00, 
  0x64, 0x00, 0x00, 0x00, 0x54, 0x00, 0x00, 0x00, 0x44, 0x00, 0x00, 0x00, 
  0x34, 0x00, 0x00, 0x00, 0x24, 0x00, 0x00, 0x00, 0x14, 0x00, 0x00, 0x00, 
  0x04, 0x00, 0x00, 0x00, 0xac, 0xff, 0xff, 0xff, 0x0e, 0x00, 0x00, 0x00, 
  0x00, 0x00, 0x00, 0x0e, 0xb8, 0xff, 0xff, 0xff, 0x09, 0x00, 0x00, 0x00, 
  0x00, 0x00, 0x00, 0x09, 0xc4, 0xff, 0xff, 0xff, 0x53, 0x00, 0x00, 0x00, 
  0x00, 0x00, 0x00, 0x53, 0xd0, 0xff, 0xff, 0xff, 0x2d, 0x00, 0x00, 0x00, 
  0x00, 0x00, 0x00, 0x2d, 0xdc, 0xff, 0xff, 0xff, 0x4d, 0x00, 0x00, 0x00, 
  0x00, 0x00, 0x00, 0x4d, 0xe8, 0xff, 0xff, 0xff, 0x16, 0x00, 0x00, 0x00, 
  0x00, 0x00, 0x00, 0x16, 0xf4, 0xff, 0xff, 0xff, 0x03, 0x00, 0x00, 0x00, 
  0x00, 0x00, 0x00, 0x03, 0x0c, 0x00, 0x0c, 0x00, 0x0b, 0x00, 0x00, 0x00, 
  0x00, 0x00, 0x04, 0x00, 0x0c, 0x00, 0x00, 0x00, 0x46, 0x00, 0x00, 0x00, 
  0x00, 0x00, 0x00, 0x46
};

const unsigned int cnn_model_tflite_len = 10036;

#endif // CNN_MODEL_DATA_H
