#ifndef ANN_MODEL_DATA_H
#define ANN_MODEL_DATA_H

const unsigned char ann_model_tflite[] = {
    0x1c, 0x00, 0x00, 0x00, 0x54, 0x46, 0x4c, 0x33, 0x14, 0x00, 0x20, 0x00, 
    0x1c, 0x00, 0x18, 0x00, 0x14, 0x00, 0x10, 0x00, 0x0c, 0x00, 0x00, 0x00, 
    0x08, 0x00, 0x04, 0x00, 0x14, 0x00, 0x00, 0x00, 0x1c, 0x00, 0x00, 0x00, 
    0x98, 0x00, 0x00, 0x00, 0xf0, 0x00, 0x00, 0x00, 0xe0, 0x0f, 0x00, 0x00, 
    0xf0, 0x0f, 0x00, 0x00, 0xfc, 0x15, 0x00, 0x00, 0x03, 0x00, 0x00, 0x00, 
    0x01, 0x00, 0x00, 0x00, 0x10, 0x00, 0x00, 0x00, 0x00, 0x00, 0x0a, 0x00, 
    0x10, 0x00, 0x0c, 0x00, 0x08, 0x00, 0x04, 0x00, 0x0a, 0x00, 0x00, 0x00, 
    0x0c, 0x00, 0x00, 0x00, 0x1c, 0x00, 0x00, 0x00, 0x3c, 0x00, 0x00, 0x00, 
    0x0f, 0x00, 0x00, 0x00, 0x73, 0x65, 0x72, 0x76, 0x69, 0x6e, 0x67, 0x5f, 
    0x64, 0x65, 0x66, 0x61, 0x75, 0x6c, 0x74, 0x00, 0x01, 0x00, 0x00, 0x00, 
    0x04, 0x00, 0x00, 0x00, 0x90, 0xff, 0xff, 0xff, 0x0a, 0x00, 0x00, 0x00, 
    0x04, 0x00, 0x00, 0x00, 0x08, 0x00, 0x00, 0x00, 0x6f, 0x75, 0x74, 0x70, 
    0x75, 0x74, 0x5f, 0x30, 0x00, 0x00, 0x00, 0x00, 0x01, 0x00, 0x00, 0x00, 
    0x04, 0x00, 0x00, 0x00, 0x06, 0xf0, 0xff, 0xff, 0x04, 0x00, 0x00, 0x00, 
    0x0c, 0x00, 0x00, 0x00, 0x6b, 0x65, 0x72, 0x61, 0x73, 0x5f, 0x74, 0x65, 
    0x6e, 0x73, 0x6f, 0x72, 0x00, 0x00, 0x00, 0x00, 0x02, 0x00, 0x00, 0x00, 
    0x34, 0x00, 0x00, 0x00, 0x04, 0x00, 0x00, 0x00, 0xdc, 0xff, 0xff, 0xff, 
    0x0d, 0x00, 0x00, 0x00, 0x04, 0x00, 0x00, 0x00, 0x13, 0x00, 0x00, 0x00, 
    0x43, 0x4f, 0x4e, 0x56, 0x45, 0x52, 0x53, 0x49, 0x4f, 0x4e, 0x5f, 0x4d, 
    0x45, 0x54, 0x41, 0x44, 0x41, 0x54, 0x41, 0x00, 0x08, 0x00, 0x0c, 0x00, 
    0x08, 0x00, 0x04, 0x00, 0x08, 0x00, 0x00, 0x00, 0x0c, 0x00, 0x00, 0x00, 
    0x04, 0x00, 0x00, 0x00, 0x13, 0x00, 0x00, 0x00, 0x6d, 0x69, 0x6e, 0x5f, 
    0x72, 0x75, 0x6e, 0x74, 0x69, 0x6d, 0x65, 0x5f, 0x76, 0x65, 0x72, 0x73, 
    0x69, 0x6f, 0x6e, 0x00, 0x0e, 0x00, 0x00, 0x00, 0xec, 0x0e, 0x00, 0x00, 
    0xe4, 0x0e, 0x00, 0x00, 0x94, 0x0e, 0x00, 0x00, 0x74, 0x0e, 0x00, 0x00, 
    0x64, 0x0d, 0x00, 0x00, 0x54, 0x05, 0x00, 0x00, 0x44, 0x01, 0x00, 0x00, 
    0xb4, 0x00, 0x00, 0x00, 0xac, 0x00, 0x00, 0x00, 0xa4, 0x00, 0x00, 0x00, 
    0x9c, 0x00, 0x00, 0x00, 0x94, 0x00, 0x00, 0x00, 0x74, 0x00, 0x00, 0x00, 
    0x04, 0x00, 0x00, 0x00, 0xba, 0xf0, 0xff, 0xff, 0x04, 0x00, 0x00, 0x00, 
    0x60, 0x00, 0x00, 0x00, 0x10, 0x00, 0x00, 0x00, 0x00, 0x00, 0x00, 0x00, 
    0x08, 0x00, 0x0e, 0x00, 0x08, 0x00, 0x04, 0x00, 0x08, 0x00, 0x00, 0x00, 
    0x10, 0x00, 0x00, 0x00, 0x24, 0x00, 0x00, 0x00, 0x00, 0x00, 0x06, 0x00, 
    0x08, 0x00, 0x04, 0x00, 0x06, 0x00, 0x00, 0x00, 0x04, 0x00, 0x00, 0x00, 
    0x00, 0x00, 0x00, 0x00, 0x0c, 0x00, 0x18, 0x00, 0x14, 0x00, 0x10, 0x00, 
    0x0c, 0x00, 0x04, 0x00, 0x0c, 0x00, 0x00, 0x00, 0x5b, 0x0b, 0xf4, 0x30, 
    0x84, 0x55, 0x79, 0x45, 0x02, 0x00, 0x00, 0x00, 0x02, 0x00, 0x00, 0x00, 
    0x04, 0x00, 0x00, 0x00, 0x06, 0x00, 0x00, 0x00, 0x32, 0x2e, 0x32, 0x31, 
    0x2e, 0x30, 0x00, 0x00, 0x26, 0xf1, 0xff, 0xff, 0x04, 0x00, 0x00, 0x00, 
    0x10, 0x00, 0x00, 0x00, 0x31, 0x2e, 0x35, 0x2e, 0x30, 0x00, 0x00, 0x00, 
    0x00, 0x00, 0x00, 0x00, 0x00, 0x00, 0x00, 0x00, 0xe4, 0xeb, 0xff, 0xff, 
    0xe8, 0xeb, 0xff, 0xff, 0xec, 0xeb, 0xff, 0xff, 0xf0, 0xeb, 0xff, 0xff, 
    0x52, 0xf1, 0xff, 0xff, 0x04, 0x00, 0x00, 0x00, 0x80, 0x00, 0x00, 0x00, 
    0x8c, 0x0e, 0xa5, 0xbe, 0x5f, 0xc5, 0x38, 0x3d, 0xff, 0x56, 0xab, 0xbe, 
    0xaf, 0xfd, 0xe2, 0xbe, 0xde, 0x6b, 0xfc, 0x3d, 0xc1, 0x7d, 0xc0, 0x3d, 
    0x72, 0xd1, 0x4d, 0xbe, 0x46, 0xaa, 0x16, 0xbe, 0x94, 0x29, 0x16, 0x3d, 
    0x5c, 0x91, 0x62, 0xbe, 0xb8, 0xea, 0x36, 0xbe, 0xb5, 0x40, 0x8b, 0x3e, 
    0xae, 0x73, 0x84, 0xbe, 0x34, 0x38, 0x73, 0xbe, 0x95, 0xf6, 0xcf, 0x3e, 
    0x7e, 0xe5, 0x1d, 0x3e, 0x21, 0xb8, 0x6e, 0xbe, 0x94, 0xf3, 0x96, 0xbe, 
    0xbc, 0x8a, 0x17, 0xbc, 0x30, 0x6b, 0xd2, 0x3e, 0x94, 0x53, 0xbc, 0xbe, 
    0xd9, 0x05, 0xb5, 0x3d, 0x67, 0x0c, 0xd9, 0xbe, 0x3e, 0xec, 0x2d, 0xbe, 
    0x9e, 0xec, 0x84, 0x3d, 0x5f, 0x86, 0xb9, 0xbd, 0x7c, 0x03, 0xcf, 0xbd, 
    0xb6, 0x57, 0x1e, 0x3d, 0x6f, 0x58, 0xb1, 0x3c, 0xbd, 0x9e, 0xf1, 0x3c, 
    0xc9, 0xb7, 0xa0, 0xbe, 0xac, 0xe8, 0xbc, 0xbe, 0xde, 0xf1, 0xff, 0xff, 
    0x04, 0x00, 0x00, 0x00, 0x00, 0x04, 0x00, 0x00, 0xf5, 0xf4, 0x4a, 0x3f, 
    0xfd, 0x1a, 0xbf, 0xbd, 0x42, 0x19, 0x95, 0xbf, 0x1f, 0x85, 0xcd, 0xbc, 
    0xd8, 0xe0, 0xad, 0x3e, 0x04, 0x3b, 0x8e, 0x3e, 0x8f, 0x4a, 0x72, 0xbe, 
    0xd6, 0xca, 0x6c, 0xbe, 0x81, 0x8b, 0xd9, 0x3d, 0xb5, 0xab, 0x60, 0xbe, 
    0x11, 0xf9, 0x61, 0x3f, 0x03, 0xe1, 0x23, 0xbf, 0x97, 0xd7, 0xc5, 0xbe, 
    0x6a, 0x07, 0x1e, 0xbf, 0x22, 0x57, 0x9b, 0xbf, 0xf3, 0x49, 0x6d, 0xbf, 
    0x07, 0x6a, 0xdf, 0x3e, 0x4e, 0x49, 0xb6, 0x3d, 0x54, 0x4b, 0x9b, 0xbf, 
    0x88, 0x74, 0x37, 0xbc, 0x77, 0x84, 0x9e, 0xbe, 0x5e, 0xef, 0x53, 0x3e, 
    0xde, 0xf8, 0xfd, 0xbe, 0x01, 0x3f, 0x9f, 0x3e, 0xc9, 0x8a, 0x0a, 0xbf, 
    0x8f, 0x25, 0xa8, 0x3d, 0x8b, 0x12, 0x88, 0x3e, 0xdf, 0x3b, 0x86, 0x3d, 
    0x9e, 0xab, 0x70, 0x3e, 0x07, 0x18, 0xcf, 0xbd, 0x2e, 0xdf, 0x21, 0x3e, 
    0x91, 0x66, 0xcd, 0x3d, 0x3d, 0xe1, 0x9b, 0x3e, 0x96, 0xce, 0xfd, 0x3b, 
    0x43, 0x92, 0x8d, 0xbd, 0x4e, 0x6e, 0xbe, 0x3d, 0xf0, 0xd3, 0x90, 0xbd, 
    0x1a, 0x92, 0x86, 0x3d, 0xc2, 0x16, 0xfa, 0x3e, 0x01, 0x39, 0xb1, 0xbe, 
    0x06, 0x83, 0x4e, 0xbe, 0xde, 0xf7, 0x8f, 0xbd, 0x4d, 0x8f, 0xe8, 0xbe, 
    0xb2, 0x13, 0xb2, 0xbc, 0xfc, 0xf5, 0xc7, 0x3e, 0xa7, 0xbf, 0xad, 0xbe, 
    0x48, 0x6f, 0x06, 0x3f, 0x5c, 0xb6, 0xce, 0xbe, 0xff, 0xe0, 0xb9, 0xbe, 
    0xe3, 0x6c, 0x46, 0x3e, 0xf4, 0xae, 0x5d, 0x3c, 0x6c, 0x7b, 0x5f, 0x3c, 
    0x36, 0xfb, 0x31, 0x3e, 0x01, 0xea, 0x29, 0xbe, 0x66, 0xd6, 0x5e, 0x3e, 
    0xdf, 0xce, 0xd9, 0xbd, 0x49, 0x93, 0x9a, 0x3c, 0xa0, 0xcb, 0xc7, 0x3c, 
    0x1c, 0x76, 0x59, 0x3f, 0x2f, 0x14, 0x45, 0xbf, 0x1a, 0x35, 0x09, 0xbd, 
    0xff, 0x39, 0x86, 0xbe, 0xab, 0x38, 0xa3, 0xbf, 0xa7, 0xc5, 0x3d, 0xbf, 
    0xca, 0xac, 0x18, 0x3c, 0x5c, 0x82, 0xea, 0xbe, 0x30, 0xfe, 0xa6, 0xbe, 
    0x92, 0x05, 0xb2, 0xbb, 0x0e, 0xe7, 0x9c, 0xbe, 0xd4, 0xb3, 0xb1, 0xbf, 
    0xe0, 0x26, 0xba, 0xbf, 0x80, 0x02, 0x86, 0xbf, 0x1f, 0x00, 0x87, 0x3d, 
    0xcf, 0x04, 0x27, 0xbd, 0xf9, 0x8c, 0xab, 0xbe, 0xf1, 0xed, 0x1b, 0xbe, 
    0xb2, 0xae, 0x2a, 0xbe, 0xde, 0x8b, 0xd5, 0xbf, 0xac, 0xed, 0xbc, 0xbf, 
    0x21, 0x6f, 0x8b, 0xbf, 0x7f, 0x7d, 0xb8, 0xbe, 0xe2, 0xb4, 0xa2, 0xbe, 
    0xc0, 0x29, 0x5d, 0xbf, 0x0e, 0x57, 0x03, 0x3d, 0x45, 0x78, 0xec, 0x3e, 
    0x24, 0xbd, 0xb0, 0xba, 0x16, 0xda, 0x4b, 0x3d, 0xf8, 0xb3, 0x56, 0x3b, 
    0x52, 0x4c, 0xeb, 0xbd, 0xb7, 0xbe, 0x3f, 0xbf, 0x82, 0x68, 0xda, 0xbe, 
    0x6e, 0xe6, 0x23, 0xbf, 0x9d, 0xd2, 0x43, 0xbf, 0xed, 0x38, 0xed, 0xbe, 
    0xa2, 0x0f, 0xa4, 0x3d, 0xe6, 0x63, 0x12, 0x3d, 0x44, 0x82, 0xc6, 0xbe, 
    0xc8, 0xb3, 0x90, 0xbd, 0x0d, 0x7d, 0x27, 0xbf, 0xdd, 0x5d, 0x58, 0x3d, 
    0x2f, 0x5c, 0x50, 0x3d, 0x6b, 0xc4, 0x4c, 0xbd, 0xbb, 0x53, 0xa1, 0x3e, 
    0x8a, 0x03, 0x9e, 0xbd, 0x67, 0x55, 0x28, 0x3f, 0x97, 0x23, 0x83, 0xbd, 
    0x3e, 0xc2, 0x84, 0xbf, 0x5a, 0x1a, 0x5e, 0x3b, 0x7f, 0x4f, 0x92, 0x3e, 
    0xf0, 0xc9, 0x01, 0xbe, 0x62, 0xdb, 0xb9, 0xbe, 0x99, 0x55, 0x80, 0x3e, 
    0x7a, 0x5b, 0x8c, 0x3e, 0x7e, 0x6b, 0xf8, 0xbe, 0xda, 0x08, 0xf2, 0xbe, 
    0xef, 0x5c, 0xe2, 0xbe, 0xb6, 0x2b, 0x1d, 0xbf, 0x70, 0xc6, 0x1a, 0xbd, 
    0x58, 0x47, 0x8d, 0xbe, 0xb6, 0xa3, 0xb6, 0xbc, 0xa0, 0x31, 0x5b, 0x3e, 
    0x75, 0xc2, 0x10, 0xbf, 0x16, 0xe5, 0x37, 0x3f, 0xa8, 0xe9, 0x15, 0xbf, 
    0xa9, 0x45, 0xbb, 0xbe, 0x13, 0xa2, 0x4c, 0xbf, 0xf9, 0x0d, 0xbb, 0xbe, 
    0x08, 0x6e, 0xc0, 0xbe, 0xb2, 0x12, 0x02, 0x3f, 0x3e, 0x1d, 0xb0, 0x3e, 
    0xaf, 0x97, 0x64, 0x3e, 0x5b, 0xe3, 0x74, 0x3e, 0x7f, 0x35, 0x30, 0xbc, 
    0xcb, 0x7e, 0x94, 0x3e, 0xaa, 0x17, 0x83, 0x3e, 0xb5, 0x33, 0x83, 0xbe, 
    0x59, 0xe5, 0x5f, 0x3f, 0x6f, 0x83, 0xe8, 0xbb, 0x42, 0x59, 0x38, 0x3e, 
    0x9e, 0xce, 0xd6, 0xba, 0xf4, 0x9c, 0x5b, 0x3e, 0x96, 0xa5, 0x62, 0xbe, 
    0xac, 0x26, 0xd9, 0x3d, 0x8b, 0x20, 0x57, 0x3c, 0xa0, 0x3e, 0xf6, 0xbe, 
    0x8a, 0xfe, 0x8a, 0xbe, 0xca, 0x23, 0x02, 0x3f, 0x6e, 0x86, 0x02, 0x3e, 
    0x5b, 0xa8, 0x9b, 0x3e, 0x17, 0xc4, 0xf7, 0x3d, 0x27, 0xef, 0x27, 0x3e, 
    0xe7, 0x23, 0x17, 0xbe, 0xbb, 0xbe, 0x81, 0xbd, 0xdd, 0xed, 0xc2, 0xbe, 
    0x50, 0x7f, 0xef, 0xbe, 0xd1, 0x1a, 0x76, 0xbe, 0x90, 0x7b, 0x8c, 0x3e, 
    0x6c, 0x13, 0x9d, 0xbe, 0x44, 0xc9, 0x3f, 0x3e, 0x96, 0xdd, 0x8b, 0xbe, 
    0x9a, 0x4d, 0xe2, 0x3c, 0xba, 0x21, 0x68, 0x3d, 0x05, 0xe3, 0xa8, 0xbf, 
    0x94, 0x5f, 0xd7, 0xbd, 0xa0, 0xab, 0xd3, 0xbd, 0x5c, 0xbf, 0x49, 0xbe, 
    0xc7, 0x64, 0x09, 0xbe, 0xc0, 0xb9, 0x8e, 0xbd, 0x5a, 0x0f, 0x89, 0x3e, 
    0x5d, 0x53, 0x52, 0xbe, 0x3e, 0xa7, 0x67, 0x3f, 0x57, 0x71, 0x08, 0xbf, 
    0xca, 0x84, 0xa3, 0x38, 0x20, 0xc8, 0xad, 0xbc, 0x7e, 0x79, 0xcb, 0xbc, 
    0x9a, 0x1d, 0xdb, 0x3d, 0x7e, 0xc0, 0x1f, 0x3f, 0x1d, 0xd5, 0x90, 0x3b, 
    0xa1, 0x90, 0xa2, 0x3e, 0x1e, 0xdf, 0xa5, 0xbc, 0x24, 0xce, 0xbc, 0x3d, 
    0x77, 0x9f, 0x22, 0xbd, 0xa8, 0xa5, 0x6f, 0x3d, 0xc5, 0x67, 0x05, 0xbd, 
    0x49, 0xf1, 0xf0, 0xbe, 0x21, 0x29, 0x73, 0xbe, 0x1c, 0x23, 0xfd, 0xbd, 
    0x2c, 0x6c, 0x7a, 0xbc, 0xf5, 0xec, 0xae, 0x3e, 0x8a, 0xab, 0x8b, 0xbe, 
    0x2f, 0xd0, 0x97, 0x3d, 0xde, 0x8f, 0x59, 0x3e, 0xb6, 0x40, 0x0f, 0xbd, 
    0x31, 0xb4, 0xdc, 0xbe, 0xfb, 0xfb, 0x1f, 0x3f, 0x57, 0x62, 0x86, 0xbf, 
    0xb1, 0x15, 0x30, 0xbf, 0x2f, 0x88, 0x4d, 0xbe, 0xe9, 0x92, 0xc9, 0xbe, 
    0x2a, 0x0a, 0x0b, 0xbf, 0x9a, 0x46, 0xe4, 0x3d, 0xe5, 0x43, 0x38, 0x3e, 
    0xec, 0xd1, 0xdc, 0xbe, 0xaa, 0x7b, 0x83, 0xbe, 0xab, 0x84, 0x08, 0xbe, 
    0xfc, 0x4f, 0xca, 0xbf, 0x10, 0x5d, 0xae, 0xbf, 0x73, 0x6a, 0xb8, 0xbf, 
    0x16, 0x94, 0x90, 0x3d, 0xef, 0x14, 0x49, 0x3e, 0x6f, 0x72, 0x07, 0xbf, 
    0x1f, 0x45, 0xf5, 0x3d, 0x14, 0xc2, 0x8c, 0xbe, 0xc0, 0x71, 0x99, 0xbf, 
    0xd3, 0xd9, 0x8a, 0xbf, 0xeb, 0xc2, 0xb8, 0xbf, 0x62, 0xf2, 0xa6, 0xbe, 
    0x9f, 0x5e, 0xf4, 0xbb, 0x11, 0x73, 0xff, 0x3e, 0xce, 0x96, 0xbf, 0xbb, 
    0xfa, 0x4b, 0xb9, 0x3d, 0x4e, 0x6b, 0xc1, 0x3d, 0x04, 0xee, 0xc6, 0x3d, 
    0x20, 0x7e, 0x8a, 0xbe, 0x82, 0xc6, 0x46, 0x3f, 0x10, 0x84, 0xf8, 0x3d, 
    0xad, 0x24, 0x80, 0x3e, 0x53, 0xa4, 0xbb, 0x3e, 0x3f, 0xca, 0x26, 0xbc, 
    0x59, 0x4c, 0x16, 0x3e, 0x25, 0xc1, 0xdf, 0x3d, 0xa8, 0x56, 0xa7, 0x3d, 
    0x62, 0xb0, 0x3a, 0x3f, 0x3f, 0x01, 0x2d, 0xbe, 0xc7, 0x5b, 0x8b, 0x3f, 
    0xb8, 0xcb, 0xa3, 0xbd, 0x43, 0x25, 0xc3, 0xbd, 0x9a, 0x2e, 0x35, 0x3c, 
    0x42, 0x25, 0xd6, 0x3d, 0x8c, 0xe6, 0x97, 0x3d, 0xd3, 0xc4, 0x31, 0x3f, 
    0x0b, 0xe0, 0x3f, 0xbd, 0x17, 0x39, 0x63, 0xbf, 0x8d, 0x82, 0x9d, 0xbc, 
    0xce, 0xcf, 0x28, 0x3e, 0x48, 0xd6, 0x88, 0xbe, 0xc1, 0x48, 0x8b, 0xbe, 
    0x25, 0xef, 0xc3, 0x3e, 0xdb, 0xc6, 0x06, 0x3d, 0xa7, 0x51, 0x77, 0x3d, 
    0x38, 0x2d, 0x7f, 0xbf, 0xef, 0x76, 0xf9, 0xbe, 0x46, 0xcb, 0x5a, 0x3e, 
    0x98, 0x96, 0x28, 0xbe, 0xd1, 0x90, 0x07, 0xbf, 0x6f, 0xe4, 0xcd, 0xbe, 
    0xea, 0xf5, 0xff, 0xff, 0x04, 0x00, 0x00, 0x00, 0x00, 0x08, 0x00, 0x00, 
    0x77, 0x86, 0x86, 0x3e, 0xc0, 0xfe, 0xf7, 0x3e, 0x7c, 0x6c, 0xef, 0xbb, 
    0x09, 0x3e, 0x6f, 0x3e, 0xf2, 0x5f, 0xfc, 0x3d, 0xe2, 0x5f, 0x20, 0xbc, 
    0x53, 0x4a, 0x6b, 0x3e, 0x60, 0xef, 0x3a, 0x3e, 0x7f, 0x78, 0x09, 0xbf, 
    0x0a, 0x9d, 0xab, 0xbf, 0xca, 0x4b, 0x97, 0x3e, 0xff, 0x3a, 0xa7, 0xbe, 
    0xb6, 0xa0, 0x87, 0x3e, 0xd8, 0x43, 0x08, 0x3f, 0x92, 0xa9, 0xd6, 0xbe, 
    0x6a, 0x71, 0x2c, 0x3f, 0x61, 0x55, 0xf5, 0x3d, 0x8f, 0x48, 0x38, 0x3f, 
    0xc7, 0xcb, 0xcd, 0x3e, 0x00, 0xc1, 0xb9, 0x3c, 0x27, 0x26, 0xd9, 0x3e, 
    0xee, 0x3e, 0x88, 0x3e, 0xaf, 0x8d, 0xed, 0x3e, 0xfe, 0xf6, 0x1e, 0x3e, 
    0x59, 0x23, 0x74, 0x3e, 0x29, 0x03, 0x37, 0xbf, 0x00, 0xda, 0x2f, 0xbf, 
    0xf9, 0x74, 0xc5, 0x3e, 0x26, 0x9a, 0xce, 0xbd, 0xf3, 0xc4, 0x8b, 0x3e, 
    0xd9, 0x55, 0xa5, 0x3e, 0x3e, 0x6b, 0x15, 0x3e, 0x9b, 0x06, 0xc5, 0x3e, 
    0xc2, 0x00, 0x9f, 0xbc, 0x65, 0x53, 0xd8, 0x3e, 0x9b, 0x41, 0xa8, 0xbe, 
    0x91, 0x6d, 0x7e, 0x3e, 0xbf, 0x91, 0xa6, 0xbe, 0x77, 0x18, 0x2c, 0xbe, 
    0x00, 0xb7, 0xbd, 0xbe, 0x12, 0x92, 0x93, 0xbe, 0x34, 0xfb, 0xfd, 0xbe, 
    0x1b, 0xdc, 0x0a, 0xbf, 0x75, 0xcc, 0x05, 0xbe, 0x0c, 0x55, 0x7d, 0xbe, 
    0xcc, 0x32, 0xca, 0x3e, 0xe8, 0xd1, 0xcf, 0x3d, 0xba, 0x89, 0x2e, 0x3d, 
    0x40, 0x19, 0x28, 0x3e, 0x8f, 0x22, 0x06, 0x3f, 0x31, 0x13, 0x05, 0xbf, 
    0x74, 0x79, 0x40, 0xbf, 0xa5, 0xb2, 0x8f, 0xbe, 0xe8, 0x7b, 0x01, 0x3e, 
    0x0e, 0x7f, 0x91, 0x3e, 0x97, 0xd6, 0x39, 0x3e, 0x4f, 0x13, 0xb1, 0xbe, 
    0xea, 0x93, 0x4e, 0xbe, 0xb3, 0x13, 0x31, 0xbe, 0x85, 0xf7, 0x06, 0xbf, 
    0x5f, 0x2c, 0x11, 0xbd, 0x95, 0x1b, 0xa9, 0x3e, 0x84, 0x12, 0x2d, 0x3f, 
    0x83, 0x43, 0x4b, 0xbe, 0x89, 0xfc, 0xab, 0xbf, 0xc9, 0x15, 0xc4, 0xb8, 
    0xea, 0xa6, 0x8b, 0xbf, 0x76, 0x98, 0x98, 0x3d, 0xb2, 0x0b, 0x07, 0xbf, 
    0x36, 0x49, 0xd2, 0x3e, 0xfb, 0xb2, 0x0d, 0x3e, 0xc0, 0x66, 0xf7, 0xbe, 
    0x9e, 0x5a, 0x2e, 0xbe, 0xb2, 0x1f, 0x62, 0xbe, 0x4e, 0xc2, 0x9d, 0xba, 
    0x12, 0xc6, 0xb0, 0x3e, 0xa5, 0x05, 0x8f, 0x3e, 0x90, 0xa5, 0x6c, 0xbf, 
    0x98, 0x6f, 0x01, 0x3f, 0x5d, 0x52, 0x6d, 0x3d, 0x9c, 0xc8, 0xa6, 0x3d, 
    0x96, 0xbb, 0x9e, 0xbe, 0x47, 0x33, 0x0c, 0xbd, 0x24, 0x17, 0xa3, 0x3e, 
    0x17, 0x05, 0x1c, 0xbf, 0x59, 0xb1, 0x6c, 0xbf, 0x74, 0xa0, 0x2e, 0xbd, 
    0xa7, 0x32, 0xe6, 0xbd, 0x04, 0xa5, 0x8f, 0x3e, 0x75, 0x8f, 0xa0, 0xbd, 
    0x41, 0xb6, 0xf1, 0xbc, 0x93, 0xff, 0x0f, 0x3e, 0xf0, 0xe0, 0xea, 0xbe, 
    0x38, 0x11, 0x95, 0xbf, 0xcc, 0x9c, 0xad, 0xbf, 0x06, 0x2f, 0x2d, 0xbf, 
    0x8c, 0x4a, 0x35, 0xbe, 0xff, 0x8f, 0xc6, 0x3f, 0x43, 0xd2, 0x05, 0xbe, 
    0x24, 0x85, 0x83, 0xbd, 0x89, 0xd1, 0x9a, 0xbe, 0x09, 0xc7, 0xc6, 0x3d, 
    0x32, 0xf3, 0x22, 0xbd, 0x5f, 0x43, 0xa9, 0x3f, 0x0f, 0x58, 0x4e, 0x3d, 
    0x5b, 0x44, 0x47, 0xbd, 0xe0, 0x0b, 0xc8, 0xbd, 0xe3, 0x0a, 0x0e, 0xbe, 
    0xda, 0x1d, 0xab, 0xbe, 0xe1, 0xe5, 0x9b, 0xbd, 0xde, 0xc1, 0xee, 0x3d, 
    0x64, 0xfb, 0xd3, 0x3f, 0x4e, 0xa2, 0x14, 0xbf, 0x6c, 0xa7, 0x26, 0x3e, 
    0xaa, 0x45, 0x26, 0xbd, 0x8a, 0xaf, 0x0d, 0x3e, 0x7b, 0x29, 0x6b, 0xbe, 
    0x89, 0x82, 0x31, 0x3e, 0x9e, 0x8b, 0x1f, 0xbe, 0xe4, 0x6b, 0xa5, 0x3d, 
    0xf5, 0xf1, 0xa2, 0x3f, 0xaa, 0x61, 0xd1, 0xbd, 0xa5, 0xfe, 0xec, 0xbd, 
    0xb1, 0x03, 0xa0, 0x3e, 0x2e, 0xbb, 0xb5, 0xbe, 0xc3, 0xc7, 0xf3, 0x3d, 
    0xc5, 0xe7, 0x68, 0xbe, 0x1f, 0x26, 0x14, 0xbf, 0x10, 0x4d, 0x9c, 0x3d, 
    0x27, 0x07, 0x38, 0xbe, 0xd7, 0xc0, 0x86, 0x3e, 0x02, 0x3b, 0xb6, 0xbe, 
    0x19, 0x7e, 0x4c, 0xbd, 0xd1, 0x3e, 0x9b, 0x3e, 0x59, 0x8e, 0xb7, 0xbe, 
    0x8b, 0x2c, 0xbe, 0xbe, 0xb8, 0xec, 0xeb, 0x3e, 0x4c, 0x22, 0x1e, 0x3f, 
    0x5c, 0xa3, 0xd6, 0xbd, 0x9f, 0x72, 0x31, 0x3e, 0xc0, 0x6a, 0xce, 0xbd, 
    0x1e, 0x65, 0x2e, 0x3e, 0x49, 0xa3, 0x18, 0x3f, 0x48, 0x83, 0xa8, 0xbd, 
    0x25, 0x13, 0x7a, 0xbe, 0x09, 0xf1, 0x09, 0xbf, 0xa6, 0x9a, 0x07, 0xbf, 
    0x61, 0xa4, 0x15, 0x3e, 0x95, 0x0b, 0x71, 0x3e, 0x4f, 0xd1, 0x8f, 0xbe, 
    0x7f, 0xce, 0xed, 0xbe, 0x27, 0xd7, 0xb9, 0xbe, 0x5c, 0x9c, 0x0b, 0xbd, 
    0xcc, 0xd7, 0xf8, 0x3e, 0xaf, 0x77, 0x9d, 0x3e, 0xbd, 0xba, 0x03, 0xbf, 
    0xc4, 0x83, 0x84, 0xbe, 0x72, 0x95, 0x9b, 0xbe, 0xd9, 0x93, 0x3d, 0x3e, 
    0xe5, 0xe5, 0xc6, 0x3e, 0x35, 0xbb, 0xc9, 0x3e, 0xfe, 0x0c, 0xc7, 0xbf, 
    0xd7, 0x9e, 0x38, 0x3f, 0xaf, 0x4a, 0x97, 0x3e, 0x4b, 0xdc, 0x12, 0xbe, 
    0xdf, 0xb9, 0xdd, 0x3e, 0x99, 0x0b, 0x11, 0xbc, 0xa4, 0xee, 0x3e, 0xbf, 
    0xb9, 0x5f, 0x3c, 0xbd, 0xf4, 0x1e, 0x83, 0x3e, 0x67, 0xa6, 0x8a, 0x3e, 
    0xdb, 0xe1, 0x77, 0xbe, 0xc3, 0x13, 0x77, 0x3e, 0xa5, 0x9c, 0x06, 0x3f, 
    0xbd, 0x52, 0xb4, 0x3e, 0xf8, 0x2d, 0x9d, 0xbf, 0x48, 0x69, 0xd8, 0xbe, 
    0xea, 0x5c, 0x57, 0xbe, 0xde, 0xf6, 0x92, 0x3d, 0x4d, 0x82, 0x1d, 0x3c, 
    0x2d, 0x10, 0x8d, 0x3f, 0x6e, 0x1d, 0xd0, 0xbc, 0x46, 0x7f, 0xf0, 0xbd, 
    0x4a, 0xe3, 0x2d, 0xbd, 0x6b, 0xc1, 0xaa, 0xbf, 0xae, 0x25, 0x24, 0x3e, 
    0x1e, 0x04, 0x74, 0x3e, 0xd0, 0x73, 0xc4, 0xbd, 0x65, 0x61, 0x1b, 0xbf, 
    0xe3, 0x63, 0x1c, 0xbe, 0xc0, 0x08, 0xc2, 0x3e, 0x2e, 0x05, 0x40, 0x3f, 
    0x23, 0xca, 0x5b, 0xbf, 0xc2, 0xb3, 0x8e, 0x3d, 0x77, 0x06, 0x76, 0xbf, 
    0xce, 0x61, 0x75, 0x3e, 0xe4, 0xde, 0x08, 0xbd, 0x97, 0xc6, 0x71, 0x3e, 
    0xe3, 0x64, 0x62, 0x3e, 0xd1, 0x0c, 0xd9, 0xbe, 0xef, 0x83, 0x30, 0x3e, 
    0xbe, 0x9f, 0x52, 0x3c, 0xd4, 0x5a, 0x13, 0xbe, 0x6a, 0x90, 0x02, 0x3f, 
    0xeb, 0xfd, 0x0a, 0xbc, 0xe5, 0x38, 0x83, 0xbf, 0xcd, 0x22, 0x8b, 0x3e, 
    0xea, 0xb6, 0x72, 0x3e, 0x6e, 0x6a, 0xb2, 0xbd, 0x67, 0x6f, 0xed, 0xbd, 
    0x27, 0x0c, 0xa7, 0xbd, 0xb5, 0xfb, 0x93, 0x3e, 0xe0, 0xf9, 0x52, 0xbf, 
    0x68, 0x39, 0x6d, 0xbf, 0xd5, 0xe6, 0x25, 0xbe, 0x4b, 0x8d, 0x78, 0x3e, 
    0x9a, 0x6f, 0xfa, 0x3d, 0x0f, 0xef, 0xf0, 0x3c, 0x74, 0x03, 0x5a, 0xbe, 
    0xf3, 0x3d, 0x0b, 0xbe, 0xcd, 0x6d, 0xf9, 0xbd, 0xa7, 0x4a, 0x58, 0xbf, 
    0xc4, 0x47, 0xb1, 0xbf, 0x42, 0x7b, 0x4b, 0xbf, 0x75, 0x21, 0xd7, 0x3e, 
    0xfd, 0xe7, 0x2f, 0x3f, 0xc2, 0xdd, 0xe5, 0x3d, 0x68, 0xfa, 0x64, 0x3e, 
    0x95, 0x93, 0xbb, 0xbe, 0x58, 0xd5, 0xa2, 0x3e, 0x8c, 0x9e, 0x12, 0x3e, 
    0xaa, 0xde, 0x3b, 0x3f, 0x9a, 0x45, 0x29, 0xbf, 0xf2, 0xef, 0x89, 0xbf, 
    0x97, 0x8e, 0x09, 0xbc, 0xf6, 0xbf, 0x37, 0xbe, 0x2f, 0xa3, 0x5e, 0x3e, 
    0xdc, 0x58, 0xfe, 0x3d, 0x99, 0x1e, 0x2d, 0xbf, 0x0f, 0x0f, 0x2e, 0x3f, 
    0xb5, 0x7f, 0xd9, 0x3d, 0xc6, 0xb4, 0xd6, 0x3e, 0x72, 0xae, 0x96, 0x3e, 
    0x62, 0xe0, 0x9c, 0xbe, 0x8c, 0x29, 0xc3, 0xbd, 0x46, 0xbb, 0x11, 0x3f, 
    0x79, 0xd6, 0xf8, 0x3d, 0x27, 0xb7, 0x4d, 0x3d, 0x5e, 0x71, 0x12, 0x3f, 
    0x5e, 0x42, 0x28, 0xbf, 0xf9, 0x04, 0x62, 0xbf, 0xc8, 0xe8, 0x47, 0x3e, 
    0xf4, 0x1a, 0x6c, 0xbe, 0x95, 0x8a, 0x45, 0x3e, 0x38, 0x12, 0xde, 0x3e, 
    0x72, 0xad, 0x14, 0x3e, 0xc5, 0x93, 0x80, 0x3d, 0x68, 0x37, 0xf5, 0x3d, 
    0xe2, 0x73, 0x6b, 0xbb, 0x94, 0xaa, 0x1e, 0xbe, 0x83, 0xce, 0xfd, 0xbe, 
    0x39, 0x11, 0x79, 0xbe, 0xe8, 0x56, 0xc9, 0xbd, 0x38, 0x1a, 0x10, 0x3f, 
    0x13, 0xb7, 0x22, 0x3f, 0xd3, 0x57, 0x92, 0x3f, 0xea, 0x42, 0xf8, 0x3d, 
    0xac, 0x2b, 0xc0, 0xbd, 0x12, 0x2e, 0x24, 0xbe, 0xb2, 0x82, 0x81, 0x3d, 
    0xef, 0xaa, 0x82, 0xbc, 0xe0, 0x6d, 0x93, 0x3e, 0x7a, 0xb7, 0x60, 0xbe, 
    0x71, 0x22, 0xfe, 0xbe, 0x08, 0x08, 0x6b, 0xbe, 0x65, 0x25, 0x5f, 0xbc, 
    0xf8, 0x29, 0x9f, 0x3e, 0x49, 0xc6, 0x08, 0x3f, 0xee, 0x72, 0x07, 0xbf, 
    0x21, 0xf4, 0x79, 0xbe, 0x25, 0x55, 0x21, 0x3f, 0xce, 0x06, 0x3e, 0x3f, 
    0x61, 0x64, 0xea, 0x3e, 0xb4, 0x20, 0xfe, 0x3d, 0xdd, 0x51, 0x2f, 0xbe, 
    0xb6, 0x95, 0x67, 0x3e, 0x61, 0xed, 0xbf, 0x3d, 0x17, 0xa9, 0xbf, 0x3e, 
    0x5d, 0x09, 0x39, 0xbf, 0xa2, 0x9a, 0xa4, 0x3e, 0xf1, 0x3b, 0x6e, 0xbf, 
    0x83, 0x73, 0xa4, 0xbe, 0x54, 0x66, 0x88, 0x3e, 0x3e, 0x8d, 0x79, 0xbe, 
    0xf5, 0xab, 0x9f, 0xbd, 0xc0, 0x19, 0x4e, 0xbe, 0xa4, 0xeb, 0x2a, 0x3e, 
    0xd0, 0x86, 0x80, 0x3e, 0xac, 0xad, 0xb4, 0xbf, 0xb7, 0x44, 0xac, 0x3e, 
    0x41, 0x81, 0x2f, 0xbf, 0xcc, 0x90, 0xaa, 0xbf, 0x0e, 0xcd, 0xe9, 0x3e, 
    0x68, 0xaa, 0x98, 0x3e, 0x58, 0x10, 0xbf, 0xbd, 0xc0, 0x0b, 0x79, 0xbe, 
    0xa5, 0x08, 0x43, 0xbe, 0x22, 0x20, 0xd7, 0x3d, 0x12, 0xac, 0x2e, 0xbf, 
    0x90, 0x52, 0x0b, 0xbd, 0x29, 0x41, 0xc9, 0xbd, 0xe8, 0xe5, 0x32, 0xbe, 
    0x5a, 0x61, 0x97, 0x3e, 0xc1, 0x53, 0x67, 0x3e, 0x0c, 0x2f, 0x3d, 0x3d, 
    0xb2, 0xda, 0xd0, 0xbd, 0xbf, 0xa8, 0x24, 0xbd, 0x5a, 0xee, 0x94, 0xbd, 
    0x8d, 0x6e, 0x56, 0xbf, 0x38, 0x52, 0x1b, 0xbf, 0x0a, 0xed, 0x9f, 0xbe, 
    0xe5, 0x21, 0xcd, 0x3e, 0xfe, 0x5c, 0xaf, 0xbe, 0x64, 0x2e, 0xce, 0xbd, 
    0xcc, 0x0d, 0x50, 0xbf, 0xa1, 0xdd, 0x44, 0xbf, 0x17, 0xed, 0x98, 0xbe, 
    0x43, 0xf8, 0xd5, 0x3e, 0x82, 0xce, 0x05, 0x3f, 0x1d, 0x1d, 0x67, 0xbe, 
    0xd5, 0x5f, 0xc9, 0xbe, 0xa8, 0x14, 0xda, 0xbe, 0xd7, 0x56, 0xb5, 0xbe, 
    0x38, 0x1c, 0x02, 0xbf, 0x1a, 0xf1, 0x98, 0xbe, 0xa4, 0xcb, 0xe3, 0x3e, 
    0xcc, 0x89, 0xca, 0xbe, 0xf1, 0xba, 0x9f, 0xbe, 0x86, 0x6a, 0x1a, 0x3e, 
    0x3b, 0x6d, 0x0d, 0xbf, 0x79, 0x8c, 0xac, 0x3d, 0xd7, 0x75, 0xaa, 0x3e, 
    0x41, 0x93, 0xf2, 0xbe, 0xfb, 0x3b, 0x96, 0xbe, 0xc8, 0xc4, 0xd5, 0x3e, 
    0xa2, 0xd9, 0x55, 0xbe, 0xa2, 0x90, 0x06, 0xbf, 0x46, 0xea, 0x29, 0x3e, 
    0x8e, 0xab, 0x79, 0xbe, 0xce, 0x28, 0x49, 0x3e, 0xa9, 0x30, 0x37, 0xbe, 
    0x27, 0xbb, 0x92, 0x3d, 0x40, 0xbb, 0x07, 0x3f, 0xe4, 0x9c, 0xf9, 0x3e, 
    0xf4, 0x7f, 0xfd, 0x3c, 0xa5, 0x5d, 0x84, 0x3e, 0x05, 0x41, 0x29, 0xbe, 
    0xb2, 0xda, 0xec, 0x3c, 0x7f, 0xcf, 0x34, 0x3e, 0x13, 0x67, 0x9e, 0x3e, 
    0x13, 0x5a, 0x16, 0xbf, 0xae, 0x9c, 0x9f, 0xbf, 0xd6, 0x01, 0x1c, 0xbd, 
    0xb5, 0xef, 0x33, 0xbf, 0xc2, 0x88, 0x7c, 0x3e, 0xad, 0xd4, 0x09, 0x3f, 
    0xa7, 0x76, 0x93, 0xbe, 0xa0, 0xb4, 0x18, 0x3f, 0xc1, 0x75, 0x5d, 0x3d, 
    0x99, 0xc5, 0x3a, 0x3f, 0xcc, 0x85, 0x39, 0x3e, 0x7c, 0x28, 0xe9, 0xbd, 
    0xf4, 0xb2, 0x84, 0xbd, 0x52, 0x03, 0xb6, 0x3d, 0x23, 0xf7, 0xe3, 0x3e, 
    0xec, 0xad, 0xe1, 0x3e, 0xc6, 0x8f, 0x1d, 0x3f, 0x39, 0xff, 0x4c, 0xbf, 
    0x79, 0xf8, 0x48, 0xbf, 0xb5, 0x7a, 0xcc, 0x3e, 0xf9, 0x25, 0xd8, 0x3d, 
    0x72, 0x47, 0x07, 0xbd, 0xe4, 0x2b, 0x46, 0x3f, 0xbe, 0x13, 0x29, 0xbe, 
    0xcd, 0xf5, 0xb0, 0xbe, 0x4a, 0x37, 0xff, 0x3e, 0x0a, 0xe0, 0x1a, 0xbf, 
    0x3b, 0xc3, 0x64, 0xbe, 0xd5, 0xbb, 0x3c, 0x3d, 0x6b, 0x2f, 0x50, 0xbe, 
    0x09, 0x69, 0x46, 0xbe, 0xc6, 0xcb, 0x8d, 0x3d, 0x17, 0x34, 0x00, 0x3e, 
    0xb9, 0x38, 0x68, 0x3d, 0x6b, 0xe9, 0x2e, 0xbf, 0x90, 0x7e, 0x4d, 0x3d, 
    0x24, 0x4e, 0x25, 0xbf, 0xa0, 0xaf, 0x56, 0xbf, 0x1a, 0x4f, 0x54, 0x3e, 
    0x1e, 0xdc, 0xe4, 0x3e, 0xc2, 0xaf, 0xe1, 0xbe, 0xa0, 0xc4, 0xcf, 0xbe, 
    0x62, 0xeb, 0x81, 0xbe, 0x0e, 0x52, 0x23, 0xbe, 0x38, 0x1f, 0x36, 0xbf, 
    0x62, 0x4a, 0xef, 0x3e, 0xb4, 0x8d, 0xb6, 0xbe, 0xdb, 0x8b, 0xc5, 0xbe, 
    0x55, 0xd8, 0x14, 0x3f, 0xdf, 0x64, 0xa0, 0x3d, 0x75, 0x1d, 0x24, 0xbe, 
    0x6e, 0xf7, 0x93, 0x38, 0x4c, 0xcf, 0xbd, 0xbe, 0xea, 0x97, 0x9c, 0x3d, 
    0x77, 0x61, 0x10, 0xbf, 0xb8, 0x42, 0x55, 0xbf, 0xcd, 0x94, 0x24, 0x3f, 
    0xed, 0xaf, 0xd2, 0xbe, 0x17, 0x72, 0xc1, 0x3e, 0xb7, 0x1c, 0x80, 0x3d, 
    0x8b, 0x87, 0xbb, 0xbe, 0x78, 0xab, 0xa6, 0x3e, 0x74, 0x37, 0x8d, 0x3e, 
    0x13, 0xab, 0x2e, 0xbf, 0x59, 0x02, 0x90, 0xbe, 0x71, 0xba, 0xb5, 0xbe, 
    0x01, 0x9b, 0x8b, 0x3e, 0x5c, 0x8b, 0x80, 0xbe, 0x6b, 0x4b, 0x0c, 0x3b, 
    0x23, 0x9f, 0xc6, 0x3e, 0x5e, 0x0f, 0x2c, 0x3e, 0x10, 0x5b, 0x8e, 0xbe, 
    0xc5, 0x8a, 0xad, 0xbc, 0x0f, 0x1e, 0x4e, 0x3d, 0x0e, 0x22, 0xbf, 0x3c, 
    0x94, 0x8e, 0x96, 0x3e, 0xd1, 0xa3, 0x20, 0x3f, 0x19, 0x74, 0x07, 0x3e, 
    0x4e, 0xb8, 0x2a, 0x3f, 0x38, 0x47, 0x44, 0x3e, 0x5c, 0x68, 0x6b, 0xbf, 
    0xa0, 0x09, 0x17, 0xbe, 0xd6, 0x10, 0x9a, 0xbe, 0x3f, 0x31, 0x48, 0x3e, 
    0xdb, 0xa9, 0x36, 0x3d, 0x69, 0xa4, 0xa0, 0x3e, 0x73, 0x75, 0x64, 0x3f, 
    0x65, 0xea, 0x6d, 0x3f, 0xac, 0x23, 0x36, 0x3e, 0x83, 0xb8, 0x87, 0xbe, 
    0xb2, 0x1a, 0xa3, 0x3e, 0x46, 0x09, 0x89, 0xbe, 0x70, 0x1b, 0xb1, 0x3d, 
    0x41, 0x5b, 0x8f, 0x3e, 0x15, 0x85, 0x91, 0xbe, 0x0f, 0x74, 0x34, 0x3d, 
    0x1d, 0xf1, 0x33, 0x3f, 0x5d, 0x03, 0x57, 0x3f, 0x47, 0x04, 0xc2, 0xbe, 
    0x35, 0xb4, 0x1a, 0x3d, 0x63, 0x85, 0x25, 0xbc, 0xe2, 0x2a, 0x0a, 0x3e, 
    0x22, 0xf7, 0x2d, 0x3f, 0xec, 0xa7, 0xd6, 0xbe, 0xdb, 0xf8, 0xb2, 0xbe, 
    0x35, 0xb8, 0xd4, 0xbe, 0xc0, 0xa9, 0xd0, 0xbe, 0x35, 0xac, 0x9e, 0x3e, 
    0x69, 0x02, 0xd9, 0xbd, 0x7c, 0x69, 0xc2, 0xbe, 0xeb, 0x4f, 0x6a, 0xbc, 
    0xad, 0x26, 0x04, 0xbe, 0xeb, 0x5e, 0x98, 0x3d, 0xf7, 0x71, 0x6f, 0x3f, 
    0x88, 0x45, 0x51, 0x3f, 0x05, 0x6c, 0x04, 0x3d, 0x9e, 0x91, 0xd8, 0xbe, 
    0x3d, 0x5c, 0xb7, 0xbe, 0x44, 0x92, 0x32, 0x3e, 0x2b, 0xd2, 0xfb, 0xbd, 
    0x2c, 0x55, 0x26, 0x3f, 0x44, 0x03, 0xa7, 0xbe, 0xaf, 0xeb, 0x6a, 0x3f, 
    0x26, 0xa5, 0x68, 0x3d, 0x78, 0x21, 0x41, 0xbe, 0xa2, 0xe9, 0xf2, 0x3e, 
    0x27, 0x81, 0x3b, 0x3e, 0x6a, 0x0b, 0x95, 0xbe, 0xfd, 0xae, 0xcf, 0xbe, 
    0x03, 0x20, 0xf3, 0x3d, 0xd7, 0xa4, 0x83, 0x3e, 0x88, 0x48, 0x0b, 0x3e, 
    0x89, 0xaf, 0x4d, 0x3e, 0xa5, 0x75, 0x4a, 0x3e, 0xcb, 0xb2, 0x82, 0x3e, 
    0x1b, 0xf4, 0x9f, 0xbe, 0x7d, 0x97, 0xa9, 0xbd, 0xb9, 0x1c, 0x9f, 0x3e, 
    0x2a, 0xf6, 0x15, 0x3e, 0xd6, 0x9b, 0xb1, 0x3e, 0x48, 0x91, 0xa2, 0x3f, 
    0x5b, 0x8b, 0x35, 0xbd, 0xf5, 0x90, 0x84, 0x3e, 0x93, 0xc2, 0x8c, 0x3e, 
    0x02, 0x9d, 0x21, 0xbf, 0xc7, 0xb7, 0x8a, 0x3e, 0xca, 0x65, 0xd6, 0xbd, 
    0x01, 0x6d, 0x67, 0x3d, 0x97, 0xc3, 0xf2, 0xbd, 0xc1, 0x5e, 0xbe, 0x3e, 
    0x6c, 0xd3, 0x84, 0x3f, 0xa6, 0x82, 0x97, 0x3f, 0xf6, 0xfd, 0xff, 0xff, 
    0x04, 0x00, 0x00, 0x00, 0x00, 0x01, 0x00, 0x00, 0xeb, 0x7e, 0xca, 0x3e, 
    0x83, 0x6f, 0x48, 0x3f, 0xa9, 0x55, 0x5b, 0x3f, 0x78, 0x21, 0xe5, 0x3e, 
    0x6a, 0xc5, 0x51, 0xbf, 0x7c, 0x08, 0xd0, 0x3d, 0x5a, 0x1b, 0x6b, 0x3e, 
    0xd2, 0x4a, 0xf3, 0x3e, 0xea, 0x79, 0x4e, 0xbf, 0x40, 0x6f, 0xb0, 0xbf, 
    0x4c, 0x2e, 0x1a, 0xbf, 0x58, 0x84, 0x3f, 0x3f, 0xde, 0xf3, 0x98, 0xbf, 
    0x86, 0xad, 0x11, 0x3f, 0x65, 0x47, 0xd5, 0xbe, 0x83, 0x43, 0x71, 0x3e, 
    0x71, 0x3b, 0x2f, 0xbf, 0x4a, 0xd6, 0x41, 0xbf, 0x06, 0x50, 0x83, 0xbf, 
    0x4c, 0xe8, 0xbb, 0xbf, 0x48, 0x8b, 0x82, 0x3f, 0xc0, 0x7e, 0x0d, 0x3f, 
    0xe2, 0x9e, 0x90, 0xbf, 0x0f, 0xe5, 0x76, 0xbf, 0x54, 0xa4, 0x13, 0x3f, 
    0x59, 0xd6, 0x1b, 0xbf, 0xe8, 0xca, 0x0c, 0xbf, 0xac, 0x36, 0xc5, 0xbe, 
    0x63, 0x97, 0x02, 0xc0, 0xc3, 0xc0, 0xba, 0x3e, 0x8b, 0x33, 0x5d, 0x3f, 
    0xbf, 0x28, 0x9b, 0x3e, 0x2c, 0x07, 0x3b, 0xbf, 0xda, 0xa0, 0x2d, 0xbe, 
    0xde, 0x4f, 0x49, 0x3f, 0x40, 0xaa, 0x0d, 0x3f, 0x80, 0x65, 0x3d, 0x3f, 
    0xea, 0xae, 0x9d, 0xbf, 0x8b, 0x3d, 0x19, 0x3f, 0xf2, 0x86, 0x40, 0xbf, 
    0xbe, 0x8d, 0x94, 0x3e, 0x3f, 0xfa, 0x7b, 0x3f, 0xc6, 0x54, 0x64, 0xbf, 
    0x10, 0xd7, 0x0b, 0xbf, 0x56, 0x61, 0x13, 0x3f, 0x20, 0x6f, 0x89, 0xbf, 
    0xf8, 0x66, 0x27, 0x3f, 0x82, 0x4a, 0xca, 0xbe, 0xcd, 0x11, 0x0d, 0x3e, 
    0x67, 0xe4, 0x15, 0xbf, 0xd7, 0xc5, 0x1f, 0xbf, 0x39, 0x6b, 0x47, 0x3f, 
    0xee, 0xb6, 0xae, 0xbf, 0xc0, 0xb7, 0xd6, 0xbf, 0x4d, 0x5e, 0x5d, 0xbf, 
    0x81, 0xeb, 0x14, 0x3f, 0x14, 0xef, 0xcc, 0x3e, 0x09, 0x3e, 0xc3, 0x3e, 
    0xd3, 0x04, 0x88, 0x3f, 0x3a, 0x5b, 0x02, 0x3f, 0x48, 0xc7, 0x82, 0x3f, 
    0x3b, 0x82, 0x1d, 0xbf, 0xab, 0x99, 0x85, 0xbf, 0xa8, 0x77, 0x47, 0xbf, 
    0x02, 0xff, 0xff, 0xff, 0x04, 0x00, 0x00, 0x00, 0x10, 0x00, 0x00, 0x00, 
    0xe0, 0x74, 0xb8, 0xbe, 0x30, 0x97, 0x46, 0x3e, 0x12, 0x15, 0x38, 0x3f, 
    0xf7, 0x3c, 0xfb, 0xbe, 0x1e, 0xff, 0xff, 0xff, 0x04, 0x00, 0x00, 0x00, 
    0x40, 0x00, 0x00, 0x00, 0xc9, 0xed, 0x63, 0xbd, 0x50, 0x18, 0xd1, 0xbe, 
    0x4e, 0x89, 0x21, 0x3f, 0xeb, 0x45, 0xdc, 0x3e, 0xbb, 0xf8, 0xad, 0x3e, 
    0x90, 0x76, 0x32, 0xbe, 0x11, 0xa4, 0xe2, 0x3e, 0x4a, 0xb0, 0xcd, 0xbd, 
    0xa4, 0x2d, 0xf3, 0x3d, 0x4a, 0x17, 0x22, 0x3f, 0x89, 0x9b, 0xa2, 0xbd, 
    0xbf, 0x98, 0xd1, 0xbd, 0xea, 0x6b, 0x27, 0x3f, 0xc1, 0x74, 0x1d, 0xbe, 
    0x15, 0x89, 0x18, 0x3e, 0xd3, 0xa9, 0xae, 0xbe, 0x0c, 0xfa, 0xff, 0xff, 
    0x10, 0xfa, 0xff, 0xff, 0x0f, 0x00, 0x00, 0x00, 0x4d, 0x4c, 0x49, 0x52, 
    0x20, 0x43, 0x6f, 0x6e, 0x76, 0x65, 0x72, 0x74, 0x65, 0x64, 0x2e, 0x00, 
    0x01, 0x00, 0x00, 0x00, 0x14, 0x00, 0x00, 0x00, 0x00, 0x00, 0x0e, 0x00, 
    0x18, 0x00, 0x14, 0x00, 0x10, 0x00, 0x0c, 0x00, 0x08, 0x00, 0x04, 0x00, 
    0x0e, 0x00, 0x00, 0x00, 0x14, 0x00, 0x00, 0x00, 0x1c, 0x00, 0x00, 0x00, 
    0x34, 0x01, 0x00, 0x00, 0x38, 0x01, 0x00, 0x00, 0x3c, 0x01, 0x00, 0x00, 
    0x04, 0x00, 0x00, 0x00, 0x6d, 0x61, 0x69, 0x6e, 0x00, 0x00, 0x00, 0x00, 
    0x04, 0x00, 0x00, 0x00, 0xdc, 0x00, 0x00, 0x00, 0x94, 0x00, 0x00, 0x00, 
    0x50, 0x00, 0x00, 0x00, 0x14, 0x00, 0x00, 0x00, 0x00, 0x00, 0x0e, 0x00, 
    0x1a, 0x00, 0x14, 0x00, 0x10, 0x00, 0x0c, 0x00, 0x0b, 0x00, 0x04, 0x00, 
    0x0e, 0x00, 0x00, 0x00, 0x1c, 0x00, 0x00, 0x00, 0x00, 0x00, 0x00, 0x09, 
    0x1c, 0x00, 0x00, 0x00, 0x20, 0x00, 0x00, 0x00, 0x01, 0x00, 0x00, 0x00, 
    0x00, 0x00, 0x06, 0x00, 0x08, 0x00, 0x04, 0x00, 0x06, 0x00, 0x00, 0x00, 
    0x00, 0x00, 0x80, 0x3f, 0x01, 0x00, 0x00, 0x00, 0x0a, 0x00, 0x00, 0x00, 
    0x01, 0x00, 0x00, 0x00, 0x09, 0x00, 0x00, 0x00, 0xce, 0xff, 0xff, 0xff, 
    0x10, 0x00, 0x00, 0x00, 0x00, 0x00, 0x00, 0x08, 0x0c, 0x00, 0x00, 0x00, 
    0x10, 0x00, 0x00, 0x00, 0xd4, 0xfa, 0xff, 0xff, 0x01, 0x00, 0x00, 0x00, 
    0x09, 0x00, 0x00, 0x00, 0x03, 0x00, 0x00, 0x00, 0x08, 0x00, 0x00, 0x00, 
    0x03, 0x00, 0x00, 0x00, 0x02, 0x00, 0x00, 0x00, 0x00, 0x00, 0x0e, 0x00, 
    0x14, 0x00, 0x00, 0x00, 0x10, 0x00, 0x0c, 0x00, 0x0b, 0x00, 0x04, 0x00, 
    0x0e, 0x00, 0x00, 0x00, 0x10, 0x00, 0x00, 0x00, 0x00, 0x00, 0x00, 0x08, 
    0x10, 0x00, 0x00, 0x00, 0x14, 0x00, 0x00, 0x00, 0xba, 0xff, 0xff, 0xff, 
    0x00, 0x00, 0x00, 0x01, 0x01, 0x00, 0x00, 0x00, 0x08, 0x00, 0x00, 0x00, 
    0x03, 0x00, 0x00, 0x00, 0x07, 0x00, 0x00, 0x00, 0x04, 0x00, 0x00, 0x00, 
    0x01, 0x00, 0x00, 0x00, 0x00, 0x00, 0x0e, 0x00, 0x16, 0x00, 0x00, 0x00, 
    0x10, 0x00, 0x0c, 0x00, 0x0b, 0x00, 0x04, 0x00, 0x0e, 0x00, 0x00, 0x00, 
    0x18, 0x00, 0x00, 0x00, 0x00, 0x00, 0x00, 0x08, 0x18, 0x00, 0x00, 0x00, 
    0x1c, 0x00, 0x00, 0x00, 0x00, 0x00, 0x06, 0x00, 0x08, 0x00, 0x07, 0x00, 
    0x06, 0x00, 0x00, 0x00, 0x00, 0x00, 0x00, 0x01, 0x01, 0x00, 0x00, 0x00, 
    0x07, 0x00, 0x00, 0x00, 0x03, 0x00, 0x00, 0x00, 0x00, 0x00, 0x00, 0x00, 
    0x05, 0x00, 0x00, 0x00, 0x06, 0x00, 0x00, 0x00, 0x01, 0x00, 0x00, 0x00, 
    0x0a, 0x00, 0x00, 0x00, 0x01, 0x00, 0x00, 0x00, 0x00, 0x00, 0x00, 0x00, 
    0x0b, 0x00, 0x00, 0x00, 0x44, 0x04, 0x00, 0x00, 0xc4, 0x03, 0x00, 0x00, 
    0x60, 0x03, 0x00, 0x00, 0x10, 0x03, 0x00, 0x00, 0xc0, 0x02, 0x00, 0x00, 
    0x74, 0x02, 0x00, 0x00, 0x10, 0x02, 0x00, 0x00, 0x7c, 0x01, 0x00, 0x00, 
    0xe0, 0x00, 0x00, 0x00, 0x60, 0x00, 0x00, 0x00, 0x04, 0x00, 0x00, 0x00, 
    0xfe, 0xfb, 0xff, 0xff, 0x00, 0x00, 0x00, 0x01, 0x14, 0x00, 0x00, 0x00, 
    0x1c, 0x00, 0x00, 0x00, 0x1c, 0x00, 0x00, 0x00, 0x0b, 0x00, 0x00, 0x00, 
    0x34, 0x00, 0x00, 0x00, 0x02, 0x00, 0x00, 0x00, 0xff, 0xff, 0xff, 0xff, 
    0x04, 0x00, 0x00, 0x00, 0xe8, 0xfb, 0xff, 0xff, 0x1b, 0x00, 0x00, 0x00, 
    0x53, 0x74, 0x61, 0x74, 0x65, 0x66, 0x75, 0x6c, 0x50, 0x61, 0x72, 0x74, 
    0x69, 0x74, 0x69, 0x6f, 0x6e, 0x65, 0x64, 0x43, 0x61, 0x6c, 0x6c, 0x5f, 
    0x31, 0x3a, 0x30, 0x00, 0x02, 0x00, 0x00, 0x00, 0x01, 0x00, 0x00, 0x00, 
    0x04, 0x00, 0x00, 0x00, 0x56, 0xfc, 0xff, 0xff, 0x00, 0x00, 0x00, 0x01, 
    0x14, 0x00, 0x00, 0x00, 0x1c, 0x00, 0x00, 0x00, 0x1c, 0x00, 0x00, 0x00, 
    0x0a, 0x00, 0x00, 0x00, 0x58, 0x00, 0x00, 0x00, 0x02, 0x00, 0x00, 0x00, 
    0xff, 0xff, 0xff, 0xff, 0x04, 0x00, 0x00, 0x00, 0x40, 0xfc, 0xff, 0xff, 
    0x3c, 0x00, 0x00, 0x00, 0x73, 0x65, 0x71, 0x75, 0x65, 0x6e, 0x74, 0x69, 
    0x61, 0x6c, 0x5f, 0x31, 0x2f, 0x64, 0x65, 0x6e, 0x73, 0x65, 0x5f, 0x32, 
    0x5f, 0x31, 0x2f, 0x4d, 0x61, 0x74, 0x4d, 0x75, 0x6c, 0x3b, 0x73, 0x65, 
    0x71, 0x75, 0x65, 0x6e, 0x74, 0x69, 0x61, 0x6c, 0x5f, 0x31, 0x2f, 0x64, 
    0x65, 0x6e, 0x73, 0x65, 0x5f, 0x32, 0x5f, 0x31, 0x2f, 0x42, 0x69, 0x61, 
    0x73, 0x41, 0x64, 0x64, 0x00, 0x00, 0x00, 0x00, 0x02, 0x00, 0x00, 0x00, 
    0x01, 0x00, 0x00, 0x00, 0x04, 0x00, 0x00, 0x00, 0xd2, 0xfc, 0xff, 0xff, 
    0x00, 0x00, 0x00, 0x01, 0x14, 0x00, 0x00, 0x00, 0x1c, 0x00, 0x00, 0x00, 
    0x1c, 0x00, 0x00, 0x00, 0x09, 0x00, 0x00, 0x00, 0x74, 0x00, 0x00, 0x00, 
    0x02, 0x00, 0x00, 0x00, 0xff, 0xff, 0xff, 0xff, 0x10, 0x00, 0x00, 0x00, 
    0xbc, 0xfc, 0xff, 0xff, 0x58, 0x00, 0x00, 0x00, 0x73, 0x65, 0x71, 0x75, 
    0x65, 0x6e, 0x74, 0x69, 0x61, 0x6c, 0x5f, 0x31, 0x2f, 0x64, 0x65, 0x6e, 
    0x73, 0x65, 0x5f, 0x31, 0x5f, 0x32, 0x2f, 0x4d, 0x61, 0x74, 0x4d, 0x75, 
    0x6c, 0x3b, 0x73, 0x65, 0x71, 0x75, 0x65, 0x6e, 0x74, 0x69, 0x61, 0x6c, 
    0x5f, 0x31, 0x2f, 0x64, 0x65, 0x6e, 0x73, 0x65, 0x5f, 0x31, 0x5f, 0x32, 
    0x2f, 0x52, 0x65, 0x6c, 0x75, 0x3b, 0x73, 0x65, 0x71, 0x75, 0x65, 0x6e, 
    0x74, 0x69, 0x61, 0x6c, 0x5f, 0x31, 0x2f, 0x64, 0x65, 0x6e, 0x73, 0x65, 
    0x5f, 0x31, 0x5f, 0x32, 0x2f, 0x42, 0x69, 0x61, 0x73, 0x41, 0x64, 0x64, 
    0x00, 0x00, 0x00, 0x00, 0x02, 0x00, 0x00, 0x00, 0x01, 0x00, 0x00, 0x00, 
    0x10, 0x00, 0x00, 0x00, 0x6a, 0xfd, 0xff, 0xff, 0x00, 0x00, 0x00, 0x01, 
    0x14, 0x00, 0x00, 0x00, 0x1c, 0x00, 0x00, 0x00, 0x1c, 0x00, 0x00, 0x00, 
    0x08, 0x00, 0x00, 0x00, 0x6c, 0x00, 0x00, 0x00, 0x02, 0x00, 0x00, 0x00, 
    0xff, 0xff, 0xff, 0xff, 0x20, 0x00, 0x00, 0x00, 0x54, 0xfd, 0xff, 0xff, 
    0x52, 0x00, 0x00, 0x00, 0x73, 0x65, 0x71, 0x75, 0x65, 0x6e, 0x74, 0x69, 
    0x61, 0x6c, 0x5f, 0x31, 0x2f, 0x64, 0x65, 0x6e, 0x73, 0x65, 0x5f, 0x31, 
    0x2f, 0x4d, 0x61, 0x74, 0x4d, 0x75, 0x6c, 0x3b, 0x73, 0x65, 0x71, 0x75, 
    0x65, 0x6e, 0x74, 0x69, 0x61, 0x6c, 0x5f, 0x31, 0x2f, 0x64, 0x65, 0x6e, 
    0x73, 0x65, 0x5f, 0x31, 0x2f, 0x52, 0x65, 0x6c, 0x75, 0x3b, 0x73, 0x65, 
    0x71, 0x75, 0x65, 0x6e, 0x74, 0x69, 0x61, 0x6c, 0x5f, 0x31, 0x2f, 0x64, 
    0x65, 0x6e, 0x73, 0x65, 0x5f, 0x31, 0x2f, 0x42, 0x69, 0x61, 0x73, 0x41, 
    0x64, 0x64, 0x00, 0x00, 0x02, 0x00, 0x00, 0x00, 0x01, 0x00, 0x00, 0x00, 
    0x20, 0x00, 0x00, 0x00, 0x76, 0xfe, 0xff, 0xff, 0x00, 0x00, 0x00, 0x01, 
    0x10, 0x00, 0x00, 0x00, 0x10, 0x00, 0x00, 0x00, 0x07, 0x00, 0x00, 0x00, 
    0x44, 0x00, 0x00, 0x00, 0xd4, 0xfd, 0xff, 0xff, 0x36, 0x00, 0x00, 0x00, 
    0x73, 0x65, 0x71, 0x75, 0x65, 0x6e, 0x74, 0x69, 0x61, 0x6c, 0x5f, 0x31, 
    0x2f, 0x64, 0x65, 0x6e, 0x73, 0x65, 0x5f, 0x31, 0x2f, 0x52, 0x65, 0x6c, 
    0x75, 0x3b, 0x73, 0x65, 0x71, 0x75, 0x65, 0x6e, 0x74, 0x69, 0x61, 0x6c, 
    0x5f, 0x31, 0x2f, 0x64, 0x65, 0x6e, 0x73, 0x65, 0x5f, 0x31, 0x2f, 0x42, 
    0x69, 0x61, 0x73, 0x41, 0x64, 0x64, 0x00, 0x00, 0x01, 0x00, 0x00, 0x00, 
    0x20, 0x00, 0x00, 0x00, 0xd6, 0xfe, 0xff, 0xff, 0x00, 0x00, 0x00, 0x01, 
    0x10, 0x00, 0x00, 0x00, 0x10, 0x00, 0x00, 0x00, 0x06, 0x00, 0x00, 0x00, 
    0x28, 0x00, 0x00, 0x00, 0x34, 0xfe, 0xff, 0xff, 0x1b, 0x00, 0x00, 0x00, 
    0x73, 0x65, 0x71, 0x75, 0x65, 0x6e, 0x74, 0x69, 0x61, 0x6c, 0x5f, 0x31, 
    0x2f, 0x64, 0x65, 0x6e, 0x73, 0x65, 0x5f, 0x31, 0x2f, 0x4d, 0x61, 0x74, 
    0x4d, 0x75, 0x6c, 0x00, 0x02, 0x00, 0x00, 0x00, 0x20, 0x00, 0x00, 0x00, 
    0x08, 0x00, 0x00, 0x00, 0x1e, 0xff, 0xff, 0xff, 0x00, 0x00, 0x00, 0x01, 
    0x10, 0x00, 0x00, 0x00, 0x10, 0x00, 0x00, 0x00, 0x05, 0x00, 0x00, 0x00, 
    0x2c, 0x00, 0x00, 0x00, 0x7c, 0xfe, 0xff, 0xff, 0x1d, 0x00, 0x00, 0x00, 
    0x73, 0x65, 0x71, 0x75, 0x65, 0x6e, 0x74, 0x69, 0x61, 0x6c, 0x5f, 0x31, 
    0x2f, 0x64, 0x65, 0x6e, 0x73, 0x65, 0x5f, 0x31, 0x5f, 0x32, 0x2f, 0x4d, 
    0x61, 0x74, 0x4d, 0x75, 0x6c, 0x00, 0x00, 0x00, 0x02, 0x00, 0x00, 0x00, 
    0x10, 0x00, 0x00, 0x00, 0x20, 0x00, 0x00, 0x00, 0x6a, 0xff, 0xff, 0xff, 
    0x00, 0x00, 0x00, 0x01, 0x10, 0x00, 0x00, 0x00, 0x10, 0x00, 0x00, 0x00, 
    0x04, 0x00, 0x00, 0x00, 0x2c, 0x00, 0x00, 0x00, 0xc8, 0xfe, 0xff, 0xff, 
    0x1d, 0x00, 0x00, 0x00, 0x73, 0x65, 0x71, 0x75, 0x65, 0x6e, 0x74, 0x69, 
    0x61, 0x6c, 0x5f, 0x31, 0x2f, 0x64, 0x65, 0x6e, 0x73, 0x65, 0x5f, 0x32, 
    0x5f, 0x31, 0x2f, 0x4d, 0x61, 0x74, 0x4d, 0x75, 0x6c, 0x00, 0x00, 0x00, 
    0x02, 0x00, 0x00, 0x00, 0x04, 0x00, 0x00, 0x00, 0x10, 0x00, 0x00, 0x00, 
    0xb6, 0xff, 0xff, 0xff, 0x00, 0x00, 0x00, 0x01, 0x10, 0x00, 0x00, 0x00, 
    0x10, 0x00, 0x00, 0x00, 0x03, 0x00, 0x00, 0x00, 0x2c, 0x00, 0x00, 0x00, 
    0x14, 0xff, 0xff, 0xff, 0x1e, 0x00, 0x00, 0x00, 0x73, 0x65, 0x71, 0x75, 
    0x65, 0x6e, 0x74, 0x69, 0x61, 0x6c, 0x5f, 0x31, 0x2f, 0x64, 0x65, 0x6e, 
    0x73, 0x65, 0x5f, 0x32, 0x5f, 0x31, 0x2f, 0x42, 0x69, 0x61, 0x73, 0x41, 
    0x64, 0x64, 0x00, 0x00, 0x01, 0x00, 0x00, 0x00, 0x04, 0x00, 0x00, 0x00, 
    0x00, 0x00, 0x16, 0x00, 0x18, 0x00, 0x14, 0x00, 0x00, 0x00, 0x10, 0x00, 
    0x0c, 0x00, 0x08, 0x00, 0x00, 0x00, 0x00, 0x00, 0x00, 0x00, 0x07, 0x00, 
    0x16, 0x00, 0x00, 0x00, 0x00, 0x00, 0x00, 0x01, 0x10, 0x00, 0x00, 0x00, 
    0x10, 0x00, 0x00, 0x00, 0x02, 0x00, 0x00, 0x00, 0x48, 0x00, 0x00, 0x00, 
    0x74, 0xff, 0xff, 0xff, 0x3a, 0x00, 0x00, 0x00, 0x73, 0x65, 0x71, 0x75, 
    0x65, 0x6e, 0x74, 0x69, 0x61, 0x6c, 0x5f, 0x31, 0x2f, 0x64, 0x65, 0x6e, 
    0x73, 0x65, 0x5f, 0x31, 0x5f, 0x32, 0x2f, 0x52, 0x65, 0x6c, 0x75, 0x3b, 
    0x73, 0x65, 0x71, 0x75, 0x65, 0x6e, 0x74, 0x69, 0x61, 0x6c, 0x5f, 0x31, 
    0x2f, 0x64, 0x65, 0x6e, 0x73, 0x65, 0x5f, 0x31, 0x5f, 0x32, 0x2f, 0x42, 
    0x69, 0x61, 0x73, 0x41, 0x64, 0x64, 0x00, 0x00, 0x01, 0x00, 0x00, 0x00, 
    0x10, 0x00, 0x00, 0x00, 0x00, 0x00, 0x16, 0x00, 0x1c, 0x00, 0x18, 0x00, 
    0x00, 0x00, 0x14, 0x00, 0x10, 0x00, 0x0c, 0x00, 0x00, 0x00, 0x00, 0x00, 
    0x08, 0x00, 0x07, 0x00, 0x16, 0x00, 0x00, 0x00, 0x00, 0x00, 0x00, 0x01, 
    0x14, 0x00, 0x00, 0x00, 0x20, 0x00, 0x00, 0x00, 0x20, 0x00, 0x00, 0x00, 
    0x01, 0x00, 0x00, 0x00, 0x3c, 0x00, 0x00, 0x00, 0x02, 0x00, 0x00, 0x00, 
    0xff, 0xff, 0xff, 0xff, 0x08, 0x00, 0x00, 0x00, 0x04, 0x00, 0x04, 0x00, 
    0x04, 0x00, 0x00, 0x00, 0x1e, 0x00, 0x00, 0x00, 0x73, 0x65, 0x72, 0x76, 
    0x69, 0x6e, 0x67, 0x5f, 0x64, 0x65, 0x66, 0x61, 0x75, 0x6c, 0x74, 0x5f, 
    0x6b, 0x65, 0x72, 0x61, 0x73, 0x5f, 0x74, 0x65, 0x6e, 0x73, 0x6f, 0x72, 
    0x3a, 0x30, 0x00, 0x00, 0x02, 0x00, 0x00, 0x00, 0x01, 0x00, 0x00, 0x00, 
    0x08, 0x00, 0x00, 0x00, 0x02, 0x00, 0x00, 0x00, 0x20, 0x00, 0x00, 0x00, 
    0x04, 0x00, 0x00, 0x00, 0xf4, 0xff, 0xff, 0xff, 0x19, 0x00, 0x00, 0x00, 
    0x00, 0x00, 0x00, 0x19, 0x0c, 0x00, 0x0c, 0x00, 0x0b, 0x00, 0x00, 0x00, 
    0x00, 0x00, 0x04, 0x00, 0x0c, 0x00, 0x00, 0x00, 0x09, 0x00, 0x00, 0x00, 
    0x00, 0x00, 0x00, 0x09
};

const unsigned int ann_model_tflite_len = 5728;

#endif
