#ifndef CNN_MODEL_DATA_H
#define CNN_MODEL_DATA_H

const unsigned char cnn_model_tflite[] = {
    0x1c, 0x00, 0x00, 0x00, 0x54, 0x46, 0x4c, 0x33, 0x14, 0x00, 0x20, 0x00, 
    0x1c, 0x00, 0x18, 0x00, 0x14, 0x00, 0x10, 0x00, 0x0c, 0x00, 0x00, 0x00, 
    0x08, 0x00, 0x04, 0x00, 0x14, 0x00, 0x00, 0x00, 0x1c, 0x00, 0x00, 0x00, 
    0x8c, 0x00, 0x00, 0x00, 0xe4, 0x00, 0x00, 0x00, 0xb0, 0x0b, 0x00, 0x00, 
    0xc0, 0x0b, 0x00, 0x00, 0x74, 0x18, 0x00, 0x00, 0x03, 0x00, 0x00, 0x00, 
    0x01, 0x00, 0x00, 0x00, 0x04, 0x00, 0x00, 0x00, 0x5a, 0xf2, 0xff, 0xff, 
    0x0c, 0x00, 0x00, 0x00, 0x1c, 0x00, 0x00, 0x00, 0x3c, 0x00, 0x00, 0x00, 
    0x0f, 0x00, 0x00, 0x00, 0x73, 0x65, 0x72, 0x76, 0x69, 0x6e, 0x67, 0x5f, 
    0x64, 0x65, 0x66, 0x61, 0x75, 0x6c, 0x74, 0x00, 0x01, 0x00, 0x00, 0x00, 
    0x04, 0x00, 0x00, 0x00, 0x90, 0xff, 0xff, 0xff, 0x15, 0x00, 0x00, 0x00, 
    0x04, 0x00, 0x00, 0x00, 0x08, 0x00, 0x00, 0x00, 0x6f, 0x75, 0x74, 0x70, 
    0x75, 0x74, 0x5f, 0x30, 0x00, 0x00, 0x00, 0x00, 0x01, 0x00, 0x00, 0x00, 
    0x04, 0x00, 0x00, 0x00, 0x62, 0xf3, 0xff, 0xff, 0x04, 0x00, 0x00, 0x00, 
    0x0c, 0x00, 0x00, 0x00, 0x6b, 0x65, 0x72, 0x61, 0x73, 0x5f, 0x74, 0x65, 
    0x6e, 0x73, 0x6f, 0x72, 0x00, 0x00, 0x00, 0x00, 0x02, 0x00, 0x00, 0x00, 
    0x34, 0x00, 0x00, 0x00, 0x04, 0x00, 0x00, 0x00, 0xdc, 0xff, 0xff, 0xff, 
    0x18, 0x00, 0x00, 0x00, 0x04, 0x00, 0x00, 0x00, 0x13, 0x00, 0x00, 0x00, 
    0x43, 0x4f, 0x4e, 0x56, 0x45, 0x52, 0x53, 0x49, 0x4f, 0x4e, 0x5f, 0x4d, 
    0x45, 0x54, 0x41, 0x44, 0x41, 0x54, 0x41, 0x00, 0x08, 0x00, 0x0c, 0x00, 
    0x08, 0x00, 0x04, 0x00, 0x08, 0x00, 0x00, 0x00, 0x17, 0x00, 0x00, 0x00, 
    0x04, 0x00, 0x00, 0x00, 0x13, 0x00, 0x00, 0x00, 0x6d, 0x69, 0x6e, 0x5f, 
    0x72, 0x75, 0x6e, 0x74, 0x69, 0x6d, 0x65, 0x5f, 0x76, 0x65, 0x72, 0x73, 
    0x69, 0x6f, 0x6e, 0x00, 0x19, 0x00, 0x00, 0x00, 0xc8, 0x0a, 0x00, 0x00, 
    0xc0, 0x0a, 0x00, 0x00, 0x90, 0x0a, 0x00, 0x00, 0x60, 0x0a, 0x00, 0x00, 
    0x40, 0x0a, 0x00, 0x00, 0x24, 0x0a, 0x00, 0x00, 0xd4, 0x09, 0x00, 0x00, 
    0x44, 0x09, 0x00, 0x00, 0x34, 0x01, 0x00, 0x00, 0x20, 0x01, 0x00, 0x00, 
    0x0c, 0x01, 0x00, 0x00, 0xf8, 0x00, 0x00, 0x00, 0xe4, 0x00, 0x00, 0x00, 
    0xdc, 0x00, 0x00, 0x00, 0xd4, 0x00, 0x00, 0x00, 0xcc, 0x00, 0x00, 0x00, 
    0xc4, 0x00, 0x00, 0x00, 0xbc, 0x00, 0x00, 0x00, 0xb4, 0x00, 0x00, 0x00, 
    0xac, 0x00, 0x00, 0x00, 0xa4, 0x00, 0x00, 0x00, 0x9c, 0x00, 0x00, 0x00, 
    0x94, 0x00, 0x00, 0x00, 0x74, 0x00, 0x00, 0x00, 0x04, 0x00, 0x00, 0x00, 
    0x42, 0xf4, 0xff, 0xff, 0x04, 0x00, 0x00, 0x00, 0x60, 0x00, 0x00, 0x00, 
    0x10, 0x00, 0x00, 0x00, 0x00, 0x00, 0x00, 0x00, 0x08, 0x00, 0x0e, 0x00, 
    0x08, 0x00, 0x04, 0x00, 0x08, 0x00, 0x00, 0x00, 0x10, 0x00, 0x00, 0x00, 
    0x24, 0x00, 0x00, 0x00, 0x00, 0x00, 0x06, 0x00, 0x08, 0x00, 0x04, 0x00, 
    0x06, 0x00, 0x00, 0x00, 0x04, 0x00, 0x00, 0x00, 0x00, 0x00, 0x00, 0x00, 
    0x0c, 0x00, 0x18, 0x00, 0x14, 0x00, 0x10, 0x00, 0x0c, 0x00, 0x04, 0x00, 
    0x0c, 0x00, 0x00, 0x00, 0xd1, 0xd6, 0x65, 0x7f, 0x85, 0x6b, 0xc0, 0xe5, 
    0x02, 0x00, 0x00, 0x00, 0x02, 0x00, 0x00, 0x00, 0x04, 0x00, 0x00, 0x00, 
    0x06, 0x00, 0x00, 0x00, 0x32, 0x2e, 0x32, 0x31, 0x2e, 0x30, 0x00, 0x00, 
    0xae, 0xf4, 0xff, 0xff, 0x04, 0x00, 0x00, 0x00, 0x10, 0x00, 0x00, 0x00, 
    0x31, 0x2e, 0x31, 0x31, 0x2e, 0x30, 0x00, 0x00, 0x00, 0x00, 0x00, 0x00, 
    0x00, 0x00, 0x00, 0x00, 0x90, 0xe9, 0xff, 0xff, 0x94, 0xe9, 0xff, 0xff, 
    0x98, 0xe9, 0xff, 0xff, 0x9c, 0xe9, 0xff, 0xff, 0xa0, 0xe9, 0xff, 0xff, 
    0xa4, 0xe9, 0xff, 0xff, 0xa8, 0xe9, 0xff, 0xff, 0xac, 0xe9, 0xff, 0xff, 
    0xb0, 0xe9, 0xff, 0xff, 0xb4, 0xe9, 0xff, 0xff, 0xf2, 0xf4, 0xff, 0xff, 
    0x04, 0x00, 0x00, 0x00, 0x04, 0x00, 0x00, 0x00, 0xfd, 0xff, 0xff, 0xff, 
    0x02, 0xf5, 0xff, 0xff, 0x04, 0x00, 0x00, 0x00, 0x04, 0x00, 0x00, 0x00, 
    0x40, 0x00, 0x00, 0x00, 0x12, 0xf5, 0xff, 0xff, 0x04, 0x00, 0x00, 0x00, 
    0x04, 0x00, 0x00, 0x00, 0x00, 0x00, 0x00, 0x00, 0x22, 0xf5, 0xff, 0xff, 
    0x04, 0x00, 0x00, 0x00, 0x04, 0x00, 0x00, 0x00, 0x01, 0x00, 0x00, 0x00, 
    0x32, 0xf5, 0xff, 0xff, 0x04, 0x00, 0x00, 0x00, 0x00, 0x08, 0x00, 0x00, 
    0xc6, 0x41, 0x5e, 0xbd, 0xfa, 0x6d, 0xb9, 0xbe, 0x66, 0x81, 0x30, 0xbe, 
    0x81, 0x36, 0x9e, 0xbe, 0x5d, 0x31, 0xf3, 0x3d, 0x4b, 0xab, 0xad, 0x3d, 
    0x30, 0xd5, 0xd5, 0xbe, 0xa5, 0x7a, 0xb9, 0xbc, 0x95, 0xd9, 0x4d, 0xbf, 
    0x82, 0x07, 0x2e, 0xbf, 0xac, 0xc2, 0x06, 0x3f, 0x24, 0x00, 0xb9, 0x3e, 
    0xc5, 0x1e, 0x0c, 0xbd, 0x1d, 0x3b, 0x29, 0x3f, 0x04, 0xfd, 0xcd, 0x3e, 
    0x3d, 0xfb, 0xe2, 0x3d, 0xcf, 0x82, 0x0c, 0xbf, 0x14, 0x1d, 0xc7, 0x3e, 
    0x3f, 0xfb, 0x2f, 0xbe, 0xce, 0x35, 0xba, 0xbe, 0x6c, 0x05, 0xc0, 0xbe, 
    0xa8, 0x69, 0x9a, 0xbe, 0x1b, 0xfc, 0x98, 0xbe, 0xf8, 0xe7, 0x29, 0xbd, 
    0xc3, 0xb4, 0x83, 0x3f, 0xb3, 0x60, 0x09, 0xbe, 0xe0, 0x9f, 0xdc, 0xbd, 
    0x35, 0x13, 0x40, 0xbd, 0x4f, 0x97, 0x66, 0x3f, 0x4c, 0xba, 0x46, 0x3f, 
    0xbb, 0x13, 0x22, 0x3f, 0x13, 0xf2, 0x09, 0x3f, 0x52, 0xb2, 0x38, 0x3f, 
    0x7e, 0x6d, 0x6d, 0xbf, 0x94, 0xcd, 0x80, 0xb9, 0xe3, 0x7f, 0xf1, 0x3d, 
    0x88, 0x5a, 0x83, 0x3f, 0x87, 0xd6, 0xe2, 0x3d, 0x80, 0x3c, 0x97, 0x3f, 
    0x75, 0x9a, 0x93, 0x3f, 0xb1, 0x43, 0x36, 0x3f, 0xd1, 0x83, 0x1d, 0xbf, 
    0x24, 0xd3, 0xa4, 0x3e, 0xe3, 0xf0, 0x12, 0x3c, 0xe0, 0xa0, 0x50, 0x3f, 
    0xd4, 0xcb, 0x33, 0x3f, 0xea, 0xec, 0xd5, 0x3e, 0xf3, 0xec, 0xfb, 0x3e, 
    0x9e, 0x5f, 0x6f, 0x3f, 0xae, 0x8e, 0xb6, 0x3e, 0x9d, 0xd9, 0xb0, 0x3d, 
    0x19, 0x86, 0x32, 0x3d, 0xae, 0x8c, 0x17, 0x3f, 0xf2, 0x97, 0xab, 0x3e, 
    0x0c, 0x53, 0x34, 0x3f, 0x44, 0xc1, 0x26, 0x3f, 0xb0, 0xf3, 0xce, 0x3e, 
    0xe3, 0xf8, 0x4e, 0xbd, 0x39, 0x41, 0x69, 0xbe, 0x2c, 0x22, 0x3d, 0x3e, 
    0x34, 0xc5, 0x51, 0x3f, 0xc2, 0x24, 0x77, 0x3f, 0x54, 0xa1, 0x49, 0x3f, 
    0x65, 0x41, 0x0b, 0x3f, 0x56, 0xd8, 0x88, 0xbe, 0xad, 0x88, 0x8a, 0xbd, 
    0xb1, 0xb5, 0xa7, 0xbe, 0x03, 0xb6, 0xad, 0xbd, 0x3e, 0x08, 0xaf, 0x3d, 
    0xaf, 0x6e, 0x01, 0x3e, 0x75, 0xff, 0xa8, 0xbe, 0x6e, 0xd6, 0x3b, 0xbe, 
    0x4a, 0x0e, 0x44, 0x3e, 0xaa, 0xbc, 0x7f, 0xbd, 0x58, 0x17, 0xd5, 0x3c, 
    0x00, 0x76, 0x52, 0xbe, 0x28, 0x48, 0xa3, 0xbe, 0x64, 0xf2, 0x9a, 0x3e, 
    0x83, 0x46, 0xf1, 0xbe, 0x16, 0x27, 0xd8, 0xbe, 0x03, 0x6b, 0xf3, 0xbd, 
    0x91, 0x1f, 0xd5, 0xbe, 0x02, 0x7f, 0xa1, 0x3e, 0xb9, 0x04, 0xdf, 0x3e, 
    0xc1, 0x81, 0xca, 0x3e, 0xd7, 0x38, 0x5e, 0x3e, 0xac, 0x35, 0xab, 0x3e, 
    0x82, 0x3d, 0xa1, 0x3e, 0x61, 0x32, 0xf8, 0xbe, 0x84, 0xa4, 0x7c, 0x3e, 
    0xd3, 0x15, 0x34, 0x3d, 0x71, 0xed, 0x46, 0xbc, 0x91, 0xd0, 0x4c, 0xbe, 
    0xa8, 0x5a, 0x84, 0xbf, 0x2a, 0x8c, 0x1b, 0xbf, 0xa9, 0x87, 0xb1, 0xbe, 
    0xb7, 0x88, 0xd5, 0x3c, 0xc6, 0xf4, 0x32, 0xbc, 0xdc, 0x94, 0xe4, 0x3d, 
    0xe5, 0x13, 0xae, 0xbc, 0x39, 0x31, 0xad, 0x3d, 0x8a, 0x4c, 0x6c, 0x3e, 
    0xf8, 0x72, 0x92, 0xbe, 0x34, 0x5a, 0x2d, 0x3e, 0x40, 0xf9, 0x42, 0x3e, 
    0x77, 0x9a, 0xb6, 0xbd, 0x9c, 0x83, 0xf9, 0x3c, 0x9f, 0x6f, 0x4f, 0xbd, 
    0x04, 0xd1, 0xee, 0x3c, 0x6a, 0x6c, 0xb4, 0x3c, 0x29, 0x08, 0x38, 0xbe, 
    0xde, 0x72, 0xc0, 0xbd, 0xf3, 0xb5, 0x75, 0xbe, 0x89, 0x0f, 0x0d, 0x3a, 
    0x0d, 0x42, 0x8c, 0xbd, 0xff, 0x1e, 0x23, 0x3e, 0x79, 0xa0, 0x98, 0xbe, 
    0x89, 0x43, 0x11, 0x3e, 0x7a, 0xdd, 0x49, 0xbe, 0x54, 0xc0, 0x29, 0xbe, 
    0xb9, 0x1b, 0x11, 0xbe, 0x59, 0x6d, 0xc3, 0xbe, 0xfa, 0x0a, 0x87, 0xbe, 
    0x20, 0x17, 0xad, 0x3d, 0x9c, 0x8e, 0x0d, 0x3e, 0x8a, 0x01, 0xbc, 0x3d, 
    0x01, 0x5f, 0xeb, 0x3c, 0x3d, 0xb3, 0x96, 0x3e, 0xdd, 0x87, 0x1e, 0x3e, 
    0x94, 0x86, 0xb6, 0x3c, 0x27, 0x9b, 0xa7, 0x3e, 0xc8, 0xd9, 0xe5, 0x3d, 
    0xe4, 0xfa, 0x3c, 0xbe, 0x1e, 0x0d, 0xc5, 0xbd, 0x8d, 0x46, 0x9c, 0x3b, 
    0x06, 0x3b, 0x99, 0x3d, 0x5c, 0x9d, 0x55, 0x3f, 0xb4, 0x51, 0x60, 0x3f, 
    0x8a, 0x4f, 0xa8, 0x3e, 0xd6, 0x0d, 0x72, 0x3e, 0x94, 0x55, 0x33, 0x3f, 
    0xe5, 0x77, 0x39, 0xbf, 0x63, 0xa1, 0x40, 0xbe, 0xdb, 0x4b, 0xcf, 0xbe, 
    0xf9, 0x61, 0x29, 0x3f, 0x17, 0x3b, 0x03, 0x40, 0xa8, 0x3e, 0x4b, 0x3f, 
    0x39, 0xe3, 0xe5, 0x3e, 0x91, 0x6e, 0x2f, 0x3e, 0xef, 0x13, 0xfd, 0x3e, 
    0xd3, 0x95, 0x5c, 0x3f, 0xa3, 0x20, 0x59, 0x3f, 0x96, 0x91, 0x2c, 0xbe, 
    0xb6, 0x38, 0xc7, 0x3d, 0x7b, 0x0e, 0x16, 0x3e, 0xd5, 0x0c, 0x0a, 0xbe, 
    0x73, 0x0b, 0x47, 0xbe, 0x49, 0x3e, 0xf8, 0xbd, 0x6a, 0x6b, 0xa7, 0xbd, 
    0xb2, 0x04, 0x0b, 0xbe, 0x48, 0x81, 0x9c, 0x3c, 0x9f, 0x76, 0xa0, 0x3d, 
    0x70, 0x70, 0x2f, 0xbd, 0x63, 0x47, 0x09, 0x3e, 0x23, 0xb9, 0x23, 0xbe, 
    0xc8, 0x8f, 0x2b, 0xbf, 0xfe, 0xb8, 0x7a, 0xbc, 0xae, 0xd5, 0x3c, 0xbe, 
    0xf3, 0xa3, 0x09, 0xbe, 0x08, 0x75, 0x1a, 0x3f, 0xd3, 0x52, 0x2b, 0xbe, 
    0xc3, 0x21, 0x9e, 0xbd, 0x8e, 0xba, 0xaf, 0x3e, 0x90, 0xf0, 0x0f, 0xbe, 
    0x86, 0x55, 0xfe, 0xba, 0xe1, 0xd5, 0x0a, 0x3e, 0xa0, 0x60, 0xb0, 0xbe, 
    0xd6, 0xa0, 0x04, 0xbd, 0xe7, 0xed, 0xd3, 0xbe, 0x3d, 0x9c, 0x48, 0xbe, 
    0x63, 0xa0, 0xba, 0x3d, 0x8c, 0xd3, 0x8e, 0xbe, 0x9b, 0xc4, 0x96, 0xbe, 
    0x33, 0xb7, 0x95, 0xbd, 0xf3, 0xa8, 0x35, 0xbe, 0xed, 0x0b, 0x25, 0xbe, 
    0x93, 0xdd, 0x66, 0xbe, 0x2b, 0x27, 0xce, 0xbe, 0x27, 0x4e, 0xa2, 0xbe, 
    0xbc, 0xad, 0xf4, 0xbe, 0x9b, 0x5b, 0x00, 0xbf, 0xa0, 0x7d, 0xee, 0xbe, 
    0x80, 0x4e, 0x0d, 0x3f, 0xc9, 0x7b, 0x0c, 0x3f, 0xdb, 0xcf, 0xca, 0x3e, 
    0x69, 0x72, 0x7b, 0x3f, 0xea, 0x8d, 0x3c, 0x3e, 0xb5, 0x7e, 0xd3, 0x3e, 
    0xa0, 0x9b, 0xe7, 0x3e, 0xcc, 0xb1, 0x10, 0x3f, 0xf4, 0x2d, 0x2f, 0xbe, 
    0x8e, 0x02, 0x19, 0x3e, 0xaa, 0xcb, 0xcc, 0xbe, 0xb8, 0xe0, 0x71, 0xbe, 
    0xd6, 0xf9, 0x58, 0xbd, 0xe4, 0x34, 0x97, 0x3e, 0x76, 0xa1, 0x98, 0xbe, 
    0x1e, 0x7f, 0xa6, 0xbd, 0xd3, 0x2d, 0xd5, 0xbe, 0x7d, 0x9c, 0xbc, 0x3d, 
    0xfd, 0x85, 0x46, 0x3e, 0xd5, 0x52, 0x69, 0xbd, 0xaf, 0x17, 0x0a, 0xbd, 
    0xea, 0xcd, 0x90, 0x3e, 0xb4, 0xf5, 0x97, 0xbe, 0x43, 0x84, 0x8b, 0xbb, 
    0x6f, 0x93, 0xbe, 0x3c, 0xdb, 0x4d, 0xca, 0xbd, 0x37, 0x8d, 0xe6, 0x3d, 
    0xc1, 0xb8, 0xbd, 0x3d, 0x8a, 0x38, 0xcd, 0xbe, 0xca, 0x81, 0x1c, 0xbe, 
    0x82, 0x86, 0x2f, 0xbe, 0x6e, 0x35, 0x7f, 0xbe, 0xb6, 0x69, 0x48, 0x3d, 
    0xfc, 0x1d, 0xab, 0x3d, 0x57, 0x39, 0x08, 0x3e, 0x87, 0x6b, 0xaf, 0x3e, 
    0x06, 0x7f, 0x80, 0x3e, 0xe5, 0x58, 0x8f, 0xbd, 0xac, 0xb8, 0xa6, 0xbd, 
    0x33, 0xfa, 0xfc, 0xbd, 0xba, 0x75, 0x02, 0xbf, 0x41, 0xe0, 0x9f, 0x3d, 
    0x28, 0xc4, 0xb8, 0xbd, 0xc9, 0x88, 0x3d, 0x3e, 0xe4, 0x1b, 0x77, 0xbd, 
    0x9f, 0x8e, 0x5a, 0x3d, 0x6f, 0xc4, 0xbf, 0xbd, 0xe9, 0xba, 0x4a, 0xbd, 
    0xc4, 0x98, 0x48, 0xbf, 0xa4, 0xd3, 0xf0, 0xbe, 0x71, 0x44, 0x91, 0x3b, 
    0x70, 0x6e, 0xd8, 0x3d, 0x98, 0x43, 0xd0, 0xbe, 0xdc, 0x36, 0xb5, 0xbd, 
    0xe9, 0x17, 0x33, 0xbf, 0x1e, 0x3b, 0xb5, 0x3c, 0xb8, 0x10, 0xa1, 0xbe, 
    0x73, 0x9a, 0x22, 0x3e, 0x09, 0x0e, 0x1f, 0xbd, 0x5d, 0x84, 0x9b, 0x3d, 
    0xb0, 0x15, 0x1b, 0x3e, 0xf9, 0xd2, 0x82, 0xbd, 0x26, 0x13, 0xab, 0xbe, 
    0xb3, 0xce, 0x13, 0xbe, 0xbc, 0x63, 0x54, 0x3e, 0xe8, 0xae, 0x47, 0x3f, 
    0xfd, 0x1d, 0x50, 0x3f, 0xc3, 0x98, 0x80, 0x3f, 0xe5, 0x46, 0x77, 0x3e, 
    0x47, 0x7c, 0x1c, 0x3e, 0x57, 0x69, 0x80, 0x3e, 0x9d, 0x2b, 0x84, 0x3d, 
    0x52, 0xd0, 0x78, 0xbd, 0x60, 0x81, 0x3f, 0x3e, 0x8c, 0x05, 0xed, 0x3d, 
    0x7e, 0x36, 0x72, 0x3e, 0x42, 0x2f, 0xfd, 0xbd, 0x30, 0xb9, 0xa0, 0x3e, 
    0x0a, 0x35, 0xd8, 0x3d, 0x07, 0x2e, 0xbb, 0x3d, 0x32, 0x29, 0x31, 0x3d, 
    0xa0, 0x38, 0xac, 0xbd, 0x8f, 0xc1, 0x78, 0x3e, 0xce, 0x78, 0xc7, 0x3e, 
    0x10, 0x2c, 0xe8, 0xbb, 0xc0, 0x69, 0x53, 0x3e, 0x24, 0xec, 0x0b, 0xbe, 
    0xe4, 0x82, 0xfc, 0xbd, 0x01, 0x28, 0x9c, 0xbe, 0xfc, 0x3f, 0x96, 0x3d, 
    0xc8, 0x17, 0x83, 0xbe, 0xd3, 0x11, 0x3c, 0xbb, 0x61, 0x58, 0x87, 0xbe, 
    0x21, 0xb2, 0xea, 0xbd, 0x14, 0xc5, 0xc3, 0xbe, 0xad, 0xb8, 0xa3, 0xbd, 
    0x4f, 0xa3, 0xd4, 0xbe, 0xe7, 0xdc, 0x4a, 0x3f, 0x2b, 0xaf, 0x16, 0x3e, 
    0x4a, 0x54, 0x12, 0xbe, 0xd2, 0x52, 0xad, 0xbe, 0x47, 0x1e, 0xfa, 0x3e, 
    0x58, 0xb6, 0x10, 0xbe, 0x0e, 0x4d, 0x3d, 0x3e, 0xa6, 0x63, 0x72, 0xbf, 
    0x17, 0x90, 0x1a, 0xbf, 0x03, 0xec, 0x0d, 0x3e, 0x45, 0x24, 0xda, 0xbd, 
    0xb3, 0x61, 0x23, 0xbf, 0x7d, 0x3c, 0x5b, 0x3e, 0x49, 0xe8, 0x89, 0xbd, 
    0x63, 0xdc, 0x9c, 0x3c, 0x54, 0xe5, 0x75, 0xbf, 0x0e, 0xbb, 0xe2, 0x3e, 
    0x9f, 0xe0, 0x36, 0xbe, 0xe8, 0xb1, 0xba, 0xbd, 0xd0, 0xde, 0xb5, 0xbe, 
    0xeb, 0xd6, 0x43, 0x3e, 0x7c, 0x32, 0x50, 0xbf, 0x4e, 0xac, 0xe9, 0xbe, 
    0x6a, 0x12, 0x96, 0xbd, 0x3d, 0x5f, 0xb1, 0xbe, 0xf0, 0xff, 0x81, 0x3d, 
    0xd0, 0xdf, 0xef, 0x3d, 0xeb, 0x20, 0x3d, 0x3e, 0xbe, 0xff, 0xd1, 0x3e, 
    0xe3, 0xcb, 0xaa, 0xbe, 0x69, 0xb9, 0x9b, 0xbd, 0x41, 0x42, 0x00, 0xbe, 
    0x57, 0xd8, 0x0b, 0xbf, 0x49, 0x5a, 0x27, 0xbe, 0x78, 0x22, 0x02, 0xbf, 
    0x02, 0xed, 0x8e, 0xbe, 0xaf, 0xe9, 0x03, 0x3e, 0x4b, 0x74, 0x50, 0x3d, 
    0x7e, 0x1b, 0xf6, 0xbe, 0x83, 0x24, 0x06, 0x3f, 0x05, 0x74, 0xbe, 0x3c, 
    0x53, 0xb0, 0xbe, 0x3d, 0x49, 0x81, 0x31, 0x3d, 0xe1, 0xe2, 0x02, 0x3f, 
    0x13, 0x67, 0x5f, 0xbf, 0x9e, 0x3b, 0x37, 0x3f, 0xcb, 0x43, 0xbc, 0x3d, 
    0xd6, 0x49, 0x40, 0x3f, 0xab, 0x8e, 0x03, 0xbf, 0xa0, 0x9c, 0x03, 0xbf, 
    0x46, 0xd0, 0xc1, 0xbe, 0xfa, 0x04, 0x8f, 0x3e, 0x9e, 0x24, 0x42, 0x3e, 
    0x5c, 0x08, 0x1c, 0x3f, 0x46, 0x83, 0x19, 0x3f, 0x64, 0x90, 0x98, 0x3d, 
    0x5c, 0x1a, 0x03, 0x3e, 0x34, 0xa5, 0x57, 0x3d, 0x50, 0x9c, 0xf6, 0xbd, 
    0xae, 0x3a, 0xf6, 0x3e, 0x0c, 0x5e, 0x0c, 0x3e, 0x7a, 0xe4, 0x36, 0x3f, 
    0x61, 0xff, 0x14, 0x3f, 0x06, 0xc1, 0xb5, 0x3e, 0x91, 0x20, 0xf5, 0x3e, 
    0x3a, 0xe7, 0x9b, 0xbd, 0x80, 0xe8, 0x8b, 0xbe, 0x2d, 0x19, 0x09, 0xbe, 
    0x9d, 0x8f, 0x90, 0x3e, 0x8e, 0x6c, 0xad, 0x3e, 0xdb, 0xf4, 0xbe, 0x3d, 
    0x74, 0xbb, 0x99, 0x3f, 0x74, 0xaf, 0x5b, 0x3e, 0xd2, 0x36, 0xe3, 0x3d, 
    0x37, 0xaa, 0x86, 0xbd, 0x71, 0x41, 0x41, 0x3f, 0xab, 0x63, 0x74, 0xbe, 
    0x68, 0x87, 0x54, 0x3f, 0xae, 0xb1, 0x01, 0x3f, 0xf8, 0xf7, 0x94, 0x3f, 
    0xab, 0x00, 0x15, 0x3e, 0x7e, 0x2a, 0xcd, 0xbd, 0x59, 0xef, 0x97, 0x3b, 
    0xb3, 0xfe, 0xe9, 0x3e, 0x71, 0x4e, 0x4e, 0x3e, 0xc5, 0x9c, 0x80, 0x3f, 
    0xdf, 0x03, 0x0c, 0x3f, 0x04, 0x6c, 0x9a, 0x3e, 0x32, 0x7f, 0x1c, 0x3e, 
    0x41, 0x70, 0x8e, 0x3e, 0x28, 0x9f, 0x2f, 0x3e, 0x3f, 0x3a, 0x65, 0x3e, 
    0x6f, 0xef, 0x6d, 0x3e, 0x2e, 0x34, 0x8c, 0x3e, 0x20, 0x4d, 0x98, 0x3e, 
    0x06, 0x93, 0xd6, 0x3e, 0x8b, 0xfe, 0x09, 0x3f, 0xb8, 0xe2, 0x73, 0x3e, 
    0x32, 0x4f, 0xc2, 0x3e, 0x86, 0xfb, 0xa4, 0x3e, 0x35, 0x6b, 0xa1, 0x3e, 
    0x00, 0x52, 0x40, 0x3e, 0x4e, 0xdb, 0x0f, 0x3f, 0xa5, 0xe6, 0x0d, 0xbe, 
    0x94, 0x22, 0x95, 0xbe, 0x87, 0x85, 0x0d, 0x3e, 0x72, 0xc4, 0x72, 0xbd, 
    0xd3, 0xf3, 0xc2, 0xbc, 0x79, 0xe6, 0x4c, 0xbe, 0x73, 0xe8, 0x20, 0x3f, 
    0x44, 0x5f, 0x42, 0x3e, 0x6e, 0x0e, 0x04, 0x3e, 0xb1, 0x03, 0x99, 0xbf, 
    0x39, 0xe7, 0x1e, 0xbf, 0x25, 0x09, 0x28, 0xbf, 0x79, 0x59, 0x4c, 0xbe, 
    0x2f, 0x4d, 0xd9, 0xbd, 0xe9, 0x3a, 0x11, 0xbf, 0xe1, 0xa9, 0xba, 0xbd, 
    0x2c, 0x11, 0xac, 0x3e, 0x69, 0x0a, 0x73, 0x3e, 0xcf, 0x5d, 0xdd, 0xbd, 
    0x30, 0xe2, 0xf2, 0x3d, 0xd6, 0xc1, 0xa7, 0x3e, 0x07, 0x03, 0xc9, 0x3d, 
    0xe5, 0xb8, 0x5a, 0x3e, 0x4c, 0xe4, 0x3c, 0x3e, 0x8b, 0xf9, 0x58, 0x3d, 
    0x88, 0x3b, 0xd6, 0x3c, 0x92, 0x9a, 0x4c, 0x3e, 0x58, 0xdb, 0x81, 0x3e, 
    0x4e, 0xc1, 0x08, 0x3f, 0x11, 0x5d, 0xf4, 0x3d, 0x94, 0xad, 0xca, 0x3e, 
    0xd4, 0xa5, 0x83, 0x3e, 0x78, 0x87, 0xec, 0x3c, 0xa5, 0x1f, 0xb6, 0xbe, 
    0xb9, 0xd3, 0x4b, 0x3d, 0xdf, 0x66, 0x25, 0x3e, 0x44, 0x01, 0x33, 0xbe, 
    0x0b, 0xd1, 0x51, 0x3f, 0xe2, 0xc6, 0x99, 0xbc, 0x83, 0xf2, 0x8c, 0xbd, 
    0xdc, 0xc3, 0x91, 0x3d, 0x9b, 0xe3, 0x60, 0x3f, 0x4e, 0xd5, 0x17, 0x3e, 
    0x94, 0xeb, 0x5f, 0xbe, 0x43, 0xe7, 0x9c, 0xbd, 0xfd, 0x8e, 0x16, 0xbe, 
    0x75, 0x83, 0xb6, 0xbe, 0x36, 0x3a, 0xd1, 0xbe, 0x75, 0x2e, 0x20, 0xbe, 
    0x23, 0xd4, 0x89, 0x3d, 0x5f, 0xec, 0x70, 0x3e, 0x82, 0x4b, 0x63, 0x3e, 
    0xac, 0x9d, 0xec, 0x3e, 0xf3, 0x74, 0x42, 0x3f, 0x03, 0xfc, 0xec, 0x3b, 
    0xcd, 0x78, 0x79, 0x3e, 0x5f, 0x0b, 0xb5, 0x3e, 0xeb, 0x5e, 0xfe, 0x3e, 
    0x65, 0x39, 0x52, 0xbe, 0x30, 0x5c, 0x21, 0xbd, 0x30, 0x81, 0xec, 0x3d, 
    0xd9, 0xde, 0xa0, 0x3e, 0x2d, 0x99, 0x8d, 0x3e, 0xef, 0xb2, 0xcc, 0x3e, 
    0xce, 0x68, 0x20, 0xbf, 0x8c, 0xa8, 0xbd, 0xbe, 0xf6, 0x72, 0xee, 0x3d, 
    0x8a, 0x86, 0xe5, 0xbd, 0xc8, 0x40, 0x3e, 0xbf, 0x01, 0xa9, 0x82, 0x3f, 
    0xb2, 0x0d, 0xb9, 0xbe, 0x76, 0x52, 0x0b, 0xbd, 0x4f, 0x4e, 0x5e, 0xbf, 
    0xab, 0xdf, 0x27, 0x40, 0x7f, 0xef, 0xee, 0x3d, 0x0c, 0x77, 0xb1, 0x3e, 
    0xdb, 0x6a, 0x4c, 0xbf, 0x99, 0xf1, 0xb8, 0xbd, 0xa4, 0x5b, 0x62, 0xbf, 
    0xbd, 0x9f, 0xe8, 0xbe, 0x2b, 0xf5, 0x15, 0x3e, 0x7d, 0x36, 0x45, 0x3d, 
    0x24, 0x5a, 0x3a, 0x3e, 0xb5, 0x35, 0x84, 0x3e, 0x55, 0x11, 0x82, 0x3e, 
    0x2f, 0x38, 0xef, 0x3e, 0x7f, 0xf6, 0xc0, 0x3e, 0x2d, 0x2a, 0xd8, 0x3e, 
    0xcd, 0xe7, 0x9d, 0x3e, 0x72, 0x97, 0x2e, 0xbd, 0xe2, 0xeb, 0x70, 0xbe, 
    0xdd, 0xc4, 0x16, 0x3b, 0xcc, 0x8a, 0xb4, 0x3d, 0x10, 0x93, 0xc6, 0x3e, 
    0x9f, 0x2b, 0x75, 0x3d, 0x89, 0x4e, 0xe7, 0x3d, 0x92, 0x83, 0x67, 0xbe, 
    0x18, 0xb0, 0xb0, 0xbe, 0xe5, 0x7f, 0x17, 0x3d, 0x8e, 0xcd, 0x18, 0x3e, 
    0xc2, 0xe4, 0x50, 0x3e, 0xc4, 0x4f, 0x2c, 0x3e, 0x7a, 0xec, 0x4b, 0x3e, 
    0xdd, 0xdb, 0xf1, 0x3e, 0x81, 0x64, 0x04, 0x3e, 0xc2, 0xc2, 0xbd, 0xbe, 
    0xe2, 0x62, 0x55, 0x3e, 0xd2, 0xa2, 0x93, 0x3e, 0xa9, 0xdd, 0x39, 0x3e, 
    0x48, 0xc2, 0xaf, 0x3b, 0x1c, 0x8a, 0x16, 0x3d, 0x1d, 0x75, 0x0e, 0xbd, 
    0x0c, 0x82, 0x3a, 0x3d, 0x39, 0x2e, 0xca, 0xbc, 0xb1, 0x3c, 0xf0, 0x3e, 
    0xca, 0x11, 0xc0, 0x3e, 0xab, 0x70, 0x5b, 0xbe, 0x82, 0xee, 0x77, 0x3e, 
    0x7f, 0x8f, 0x2f, 0x3e, 0x6b, 0x0b, 0x73, 0xbc, 0x3e, 0xfd, 0xff, 0xff, 
    0x04, 0x00, 0x00, 0x00, 0x80, 0x00, 0x00, 0x00, 0xd7, 0x1c, 0xb2, 0xbf, 
    0x28, 0x1e, 0x21, 0xbf, 0x4b, 0xe9, 0xb7, 0x3e, 0xe8, 0x6f, 0x56, 0x3f, 
    0x07, 0x3c, 0x2d, 0x3f, 0x06, 0x81, 0x7a, 0xbf, 0x95, 0xe7, 0xd8, 0x3e, 
    0x51, 0xe7, 0x10, 0x3e, 0xea, 0x78, 0x1d, 0xbf, 0xa8, 0xe0, 0xbc, 0xbe, 
    0xe4, 0x05, 0x3f, 0x3f, 0x89, 0x1b, 0xc3, 0xbe, 0x97, 0xfb, 0x66, 0x3c, 
    0x86, 0xcb, 0x32, 0x3f, 0xa6, 0x0d, 0x00, 0xbf, 0x6f, 0x54, 0xda, 0x3e, 
    0x6d, 0xaf, 0x3a, 0x3f, 0xc7, 0xe6, 0x55, 0x3f, 0xa2, 0xfd, 0x21, 0xc0, 
    0x6b, 0x2c, 0xfa, 0xbd, 0xcc, 0x71, 0x45, 0xbe, 0xb1, 0x1a, 0x85, 0x3e, 
    0xee, 0xe2, 0x26, 0x3f, 0xf2, 0xf4, 0x92, 0xbf, 0x4f, 0xda, 0x40, 0x3f, 
    0x5a, 0x51, 0x11, 0xbe, 0x37, 0x1b, 0xeb, 0x3e, 0x95, 0xe1, 0x0f, 0x3e, 
    0xf1, 0x05, 0x39, 0xbf, 0x77, 0x7d, 0x42, 0xbf, 0x0d, 0xb4, 0x69, 0xbf, 
    0xd5, 0x4f, 0x21, 0x3f, 0xca, 0xfd, 0xff, 0xff, 0x04, 0x00, 0x00, 0x00, 
    0x40, 0x00, 0x00, 0x00, 0x96, 0x00, 0x9c, 0xbf, 0xf4, 0x98, 0xd5, 0xbf, 
    0xf5, 0xab, 0x4b, 0x3f, 0x37, 0xe1, 0xbb, 0xbf, 0x62, 0xbb, 0x28, 0x3f, 
    0x95, 0x13, 0x3d, 0x3e, 0xdd, 0x6f, 0x55, 0x3f, 0xe2, 0xd4, 0xc3, 0x3d, 
    0xc9, 0x43, 0x87, 0xbf, 0xa9, 0x1d, 0x9e, 0xbf, 0x1e, 0xfb, 0x6b, 0xbf, 
    0x45, 0x7d, 0x6e, 0x3e, 0xab, 0x34, 0xc0, 0xbf, 0x7f, 0x3f, 0x95, 0xbe, 
    0x77, 0x60, 0x95, 0xbf, 0x99, 0x1a, 0x2e, 0xbe, 0x16, 0xfe, 0xff, 0xff, 
    0x04, 0x00, 0x00, 0x00, 0x0c, 0x00, 0x00, 0x00, 0xff, 0xff, 0xff, 0xff, 
    0x08, 0x00, 0x00, 0x00, 0x08, 0x00, 0x00, 0x00, 0x2e, 0xfe, 0xff, 0xff, 
    0x04, 0x00, 0x00, 0x00, 0x10, 0x00, 0x00, 0x00, 0xb1, 0x28, 0x0c, 0xbf, 
    0x2d, 0x22, 0x47, 0x3e, 0xa3, 0x2f, 0x91, 0x3e, 0x05, 0x2b, 0x48, 0xbd, 
    0x4a, 0xfe, 0xff, 0xff, 0x04, 0x00, 0x00, 0x00, 0x20, 0x00, 0x00, 0x00, 
    0x5d, 0x28, 0x8b, 0xbd, 0xed, 0xac, 0xb8, 0xbc, 0x47, 0x4a, 0x91, 0xbc, 
    0x51, 0x70, 0xb8, 0xbd, 0xa1, 0xaa, 0xf7, 0x3e, 0x46, 0x83, 0xe9, 0x3e, 
    0x90, 0x17, 0xaa, 0x3c, 0xdf, 0xae, 0x3f, 0x3e, 0x76, 0xfe, 0xff, 0xff, 
    0x04, 0x00, 0x00, 0x00, 0x20, 0x00, 0x00, 0x00, 0xb5, 0x8f, 0x00, 0x3f, 
    0x07, 0x46, 0xe1, 0x3c, 0x0d, 0x35, 0x85, 0xbe, 0x7e, 0x69, 0xda, 0xbe, 
    0xdb, 0xa8, 0x72, 0x3d, 0xd5, 0x58, 0x9b, 0x3e, 0xdf, 0xdb, 0x30, 0x3e, 
    0x78, 0xc4, 0x68, 0x3b, 0x68, 0xf3, 0xff, 0xff, 0x6c, 0xf3, 0xff, 0xff, 
    0x0f, 0x00, 0x00, 0x00, 0x4d, 0x4c, 0x49, 0x52, 0x20, 0x43, 0x6f, 0x6e, 
    0x76, 0x65, 0x72, 0x74, 0x65, 0x64, 0x2e, 0x00, 0x01, 0x00, 0x00, 0x00, 
    0x14, 0x00, 0x00, 0x00, 0x00, 0x00, 0x0e, 0x00, 0x18, 0x00, 0x14, 0x00, 
    0x10, 0x00, 0x0c, 0x00, 0x08, 0x00, 0x04, 0x00, 0x0e, 0x00, 0x00, 0x00, 
    0x14, 0x00, 0x00, 0x00, 0x1c, 0x00, 0x00, 0x00, 0x9c, 0x02, 0x00, 0x00, 
    0xa0, 0x02, 0x00, 0x00, 0xa4, 0x02, 0x00, 0x00, 0x04, 0x00, 0x00, 0x00, 
    0x6d, 0x61, 0x69, 0x6e, 0x00, 0x00, 0x00, 0x00, 0x0a, 0x00, 0x00, 0x00, 
    0x54, 0x02, 0x00, 0x00, 0xf4, 0x01, 0x00, 0x00, 0xbc, 0x01, 0x00, 0x00, 
    0x74, 0x01, 0x00, 0x00, 0x14, 0x01, 0x00, 0x00, 0xd4, 0x00, 0x00, 0x00, 
    0xac, 0x00, 0x00, 0x00, 0x70, 0x00, 0x00, 0x00, 0x38, 0x00, 0x00, 0x00, 
    0x04, 0x00, 0x00, 0x00, 0x3e, 0xfe, 0xff, 0xff, 0x14, 0x00, 0x00, 0x00, 
    0x00, 0x00, 0x00, 0x09, 0x14, 0x00, 0x00, 0x00, 0x18, 0x00, 0x00, 0x00, 
    0x07, 0x00, 0x00, 0x00, 0x3e, 0xff, 0xff, 0xff, 0x00, 0x00, 0x80, 0x3f, 
    0x01, 0x00, 0x00, 0x00, 0x15, 0x00, 0x00, 0x00, 0x01, 0x00, 0x00, 0x00, 
    0x14, 0x00, 0x00, 0x00, 0x6e, 0xfe, 0xff, 0xff, 0x14, 0x00, 0x00, 0x00, 
    0x00, 0x00, 0x00, 0x08, 0x10, 0x00, 0x00, 0x00, 0x14, 0x00, 0x00, 0x00, 
    0x06, 0x00, 0x00, 0x00, 0x34, 0xf4, 0xff, 0xff, 0x01, 0x00, 0x00, 0x00, 
    0x14, 0x00, 0x00, 0x00, 0x03, 0x00, 0x00, 0x00, 0x13, 0x00, 0x00, 0x00, 
    0x06, 0x00, 0x00, 0x00, 0x03, 0x00, 0x00, 0x00, 0xa2, 0xfe, 0xff, 0xff, 
    0x14, 0x00, 0x00, 0x00, 0x00, 0x00, 0x00, 0x08, 0x14, 0x00, 0x00, 0x00, 
    0x18, 0x00, 0x00, 0x00, 0x06, 0x00, 0x00, 0x00, 0x0a, 0xff, 0xff, 0xff, 
    0x00, 0x00, 0x00, 0x01, 0x01, 0x00, 0x00, 0x00, 0x13, 0x00, 0x00, 0x00, 
    0x03, 0x00, 0x00, 0x00, 0x12, 0x00, 0x00, 0x00, 0x07, 0x00, 0x00, 0x00, 
    0x01, 0x00, 0x00, 0x00, 0x0a, 0xff, 0xff, 0xff, 0x0c, 0x00, 0x00, 0x00, 
    0x10, 0x00, 0x00, 0x00, 0x02, 0x00, 0x00, 0x00, 0x01, 0x00, 0x00, 0x00, 
    0x12, 0x00, 0x00, 0x00, 0x02, 0x00, 0x00, 0x00, 0x0d, 0x00, 0x00, 0x00, 
    0x11, 0x00, 0x00, 0x00, 0x76, 0xff, 0xff, 0xff, 0x1c, 0x00, 0x00, 0x00, 
    0x00, 0x00, 0x00, 0x3b, 0x1c, 0x00, 0x00, 0x00, 0x20, 0x00, 0x00, 0x00, 
    0x05, 0x00, 0x00, 0x00, 0x00, 0x00, 0x06, 0x00, 0x08, 0x00, 0x04, 0x00, 
    0x06, 0x00, 0x00, 0x00, 0x02, 0x00, 0x00, 0x00, 0x01, 0x00, 0x00, 0x00, 
    0x11, 0x00, 0x00, 0x00, 0x02, 0x00, 0x00, 0x00, 0x10, 0x00, 0x00, 0x00, 
    0x0a, 0x00, 0x00, 0x00, 0xb2, 0xff, 0xff, 0xff, 0x24, 0x00, 0x00, 0x00, 
    0x00, 0x00, 0x00, 0x20, 0x24, 0x00, 0x00, 0x00, 0x28, 0x00, 0x00, 0x00, 
    0x04, 0x00, 0x00, 0x00, 0x00, 0x00, 0x0e, 0x00, 0x08, 0x00, 0x00, 0x00, 
    0x00, 0x00, 0x00, 0x00, 0x00, 0x00, 0x04, 0x00, 0x0e, 0x00, 0x00, 0x00, 
    0x01, 0x00, 0x00, 0x00, 0x01, 0x00, 0x00, 0x00, 0x10, 0x00, 0x00, 0x00, 
    0x04, 0x00, 0x00, 0x00, 0x0f, 0x00, 0x00, 0x00, 0x09, 0x00, 0x00, 0x00, 
    0x08, 0x00, 0x00, 0x00, 0x08, 0x00, 0x00, 0x00, 0x00, 0x00, 0x0e, 0x00, 
    0x1a, 0x00, 0x14, 0x00, 0x10, 0x00, 0x0c, 0x00, 0x0b, 0x00, 0x04, 0x00, 
    0x0e, 0x00, 0x00, 0x00, 0x1c, 0x00, 0x00, 0x00, 0x00, 0x00, 0x00, 0x37, 
    0x1c, 0x00, 0x00, 0x00, 0x20, 0x00, 0x00, 0x00, 0x03, 0x00, 0x00, 0x00, 
    0x00, 0x00, 0x06, 0x00, 0x08, 0x00, 0x07, 0x00, 0x06, 0x00, 0x00, 0x00, 
    0x00, 0x00, 0x00, 0x02, 0x01, 0x00, 0x00, 0x00, 0x0f, 0x00, 0x00, 0x00, 
    0x01, 0x00, 0x00, 0x00, 0x0e, 0x00, 0x00, 0x00, 0x00, 0x00, 0x0a, 0x00, 
    0x10, 0x00, 0x0c, 0x00, 0x08, 0x00, 0x04, 0x00, 0x0a, 0x00, 0x00, 0x00, 
    0x0c, 0x00, 0x00, 0x00, 0x10, 0x00, 0x00, 0x00, 0x02, 0x00, 0x00, 0x00, 
    0x01, 0x00, 0x00, 0x00, 0x0e, 0x00, 0x00, 0x00, 0x02, 0x00, 0x00, 0x00, 
    0x0d, 0x00, 0x00, 0x00, 0x04, 0x00, 0x00, 0x00, 0x00, 0x00, 0x0e, 0x00, 
    0x18, 0x00, 0x14, 0x00, 0x10, 0x00, 0x0c, 0x00, 0x0b, 0x00, 0x04, 0x00, 
    0x0e, 0x00, 0x00, 0x00, 0x20, 0x00, 0x00, 0x00, 0x00, 0x00, 0x00, 0x01, 
    0x28, 0x00, 0x00, 0x00, 0x2c, 0x00, 0x00, 0x00, 0x01, 0x00, 0x00, 0x00, 
    0x0c, 0x00, 0x10, 0x00, 0x00, 0x00, 0x0c, 0x00, 0x08, 0x00, 0x07, 0x00, 
    0x0c, 0x00, 0x00, 0x00, 0x00, 0x00, 0x00, 0x01, 0x01, 0x00, 0x00, 0x00, 
    0x01, 0x00, 0x00, 0x00, 0x01, 0x00, 0x00, 0x00, 0x0d, 0x00, 0x00, 0x00, 
    0x03, 0x00, 0x00, 0x00, 0x0c, 0x00, 0x00, 0x00, 0x05, 0x00, 0x00, 0x00, 
    0x02, 0x00, 0x00, 0x00, 0x00, 0x00, 0x0e, 0x00, 0x14, 0x00, 0x00, 0x00, 
    0x10, 0x00, 0x0c, 0x00, 0x0b, 0x00, 0x04, 0x00, 0x0e, 0x00, 0x00, 0x00, 
    0x10, 0x00, 0x00, 0x00, 0x00, 0x00, 0x00, 0x34, 0x0c, 0x00, 0x00, 0x00, 
    0x10, 0x00, 0x00, 0x00, 0x2c, 0xf6, 0xff, 0xff, 0x01, 0x00, 0x00, 0x00, 
    0x0c, 0x00, 0x00, 0x00, 0x02, 0x00, 0x00, 0x00, 0x00, 0x00, 0x00, 0x00, 
    0x0b, 0x00, 0x00, 0x00, 0x01, 0x00, 0x00, 0x00, 0x15, 0x00, 0x00, 0x00, 
    0x01, 0x00, 0x00, 0x00, 0x00, 0x00, 0x00, 0x00, 0x16, 0x00, 0x00, 0x00, 
    0x7c, 0x09, 0x00, 0x00, 0x00, 0x09, 0x00, 0x00, 0x18, 0x08, 0x00, 0x00, 
    0xcc, 0x07, 0x00, 0x00, 0x70, 0x07, 0x00, 0x00, 0xfc, 0x06, 0x00, 0x00, 
    0xac, 0x06, 0x00, 0x00, 0x60, 0x06, 0x00, 0x00, 0x20, 0x06, 0x00, 0x00, 
    0xc4, 0x05, 0x00, 0x00, 0x70, 0x05, 0x00, 0x00, 0x10, 0x05, 0x00, 0x00, 
    0x90, 0x04, 0x00, 0x00, 0x9c, 0x03, 0x00, 0x00, 0xd0, 0x02, 0x00, 0x00, 
    0x80, 0x02, 0x00, 0x00, 0x2c, 0x02, 0x00, 0x00, 0xd4, 0x01, 0x00, 0x00, 
    0x74, 0x01, 0x00, 0x00, 0xe0, 0x00, 0x00, 0x00, 0x60, 0x00, 0x00, 0x00, 
    0x04, 0x00, 0x00, 0x00, 0xf2, 0xf6, 0xff, 0xff, 0x00, 0x00, 0x00, 0x01, 
    0x14, 0x00, 0x00, 0x00, 0x1c, 0x00, 0x00, 0x00, 0x1c, 0x00, 0x00, 0x00, 
    0x16, 0x00, 0x00, 0x00, 0x34, 0x00, 0x00, 0x00, 0x02, 0x00, 0x00, 0x00, 
    0xff, 0xff, 0xff, 0xff, 0x04, 0x00, 0x00, 0x00, 0xd8, 0xf6, 0xff, 0xff, 
    0x1b, 0x00, 0x00, 0x00, 0x53, 0x74, 0x61, 0x74, 0x65, 0x66, 0x75, 0x6c, 
    0x50, 0x61, 0x72, 0x74, 0x69, 0x74, 0x69, 0x6f, 0x6e, 0x65, 0x64, 0x43, 
    0x61, 0x6c, 0x6c, 0x5f, 0x31, 0x3a, 0x30, 0x00, 0x02, 0x00, 0x00, 0x00, 
    0x01, 0x00, 0x00, 0x00, 0x04, 0x00, 0x00, 0x00, 0x4a, 0xf7, 0xff, 0xff, 
    0x00, 0x00, 0x00, 0x01, 0x14, 0x00, 0x00, 0x00, 0x1c, 0x00, 0x00, 0x00, 
    0x1c, 0x00, 0x00, 0x00, 0x15, 0x00, 0x00, 0x00, 0x58, 0x00, 0x00, 0x00, 
    0x02, 0x00, 0x00, 0x00, 0xff, 0xff, 0xff, 0xff, 0x04, 0x00, 0x00, 0x00, 
    0x30, 0xf7, 0xff, 0xff, 0x3c, 0x00, 0x00, 0x00, 0x73, 0x65, 0x71, 0x75, 
    0x65, 0x6e, 0x74, 0x69, 0x61, 0x6c, 0x5f, 0x31, 0x2f, 0x64, 0x65, 0x6e, 
    0x73, 0x65, 0x5f, 0x31, 0x5f, 0x32, 0x2f, 0x4d, 0x61, 0x74, 0x4d, 0x75, 
    0x6c, 0x3b, 0x73, 0x65, 0x71, 0x75, 0x65, 0x6e, 0x74, 0x69, 0x61, 0x6c, 
    0x5f, 0x31, 0x2f, 0x64, 0x65, 0x6e, 0x73, 0x65, 0x5f, 0x31, 0x5f, 0x32, 
    0x2f, 0x42, 0x69, 0x61, 0x73, 0x41, 0x64, 0x64, 0x00, 0x00, 0x00, 0x00, 
    0x02, 0x00, 0x00, 0x00, 0x01, 0x00, 0x00, 0x00, 0x04, 0x00, 0x00, 0x00, 
    0xc6, 0xf7, 0xff, 0xff, 0x00, 0x00, 0x00, 0x01, 0x14, 0x00, 0x00, 0x00, 
    0x1c, 0x00, 0x00, 0x00, 0x1c, 0x00, 0x00, 0x00, 0x14, 0x00, 0x00, 0x00, 
    0x6c, 0x00, 0x00, 0x00, 0x02, 0x00, 0x00, 0x00, 0xff, 0xff, 0xff, 0xff, 
    0x08, 0x00, 0x00, 0x00, 0xac, 0xf7, 0xff, 0xff, 0x52, 0x00, 0x00, 0x00, 
    0x73, 0x65, 0x71, 0x75, 0x65, 0x6e, 0x74, 0x69, 0x61, 0x6c, 0x5f, 0x31, 
    0x2f, 0x64, 0x65, 0x6e, 0x73, 0x65, 0x5f, 0x31, 0x2f, 0x4d, 0x61, 0x74, 
    0x4d, 0x75, 0x6c, 0x3b, 0x73, 0x65, 0x71, 0x75, 0x65, 0x6e, 0x74, 0x69, 
    0x61, 0x6c, 0x5f, 0x31, 0x2f, 0x64, 0x65, 0x6e, 0x73, 0x65, 0x5f, 0x31, 
    0x2f, 0x52, 0x65, 0x6c, 0x75, 0x3b, 0x73, 0x65, 0x71, 0x75, 0x65, 0x6e, 
    0x74, 0x69, 0x61, 0x6c, 0x5f, 0x31, 0x2f, 0x64, 0x65, 0x6e, 0x73, 0x65, 
    0x5f, 0x31, 0x2f, 0x42, 0x69, 0x61, 0x73, 0x41, 0x64, 0x64, 0x00, 0x00, 
    0x02, 0x00, 0x00, 0x00, 0x01, 0x00, 0x00, 0x00, 0x08, 0x00, 0x00, 0x00, 
    0x56, 0xf8, 0xff, 0xff, 0x00, 0x00, 0x00, 0x01, 0x14, 0x00, 0x00, 0x00, 
    0x1c, 0x00, 0x00, 0x00, 0x1c, 0x00, 0x00, 0x00, 0x13, 0x00, 0x00, 0x00, 
    0x38, 0x00, 0x00, 0x00, 0x02, 0x00, 0x00, 0x00, 0xff, 0xff, 0xff, 0xff, 
    0x40, 0x00, 0x00, 0x00, 0x3c, 0xf8, 0xff, 0xff, 0x1e, 0x00, 0x00, 0x00, 
    0x73, 0x65, 0x71, 0x75, 0x65, 0x6e, 0x74, 0x69, 0x61, 0x6c, 0x5f, 0x31, 
    0x2f, 0x66, 0x6c, 0x61, 0x74, 0x74, 0x65, 0x6e, 0x5f, 0x31, 0x2f, 0x52, 
    0x65, 0x73, 0x68, 0x61, 0x70, 0x65, 0x00, 0x00, 0x02, 0x00, 0x00, 0x00, 
    0x01, 0x00, 0x00, 0x00, 0x40, 0x00, 0x00, 0x00, 0xae, 0xfa, 0xff, 0xff, 
    0x00, 0x00, 0x00, 0x01, 0x14, 0x00, 0x00, 0x00, 0x14, 0x00, 0x00, 0x00, 
    0x12, 0x00, 0x00, 0x00, 0x00, 0x00, 0x00, 0x02, 0x34, 0x00, 0x00, 0x00, 
    0x8c, 0xf8, 0xff, 0xff, 0x24, 0x00, 0x00, 0x00, 0x73, 0x65, 0x71, 0x75, 
    0x65, 0x6e, 0x74, 0x69, 0x61, 0x6c, 0x5f, 0x31, 0x2f, 0x66, 0x6c, 0x61, 
    0x74, 0x74, 0x65, 0x6e, 0x5f, 0x31, 0x2f, 0x52, 0x65, 0x73, 0x68, 0x61, 
    0x70, 0x65, 0x2f, 0x73, 0x68, 0x61, 0x70, 0x65, 0x00, 0x00, 0x00, 0x00, 
    0x01, 0x00, 0x00, 0x00, 0x02, 0x00, 0x00, 0x00, 0x02, 0xfb, 0xff, 0xff, 
    0x00, 0x00, 0x00, 0x01, 0x14, 0x00, 0x00, 0x00, 0x14, 0x00, 0x00, 0x00, 
    0x11, 0x00, 0x00, 0x00, 0x00, 0x00, 0x00, 0x02, 0x34, 0x00, 0x00, 0x00, 
    0xe0, 0xf8, 0xff, 0xff, 0x24, 0x00, 0x00, 0x00, 0x73, 0x65, 0x71, 0x75, 
    0x65, 0x6e, 0x74, 0x69, 0x61, 0x6c, 0x5f, 0x31, 0x2f, 0x66, 0x6c, 0x61, 
    0x74, 0x74, 0x65, 0x6e, 0x5f, 0x31, 0x2f, 0x73, 0x74, 0x72, 0x69, 0x64, 
    0x65, 0x64, 0x5f, 0x73, 0x6c, 0x69, 0x63, 0x65, 0x00, 0x00, 0x00, 0x00, 
    0x00, 0x00, 0x00, 0x00, 0x52, 0xfb, 0xff, 0xff, 0x00, 0x00, 0x00, 0x01, 
    0x14, 0x00, 0x00, 0x00, 0x14, 0x00, 0x00, 0x00, 0x10, 0x00, 0x00, 0x00, 
    0x00, 0x00, 0x00, 0x02, 0x2c, 0x00, 0x00, 0x00, 0x30, 0xf9, 0xff, 0xff, 
    0x1c, 0x00, 0x00, 0x00, 0x73, 0x65, 0x71, 0x75, 0x65, 0x6e, 0x74, 0x69, 
    0x61, 0x6c, 0x5f, 0x31, 0x2f, 0x66, 0x6c, 0x61, 0x74, 0x74, 0x65, 0x6e, 
    0x5f, 0x31, 0x2f, 0x53, 0x68, 0x61, 0x70, 0x65, 0x00, 0x00, 0x00, 0x00, 
    0x01, 0x00, 0x00, 0x00, 0x03, 0x00, 0x00, 0x00, 0xa2, 0xf9, 0xff, 0xff, 
    0x00, 0x00, 0x00, 0x01, 0x14, 0x00, 0x00, 0x00, 0x20, 0x00, 0x00, 0x00, 
    0x20, 0x00, 0x00, 0x00, 0x0f, 0x00, 0x00, 0x00, 0xa0, 0x00, 0x00, 0x00, 
    0x03, 0x00, 0x00, 0x00, 0xff, 0xff, 0xff, 0xff, 0x08, 0x00, 0x00, 0x00, 
    0x08, 0x00, 0x00, 0x00, 0x8c, 0xf9, 0xff, 0xff, 0x80, 0x00, 0x00, 0x00, 
    0x73, 0x65, 0x71, 0x75, 0x65, 0x6e, 0x74, 0x69, 0x61, 0x6c, 0x5f, 0x31, 
    0x2f, 0x63, 0x6f, 0x6e, 0x76, 0x31, 0x64, 0x5f, 0x31, 0x2f, 0x52, 0x65, 
    0x6c, 0x75, 0x3b, 0x73, 0x65, 0x71, 0x75, 0x65, 0x6e, 0x74, 0x69, 0x61, 
    0x6c, 0x5f, 0x31, 0x2f, 0x63, 0x6f, 0x6e, 0x76, 0x31, 0x64, 0x5f, 0x31, 
    0x2f, 0x42, 0x69, 0x61, 0x73, 0x41, 0x64, 0x64, 0x3b, 0x73, 0x65, 0x71, 
    0x75, 0x65, 0x6e, 0x74, 0x69, 0x61, 0x6c, 0x5f, 0x31, 0x2f, 0x63, 0x6f, 
    0x6e, 0x76, 0x31, 0x64, 0x5f, 0x31, 0x2f, 0x63, 0x6f, 0x6e, 0x76, 0x6f, 
    0x6c, 0x75, 0x74, 0x69, 0x6f, 0x6e, 0x2f, 0x53, 0x71, 0x75, 0x65, 0x65, 
    0x7a, 0x65, 0x3b, 0x73, 0x65, 0x71, 0x75, 0x65, 0x6e, 0x74, 0x69, 0x61, 
    0x6c, 0x5f, 0x31, 0x2f, 0x63, 0x6f, 0x6e, 0x76, 0x31, 0x64, 0x5f, 0x31, 
    0x2f, 0x53, 0x71, 0x75, 0x65, 0x65, 0x7a, 0x65, 0x00, 0x00, 0x00, 0x00, 
    0x03, 0x00, 0x00, 0x00, 0x01, 0x00, 0x00, 0x00, 0x08, 0x00, 0x00, 0x00, 
    0x08, 0x00, 0x00, 0x00, 0x6a, 0xfa, 0xff, 0xff, 0x00, 0x00, 0x00, 0x01, 
    0x14, 0x00, 0x00, 0x00, 0x24, 0x00, 0x00, 0x00, 0x24, 0x00, 0x00, 0x00, 
    0x0e, 0x00, 0x00, 0x00, 0xc4, 0x00, 0x00, 0x00, 0x04, 0x00, 0x00, 0x00, 
    0xff, 0xff, 0xff, 0xff, 0x01, 0x00, 0x00, 0x00, 0x08, 0x00, 0x00, 0x00, 
    0x08, 0x00, 0x00, 0x00, 0x58, 0xfa, 0xff, 0xff, 0xa3, 0x00, 0x00, 0x00, 
    0x73, 0x65, 0x71, 0x75, 0x65, 0x6e, 0x74, 0x69, 0x61, 0x6c, 0x5f, 0x31, 
    0x2f, 0x63, 0x6f, 0x6e, 0x76, 0x31, 0x64, 0x5f, 0x31, 0x2f, 0x52, 0x65, 
    0x6c, 0x75, 0x3b, 0x73, 0x65, 0x71, 0x75, 0x65, 0x6e, 0x74, 0x69, 0x61, 
    0x6c, 0x5f, 0x31, 0x2f, 0x63, 0x6f, 0x6e, 0x76, 0x31, 0x64, 0x5f, 0x31, 
    0x2f, 0x42, 0x69, 0x61, 0x73, 0x41, 0x64, 0x64, 0x3b, 0x73, 0x65, 0x71, 
    0x75, 0x65, 0x6e, 0x74, 0x69, 0x61, 0x6c, 0x5f, 0x31, 0x2f, 0x63, 0x6f, 
    0x6e, 0x76, 0x31, 0x64, 0x5f, 0x31, 0x2f, 0x63, 0x6f, 0x6e, 0x76, 0x6f, 
    0x6c, 0x75, 0x74, 0x69, 0x6f, 0x6e, 0x2f, 0x53, 0x71, 0x75, 0x65, 0x65, 
    0x7a, 0x65, 0x3b, 0x73, 0x65, 0x71, 0x75, 0x65, 0x6e, 0x74, 0x69, 0x61, 
    0x6c, 0x5f, 0x31, 0x2f, 0x63, 0x6f, 0x6e, 0x76, 0x31, 0x64, 0x5f, 0x31, 
    0x2f, 0x53, 0x71, 0x75, 0x65, 0x65, 0x7a, 0x65, 0x3b, 0x73, 0x65, 0x71, 
    0x75, 0x65, 0x6e, 0x74, 0x69, 0x61, 0x6c, 0x5f, 0x31, 0x2f, 0x63, 0x6f, 
    0x6e, 0x76, 0x31, 0x64, 0x5f, 0x31, 0x2f, 0x63, 0x6f, 0x6e, 0x76, 0x6f, 
    0x6c, 0x75, 0x74, 0x69, 0x6f, 0x6e, 0x31, 0x00, 0x04, 0x00, 0x00, 0x00, 
    0x01, 0x00, 0x00, 0x00, 0x01, 0x00, 0x00, 0x00, 0x08, 0x00, 0x00, 0x00, 
    0x08, 0x00, 0x00, 0x00, 0x5a, 0xfb, 0xff, 0xff, 0x00, 0x00, 0x00, 0x01, 
    0x14, 0x00, 0x00, 0x00, 0x24, 0x00, 0x00, 0x00, 0x24, 0x00, 0x00, 0x00, 
    0x0d, 0x00, 0x00, 0x00, 0x50, 0x00, 0x00, 0x00, 0x04, 0x00, 0x00, 0x00, 
    0xff, 0xff, 0xff, 0xff, 0x01, 0x00, 0x00, 0x00, 0x08, 0x00, 0x00, 0x00, 
    0x01, 0x00, 0x00, 0x00, 0x48, 0xfb, 0xff, 0xff, 0x2c, 0x00, 0x00, 0x00, 
    0x73, 0x65, 0x71, 0x75, 0x65, 0x6e, 0x74, 0x69, 0x61, 0x6c, 0x5f, 0x31, 
    0x2f, 0x63, 0x6f, 0x6e, 0x76, 0x31, 0x64, 0x5f, 0x31, 0x2f, 0x63, 0x6f, 
    0x6e, 0x76, 0x6f, 0x6c, 0x75, 0x74, 0x69, 0x6f, 0x6e, 0x2f, 0x45, 0x78, 
    0x70, 0x61, 0x6e, 0x64, 0x44, 0x69, 0x6d, 0x73, 0x00, 0x00, 0x00, 0x00, 
    0x04, 0x00, 0x00, 0x00, 0x01, 0x00, 0x00, 0x00, 0x01, 0x00, 0x00, 0x00, 
    0x08, 0x00, 0x00, 0x00, 0x01, 0x00, 0x00, 0x00, 0xd2, 0xfd, 0xff, 0xff, 
    0x00, 0x00, 0x00, 0x01, 0x14, 0x00, 0x00, 0x00, 0x14, 0x00, 0x00, 0x00, 
    0x0c, 0x00, 0x00, 0x00, 0x00, 0x00, 0x00, 0x02, 0x40, 0x00, 0x00, 0x00, 
    0xb0, 0xfb, 0xff, 0xff, 0x30, 0x00, 0x00, 0x00, 0x73, 0x65, 0x71, 0x75, 
    0x65, 0x6e, 0x74, 0x69, 0x61, 0x6c, 0x5f, 0x31, 0x2f, 0x63, 0x6f, 0x6e, 
    0x76, 0x31, 0x64, 0x5f, 0x31, 0x2f, 0x63, 0x6f, 0x6e, 0x76, 0x6f, 0x6c, 
    0x75, 0x74, 0x69, 0x6f, 0x6e, 0x2f, 0x45, 0x78, 0x70, 0x61, 0x6e, 0x64, 
    0x44, 0x69, 0x6d, 0x73, 0x2f, 0x64, 0x69, 0x6d, 0x00, 0x00, 0x00, 0x00, 
    0x00, 0x00, 0x00, 0x00, 0x2e, 0xfe, 0xff, 0xff, 0x00, 0x00, 0x00, 0x01, 
    0x14, 0x00, 0x00, 0x00, 0x14, 0x00, 0x00, 0x00, 0x0b, 0x00, 0x00, 0x00, 
    0x00, 0x00, 0x00, 0x02, 0x34, 0x00, 0x00, 0x00, 0x0c, 0xfc, 0xff, 0xff, 
    0x26, 0x00, 0x00, 0x00, 0x73, 0x65, 0x71, 0x75, 0x65, 0x6e, 0x74, 0x69, 
    0x61, 0x6c, 0x5f, 0x31, 0x2f, 0x66, 0x6c, 0x61, 0x74, 0x74, 0x65, 0x6e, 
    0x5f, 0x31, 0x2f, 0x52, 0x65, 0x73, 0x68, 0x61, 0x70, 0x65, 0x2f, 0x73, 
    0x68, 0x61, 0x70, 0x65, 0x2f, 0x31, 0x00, 0x00, 0x00, 0x00, 0x00, 0x00, 
    0x7e, 0xfe, 0xff, 0xff, 0x00, 0x00, 0x00, 0x01, 0x14, 0x00, 0x00, 0x00, 
    0x14, 0x00, 0x00, 0x00, 0x0a, 0x00, 0x00, 0x00, 0x00, 0x00, 0x00, 0x02, 
    0x38, 0x00, 0x00, 0x00, 0x5c, 0xfc, 0xff, 0xff, 0x2a, 0x00, 0x00, 0x00, 
    0x73, 0x65, 0x71, 0x75, 0x65, 0x6e, 0x74, 0x69, 0x61, 0x6c, 0x5f, 0x31, 
    0x2f, 0x66, 0x6c, 0x61, 0x74, 0x74, 0x65, 0x6e, 0x5f, 0x31, 0x2f, 0x73, 
    0x74, 0x72, 0x69, 0x64, 0x65, 0x64, 0x5f, 0x73, 0x6c, 0x69, 0x63, 0x65, 
    0x2f, 0x73, 0x74, 0x61, 0x63, 0x6b, 0x00, 0x00, 0x01, 0x00, 0x00, 0x00, 
    0x01, 0x00, 0x00, 0x00, 0xd6, 0xfe, 0xff, 0xff, 0x00, 0x00, 0x00, 0x01, 
    0x14, 0x00, 0x00, 0x00, 0x14, 0x00, 0x00, 0x00, 0x09, 0x00, 0x00, 0x00, 
    0x00, 0x00, 0x00, 0x02, 0x1c, 0x00, 0x00, 0x00, 0xb4, 0xfc, 0xff, 0xff, 
    0x0e, 0x00, 0x00, 0x00, 0x61, 0x72, 0x69, 0x74, 0x68, 0x2e, 0x63, 0x6f, 
    0x6e, 0x73, 0x74, 0x61, 0x6e, 0x74, 0x00, 0x00, 0x01, 0x00, 0x00, 0x00, 
    0x01, 0x00, 0x00, 0x00, 0x8e, 0xfd, 0xff, 0xff, 0x00, 0x00, 0x00, 0x01, 
    0x10, 0x00, 0x00, 0x00, 0x10, 0x00, 0x00, 0x00, 0x08, 0x00, 0x00, 0x00, 
    0x28, 0x00, 0x00, 0x00, 0xec, 0xfc, 0xff, 0xff, 0x1b, 0x00, 0x00, 0x00, 
    0x73, 0x65, 0x71, 0x75, 0x65, 0x6e, 0x74, 0x69, 0x61, 0x6c, 0x5f, 0x31, 
    0x2f, 0x64, 0x65, 0x6e, 0x73, 0x65, 0x5f, 0x31, 0x2f, 0x4d, 0x61, 0x74, 
    0x4d, 0x75, 0x6c, 0x00, 0x02, 0x00, 0x00, 0x00, 0x08, 0x00, 0x00, 0x00, 
    0x40, 0x00, 0x00, 0x00, 0xd6, 0xfd, 0xff, 0xff, 0x00, 0x00, 0x00, 0x01, 
    0x10, 0x00, 0x00, 0x00, 0x10, 0x00, 0x00, 0x00, 0x07, 0x00, 0x00, 0x00, 
    0x2c, 0x00, 0x00, 0x00, 0x34, 0xfd, 0xff, 0xff, 0x1d, 0x00, 0x00, 0x00, 
    0x73, 0x65, 0x71, 0x75, 0x65, 0x6e, 0x74, 0x69, 0x61, 0x6c, 0x5f, 0x31, 
    0x2f, 0x64, 0x65, 0x6e, 0x73, 0x65, 0x5f, 0x31, 0x5f, 0x32, 0x2f, 0x4d, 
    0x61, 0x74, 0x4d, 0x75, 0x6c, 0x00, 0x00, 0x00, 0x02, 0x00, 0x00, 0x00, 
    0x04, 0x00, 0x00, 0x00, 0x08, 0x00, 0x00, 0x00, 0x22, 0xfe, 0xff, 0xff, 
    0x00, 0x00, 0x00, 0x01, 0x10, 0x00, 0x00, 0x00, 0x10, 0x00, 0x00, 0x00, 
    0x06, 0x00, 0x00, 0x00, 0x30, 0x00, 0x00, 0x00, 0x80, 0xfd, 0xff, 0xff, 
    0x21, 0x00, 0x00, 0x00, 0x73, 0x65, 0x71, 0x75, 0x65, 0x6e, 0x74, 0x69, 
    0x61, 0x6c, 0x5f, 0x31, 0x2f, 0x63, 0x6f, 0x6e, 0x76, 0x31, 0x64, 0x5f, 
    0x31, 0x2f, 0x63, 0x6f, 0x6e, 0x76, 0x6f, 0x6c, 0x75, 0x74, 0x69, 0x6f, 
    0x6e, 0x00, 0x00, 0x00, 0x04, 0x00, 0x00, 0x00, 0x08, 0x00, 0x00, 0x00, 
    0x01, 0x00, 0x00, 0x00, 0x02, 0x00, 0x00, 0x00, 0x01, 0x00, 0x00, 0x00, 
    0x00, 0x00, 0x16, 0x00, 0x1c, 0x00, 0x18, 0x00, 0x17, 0x00, 0x10, 0x00, 
    0x0c, 0x00, 0x08, 0x00, 0x00, 0x00, 0x00, 0x00, 0x00, 0x00, 0x07, 0x00, 
    0x16, 0x00, 0x00, 0x00, 0x00, 0x00, 0x00, 0x01, 0x14, 0x00, 0x00, 0x00, 
    0x14, 0x00, 0x00, 0x00, 0x05, 0x00, 0x00, 0x00, 0x00, 0x00, 0x00, 0x02, 
    0x38, 0x00, 0x00, 0x00, 0xf4, 0xfd, 0xff, 0xff, 0x29, 0x00, 0x00, 0x00, 
    0x73, 0x65, 0x71, 0x75, 0x65, 0x6e, 0x74, 0x69, 0x61, 0x6c, 0x5f, 0x31, 
    0x2f, 0x63, 0x6f, 0x6e, 0x76, 0x31, 0x64, 0x5f, 0x31, 0x2f, 0x63, 0x6f, 
    0x6e, 0x76, 0x6f, 0x6c, 0x75, 0x74, 0x69, 0x6f, 0x6e, 0x2f, 0x53, 0x71, 
    0x75, 0x65, 0x65, 0x7a, 0x65, 0x00, 0x00, 0x00, 0x01, 0x00, 0x00, 0x00, 
    0x03, 0x00, 0x00, 0x00, 0xea, 0xfe, 0xff, 0xff, 0x00, 0x00, 0x00, 0x01, 
    0x10, 0x00, 0x00, 0x00, 0x10, 0x00, 0x00, 0x00, 0x04, 0x00, 0x00, 0x00, 
    0x2c, 0x00, 0x00, 0x00, 0x48, 0xfe, 0xff, 0xff, 0x1e, 0x00, 0x00, 0x00, 
    0x73, 0x65, 0x71, 0x75, 0x65, 0x6e, 0x74, 0x69, 0x61, 0x6c, 0x5f, 0x31, 
    0x2f, 0x64, 0x65, 0x6e, 0x73, 0x65, 0x5f, 0x31, 0x5f, 0x32, 0x2f, 0x42, 
    0x69, 0x61, 0x73, 0x41, 0x64, 0x64, 0x00, 0x00, 0x01, 0x00, 0x00, 0x00, 
    0x04, 0x00, 0x00, 0x00, 0x32, 0xff, 0xff, 0xff, 0x00, 0x00, 0x00, 0x01, 
    0x10, 0x00, 0x00, 0x00, 0x10, 0x00, 0x00, 0x00, 0x03, 0x00, 0x00, 0x00, 
    0xb0, 0x00, 0x00, 0x00, 0x90, 0xfe, 0xff, 0xff, 0xa2, 0x00, 0x00, 0x00, 
    0x73, 0x65, 0x71, 0x75, 0x65, 0x6e, 0x74, 0x69, 0x61, 0x6c, 0x5f, 0x31, 
    0x2f, 0x63, 0x6f, 0x6e, 0x76, 0x31, 0x64, 0x5f, 0x31, 0x2f, 0x52, 0x65, 
    0x6c, 0x75, 0x3b, 0x73, 0x65, 0x71, 0x75, 0x65, 0x6e, 0x74, 0x69, 0x61, 
    0x6c, 0x5f, 0x31, 0x2f, 0x63, 0x6f, 0x6e, 0x76, 0x31, 0x64, 0x5f, 0x31, 
    0x2f, 0x42, 0x69, 0x61, 0x73, 0x41, 0x64, 0x64, 0x3b, 0x73, 0x65, 0x71, 
    0x75, 0x65, 0x6e, 0x74, 0x69, 0x61, 0x6c, 0x5f, 0x31, 0x2f, 0x63, 0x6f, 
    0x6e, 0x76, 0x31, 0x64, 0x5f, 0x31, 0x2f, 0x63, 0x6f, 0x6e, 0x76, 0x6f, 
    0x6c, 0x75, 0x74, 0x69, 0x6f, 0x6e, 0x2f, 0x53, 0x71, 0x75, 0x65, 0x65, 
    0x7a, 0x65, 0x3b, 0x73, 0x65, 0x71, 0x75, 0x65, 0x6e, 0x74, 0x69, 0x61, 
    0x6c, 0x5f, 0x31, 0x2f, 0x63, 0x6f, 0x6e, 0x76, 0x31, 0x64, 0x5f, 0x31, 
    0x2f, 0x53, 0x71, 0x75, 0x65, 0x65, 0x7a, 0x65, 0x3b, 0x73, 0x65, 0x71, 
    0x75, 0x65, 0x6e, 0x74, 0x69, 0x61, 0x6c, 0x5f, 0x31, 0x2f, 0x63, 0x6f, 
    0x6e, 0x76, 0x31, 0x64, 0x5f, 0x31, 0x2f, 0x63, 0x6f, 0x6e, 0x76, 0x6f, 
    0x6c, 0x75, 0x74, 0x69, 0x6f, 0x6e, 0x00, 0x00, 0x01, 0x00, 0x00, 0x00, 
    0x08, 0x00, 0x00, 0x00, 0x00, 0x00, 0x16, 0x00, 0x18, 0x00, 0x14, 0x00, 
    0x00, 0x00, 0x10, 0x00, 0x0c, 0x00, 0x08, 0x00, 0x00, 0x00, 0x00, 0x00, 
    0x00, 0x00, 0x07, 0x00, 0x16, 0x00, 0x00, 0x00, 0x00, 0x00, 0x00, 0x01, 
    0x10, 0x00, 0x00, 0x00, 0x10, 0x00, 0x00, 0x00, 0x02, 0x00, 0x00, 0x00, 
    0x44, 0x00, 0x00, 0x00, 0x74, 0xff, 0xff, 0xff, 0x36, 0x00, 0x00, 0x00, 
    0x73, 0x65, 0x71, 0x75, 0x65, 0x6e, 0x74, 0x69, 0x61, 0x6c, 0x5f, 0x31, 
    0x2f, 0x64, 0x65, 0x6e, 0x73, 0x65, 0x5f, 0x31, 0x2f, 0x52, 0x65, 0x6c, 
    0x75, 0x3b, 0x73, 0x65, 0x71, 0x75, 0x65, 0x6e, 0x74, 0x69, 0x61, 0x6c, 
    0x5f, 0x31, 0x2f, 0x64, 0x65, 0x6e, 0x73, 0x65, 0x5f, 0x31, 0x2f, 0x42, 
    0x69, 0x61, 0x73, 0x41, 0x64, 0x64, 0x00, 0x00, 0x01, 0x00, 0x00, 0x00, 
    0x08, 0x00, 0x00, 0x00, 0x00, 0x00, 0x16, 0x00, 0x1c, 0x00, 0x18, 0x00, 
    0x00, 0x00, 0x14, 0x00, 0x10, 0x00, 0x0c, 0x00, 0x00, 0x00, 0x00, 0x00, 
    0x08, 0x00, 0x07, 0x00, 0x16, 0x00, 0x00, 0x00, 0x00, 0x00, 0x00, 0x01, 
    0x14, 0x00, 0x00, 0x00, 0x24, 0x00, 0x00, 0x00, 0x24, 0x00, 0x00, 0x00, 
    0x01, 0x00, 0x00, 0x00, 0x40, 0x00, 0x00, 0x00, 0x03, 0x00, 0x00, 0x00, 
    0xff, 0xff, 0xff, 0xff, 0x08, 0x00, 0x00, 0x00, 0x01, 0x00, 0x00, 0x00, 
    0x04, 0x00, 0x04, 0x00, 0x04, 0x00, 0x00, 0x00, 0x1e, 0x00, 0x00, 0x00, 
    0x73, 0x65, 0x72, 0x76, 0x69, 0x6e, 0x67, 0x5f, 0x64, 0x65, 0x66, 0x61, 
    0x75, 0x6c, 0x74, 0x5f, 0x6b, 0x65, 0x72, 0x61, 0x73, 0x5f, 0x74, 0x65, 
    0x6e, 0x73, 0x6f, 0x72, 0x3a, 0x30, 0x00, 0x00, 0x03, 0x00, 0x00, 0x00, 
    0x01, 0x00, 0x00, 0x00, 0x08, 0x00, 0x00, 0x00, 0x01, 0x00, 0x00, 0x00, 
    0x08, 0x00, 0x00, 0x00, 0x80, 0x00, 0x00, 0x00, 0x64, 0x00, 0x00, 0x00, 
    0x54, 0x00, 0x00, 0x00, 0x44, 0x00, 0x00, 0x00, 0x34, 0x00, 0x00, 0x00, 
    0x24, 0x00, 0x00, 0x00, 0x14, 0x00, 0x00, 0x00, 0x04, 0x00, 0x00, 0x00, 
    0xac, 0xff, 0xff, 0xff, 0x19, 0x00, 0x00, 0x00, 0x00, 0x00, 0x00, 0x19, 
    0xb8, 0xff, 0xff, 0xff, 0x09, 0x00, 0x00, 0x00, 0x00, 0x00, 0x00, 0x09, 
    0xc4, 0xff, 0xff, 0xff, 0x53, 0x00, 0x00, 0x00, 0x00, 0x00, 0x00, 0x53, 
    0xd0, 0xff, 0xff, 0xff, 0x2d, 0x00, 0x00, 0x00, 0x00, 0x00, 0x00, 0x2d, 
    0xdc, 0xff, 0xff, 0xff, 0x4d, 0x00, 0x00, 0x00, 0x00, 0x00, 0x00, 0x4d, 
    0xe8, 0xff, 0xff, 0xff, 0x16, 0x00, 0x00, 0x00, 0x00, 0x00, 0x00, 0x16, 
    0xf4, 0xff, 0xff, 0xff, 0x03, 0x00, 0x00, 0x00, 0x00, 0x00, 0x00, 0x03, 
    0x0c, 0x00, 0x0c, 0x00, 0x0b, 0x00, 0x00, 0x00, 0x00, 0x00, 0x04, 0x00, 
    0x0c, 0x00, 0x00, 0x00, 0x46, 0x00, 0x00, 0x00, 0x00, 0x00, 0x00, 0x46

};

const unsigned int cnn_model_tflite_len = 6456;

#endif
